#version: 0.2 - Trained by `huggingface/tokenizers`
Ġ a
i n
Ġ t
Ġ o
Ġ s
in g
Ġ b
i t
Ġ w
h e
Ġ p
a n
r e
Ġ c
l e
e r
Ġo n
a t
Ġ in
a r
Ġo f
r o
i s
Ġt he
Ġa n
Ġ f
Ġ m
Ġw it
Ġwit h
Ġ h
Ġan d
Ġ d
a l
Ġ g
e n
Ġ l
o m
Ġs t
Ġt o
r a
e s
d ing
o n
c k
Ġ is
e d
o w
o r
e t
u n
a s
Ġ Ċ
i r
Ġm an
l a
Ġ n
o p
t ing
c h
al l
Ġs it
i d
o o
u p
i l
o t
Ġn e
e l
u t
u r
Ġw h
i g
Ġa re
o l
er s
i c
Ġst an
g e
w o
Ġt h
Ġsit ting
Ġa t
u s
ar d
k ing
a b
he r
it e
Ġb e
r i
Ġs k
Ġ re
e op
id e
eop le
Ġc o
Ġ e
y ing
e b
Ġ ro
Ġt ra
a d
Ġstan ding
o ard
Ġ v
Ġ k
ab le
Ġd o
Ġp eople
Ġw om
T he
l o
s s
x t
Ġ it
Ġp la
Ġwh ite
i le
Ġne xt
f f
om e
Ġp l
Ġh ol
Ġwom an
un d
re et
Ġt able
v er
Ġth at
Ġf ro
Ġst reet
T wo
Ġb o
oo d
Ġf i
v e
Ġs h
Ġp ar
c e
Ġhol ding
Ġl a
ers on
ow n
Ġg ra
at e
n t
Ġg ro
Ġ y
Ġp erson
Ġs m
Ġc h
Ġb at
an t
ar ge
o un
a m
Ġw at
u m
an d
Ġd own
Ġc at
Ġl arge
Ġ up
c he
i on
Ġs ome
Ġc lo
Ġto p
Ġp i
Ġo ut
ig h
u l
a ch
Ġs n
Ġf l
Ġh is
Ġc ar
s e
Ġne ar
Ġdo g
el d
k e
ig n
Ġsn ow
n is
a ck
Ġt en
la ck
Ġgro up
Ġfi eld
Ġ ri
Ġtra in
Ġw al
re e
Ġfro nt
Ġpar k
Ġten nis
u re
Ġb us
ro om
Ġ ra
Ġsm all
Ġs ign
u g
Ġs ur
Ġb as
in d
Ġb lack
Ġro om
a y
s t
Ġpl ate
el l
i m
ro w
igh t
Ġb y
Ġwat er
Ġl oo
Ġp h
Ġgra ss
a in
Ġb u
Ġa ir
Ġs ide
Ġk it
on e
ro und
oun g
u e
Ġbat h
Ġh as
Ġb l
v ing
Ġ r
Ġre d
Ġsur f
Ġri ding
b oard
Ġbu il
as s
p h
A n
s ide
r u
e e
eb all
Ġbuil ding
Ġpla y
in k
Ġb ed
a ir
t er
Ġsk at
d s
Ġt wo
Ġy oung
Ġbas eball
re d
Ġwh ile
p t
Ġpla ying
re en
Ġbath room
Ġc om
Ġskat eb
Ġwal king
y c
z z
Ġf or
c t
Ġp o
a ge
Ġ j
Ġ her
Ġh or
Ġg i
Ġo t
yc le
ar ing
che n
Ġpi zz
Ġb ack
Ġot her
um b
Ġf ood
Ġkit chen
Ġbl ue
ra ff
Ġskateb oard
Ġm ot
Ġl i
Ġe le
Ġw ood
Ġbo y
ir t
i e
Ġpark ed
Ġb all
Ġpizz a
T h
t ure
Ġloo king
Ġsk i
Ġ he
ug h
Ġgi raff
Ġg reen
g et
ir l
Ġs e
Ġ le
Ġmot or
en t
Ġbe ach
it y
Ġp ic
Ġo ver
Ġ z
Ġe at
r an
Ġw e
Ġb en
ile t
ph ant
Ġclo ck
Ġbe ar
Ġro ad
p p
Ġw a
re l
Ġto ilet
an e
Ġc a
Ġg irl
am e
t le
Ġc on
Ġd es
Ġele phant
Ġpic ture
il d
Ġd is
Ġcom p
up le
ver al
Ġco uple
Ġsit s
Ġ umb
ck s
Ġumb rel
Ġc ity
l ass
Ġmotor c
o us
u b
Ġto w
il l
in e
Ġplay er
Ġm en
r is
Ġwe aring
d y
Ġ A
Ġfl ying
l d
Ġb oard
Ġw ind
Ġa l
Ġmotorc ycle
e p
pt op
t ain
Ġg ame
eb ra
ic e
Ġs he
Ġla ptop
Ġs l
Ġfro m
on g
k s
Ġa s
Ġthe ir
le d
Ġare a
Ġcomp ut
Ġin t
Ġch ild
Ġz ebra
Ġben ch
Ġwind ow
Ġs and
Ġla ying
Ġg lass
Ġs ink
p en
ro ugh
Ġair p
Ġt a
ris b
Ġst op
Ġt ru
as e
Ġo ld
ul l
Ġhor se
Ġbo at
Ġth rough
Ġch air
Ġw all
Ġh and
Ġs c
Ġa round
Ġl ight
Ġca ke
row n
risb ee
ot o
Ġeat ing
Ġwood en
Ġph one
Ġout side
b o
Ġph oto
u it
ell ow
or t
Ġon e
Ġcomput er
Ġm o
Ġv e
as t
Ġo pen
Ġ und
The re
Ġb ir
Ġy ellow
Ġdes k
Ġund er
Ġd e
c c
Ġt e
w ay
er y
Ġt re
Ġl it
Ġs w
Ġs p
Ġli ving
Ġgiraff e
Ġb rown
ro ss
a g
Ġtru ck
Th ree
Ġf lo
a p
Ġfi re
le s
at ion
Ġclo se
Ġc ol
Ġb un
Ġb an
Ġsurf board
Ġ en
Ġumbrel la
Ġtre es
' s
Ġb ow
ad y
Ġ T
Ġd i
Ġof f
Ġs uit
Ġt ree
Ġco un
h ind
Ġc ow
Ġbe hind
g round
Ġc ell
v es
Ġco ur
Ġs o
q u
Ġit s
o re
p la
s es
Ġb r
Ġban an
Ġbow l
Ġe ach
Ġsh ow
Ġsk y
Ġv ery
um p
et s
u ch
Ġf en
S e
Ġc ut
e at
Ġra ck
Ġcour t
Ġto get
Ġtoget her
ct ion
l y
Ġl ot
or s
Ġfl ow
i ch
Ġo ran
i f
Ġback ground
Ġint o
Ġk ite
Ġstan ds
Ġlit tle
Se veral
Ġr un
Ġsand w
t s
ve red
Ġa bo
ie w
Ġairp l
ri ck
Ġ W
e re
I N
Ġ S
Ġm oun
Ġco vered
Ġb i
Ġf risbee
Ġbun ch
h ing
al k
d le
P eople
r y
Ġg o
Ġd ri
Ġin side
Ġv iew
Ġdis pla
Ġa pp
Ġp re
ir ro
Ġsk is
Ġb ig
Ġh ot
Ġsh irt
d r
Ġm irro
Ġm a
Ġco uch
il led
che s
w alk
Ġh y
M an
Ġsw ing
an g
re ss
or m
Ġmirro r
Ġp ass
Ġve get
Ġfen ce
Ġcoun ter
d o
dr ant
Ġhy drant
Ġstan d
ch ing
Ġpi e
Ġflo or
Ġbir d
ce an
ed dy
Ġshe ep
Ġhe ad
Ġdispla y
Ġo cean
ot her
Ġveget able
Ġsandw ich
Ġm id
Ġairpl ane
u ff
n er
m ent
Ġmoun tain
im al
Ġan other
Ġf illed
et ting
Ġt eddy
il ing
Ġh ill
ff ere
Ġpl ane
ffere nt
Ġc he
p ed
Ġside walk
t wo
i es
Ġ im
Ġwom en
ous e
m p
Ġan imal
Ġf e
ru it
Ġh it
Ġj ump
Ġdi fferent
t he
Ġd ay
oo k
i p
Ġa r
Ġre f
Ġrack et
Ġoran ge
Ġd irt
Ġman y
Ġs a
ff ic
Ġtow er
Ġv ase
Ġgrass y
Ġtra cks
Ġwa ve
t ed
Ġtra ffic
Ġflow ers
Ġf ruit
Ġb ro
Th is
a ce
Ġre st
Ġpar king
Ġbe ing
Ġal ong
Ġvegetable s
Ġ F
o ur
k es
Ġb ab
i ck
Ġgiraff es
Ġhor ses
Ġ us
Ġ B
Ġ O
ar k
ur ing
Ġpl at
Ġgro und
Ġh ang
Ġgra z
Ġb ot
Ġt ie
Ġd ress
ug g
Ġf ull
Ġbab y
ar i
Ġim age
Ġcar s
Ġre ady
Ġ C
t e
Ġd r
Ġm et
Ġsnow board
he s
Ġs un
Ġst ation
e y
S ome
a c
at ed
Ġzebra s
re n
Ġb es
H E
Ġh a
Ġse veral
Ġst uff
Ġ un
Ġc l
Ġc am
Ġmid dle
r ying
Ġp ro
ul t
Ġsl op
Ġelephant s
ol i
Ġbanan as
m s
Ġc up
Ġta king
Ġh at
Ġt all
Ġhol ds
Ġc ross
s ing
Ġsign s
us h
Ġbo x
Ġbes ide
n ing
ad e
Ġski ing
cc oli
Ġc or
v en
Ġwh o
Ġg u
es s
Ġa d
row d
a re
Ġpre p
Ġl o
v el
Ġw or
d er
at or
Ġw ine
Ġe m
che d
Ġslop e
Ġa c
le r
Ġc rowd
en g
Ġstuff ed
Ġthe m
R E
Ġbi ke
Ġabo ve
Ġk n
Ġcam er
Ġst o
Ġbro ccoli
ut s
it ing
Ġpie ce
Ġsnow y
Ġv ari
ro l
Ġdo ing
Ġdri ving
c or
Ġac ross
Ġcamer a
ugg age
Ġd uring
Ġte le
us t
Ġk ey
Ġgraz ing
r ig
IN G
Ġhang ing
Ġth ree
the re
Ġre m
l as
Ġl ong
Ġdo or
Ġcow s
Ġcon t
Ġsk ate
rig er
Ġr id
pt y
Ġl uggage
Ġref riger
t h
a k
Ġpass eng
ur n
Ġ P
Ġt al
Ġb ag
Ġc le
Ġt rick
Ġgu y
Ġd on
ri es
v is
Ġk id
Ġs er
Ġp er
Ġglass es
Ġcol or
Ġem pty
Ġb ic
s h
es e
Ġbuilding s
Ġdo ub
Ġgo ing
Ġde cor
i i
Ġp ast
Ġp ap
Ġrefriger ator
vis ion
Ġwat ching
Ġpo le
Ġp ink
Ġtra ck
Ġm e
s ome
Ġc ab
Ġtele vision
Ġkey board
Ġumbrel las
f ul
Ġwal k
an s
Ġloo ks
Ġcor ner
Ġp air
ide o
Ġsto ve
f orm
Ġc ur
Ġd in
Ġv ideo
Ġdoub le
Ġbic ycle
Ġb re
Ġcut ting
Ġh igh
Ġsm iling
Ġpo sing
Ġg etting
Ġa g
Ġp ot
Ġchild ren
Ġsuit c
cc er
Ġbot tle
Ġ I
ar ding
Ġkit es
Ġs et
Ġtal king
Ġrem ot
Ġcont rol
p ing
Ġo ven
Ġp it
Ġswing ing
Ġp at
Ġp ain
Ġchair s
Ġ ĠĊ
Ġso ccer
Ġjump ing
Ġth row
Ġcon tain
Ġboat s
c es
Ġ ite
Ġh im
id ge
Ġcab in
Ġtra vel
f t
Ġdog s
i re
Ġus ing
ot h
ain st
Ġag ainst
Ġn ight
le ep
p e
t en
u d
Ġairp ort
i an
Ġbo dy
a ur
Ġanimal s
om et
Ġpap er
aur ant
k et
o es
Ġm on
Ġher d
ff ee
i ve
Ġh ome
Ġra c
Ġrest aurant
Ġp e
Ġm eat
Ġco ffee
g s
Ġcolor ful
omet hing
Ġbir ds
c lo
Ġche ese
Ġc an
Ġh ouse
es t
Ġcar rying
Ġl in
Ġbanan a
ĠF risbee
o red
Ġl ady
ut h
Ġdr ink
Ġs omething
Ġb rick
Ġwa iting
Ġal l
c her
Ġb ar
Ġra il
Ġde ck
Ġplat es
c ed
Ġp ol
Ġbed room
Ġb oo
Ġre s
Ġo r
is s
Ġremot e
Ġite ms
Ġle a
Ġlight s
Ġf ore
Ġplay ers
Ġf ace
Ġto y
I T
Ġri ver
Ġp ull
al f
oo l
p le
clo s
Ġst e
Ġtra y
Ġshow er
e ction
Ġbear s
Ġmotorcycle s
Ġabo ut
Ġs leep
Ġdress ed
Ġpl ant
Ġout do
Ġhe l
i al
Ġclo u
Ġj et
Ġint ers
Ġpasseng er
ar s
Ġski er
Ġen clos
ĠT HE
Ġvari ous
Ġat t
Ġra mp
Ġshe l
Ġrun way
Ġt ile
oo king
Ġrun ning
Ġdo ugh
Ġmo uth
a ve
as es
Ġro w
Ġcar ro
Ġtow ard
Ġl ine
Ġinters ection
Ġsurf ing
g ra
on es
Ġhand s
Ġm ic
t y
Ġp ur
Ġra in
Ġtravel ing
Ġbus y
ĠW ii
Ġmon it
Ġli ke
qu et
Ġrid es
h ic
Ġ M
if e
Ġn umb
Ġb ook
ar m
Ġloo k
Ġl ying
Ġdough n
Ġw he
Ġst ore
Ġskateboard er
Ġm at
o c
Ġs il
Ġmet al
Ġro ck
Ġsc reen
F our
Ġma le
Ġprep aring
c l
Ġp ile
Ġm ade
Ġsuitc ase
Ġsl ic
w e
Ġsurf er
Ġse at
b r
Ġh alf
ph one
Ġphoto gra
A N
ra w
Ġenclos ure
Ġnumb er
Ġsl ice
Ġve hic
Ġc e
Ġd ark
t o
u ce
Ġp an
g es
at her
Ġsh own
Ġkn ife
ĠI S
i z
Ġn o
a le
Ġpo st
Ġz oo
iss ors
Ġth is
Ġbat ter
Ġj ack
Ġto oth
a ding
Ġshow ing
Ġsleep ing
n e
Ġs al
Ġ L
Ġw ay
A T
v ed
om an
Ġsil ver
Ġsur round
n y
Ġtop ped
Ġcol ored
Ġbr ight
Man y
Ġt ub
Ġdon uts
Ġmic row
Ġlin ed
Ġb et
ar t
Ġwal ks
Ġme al
at ing
ĠO N
Ġdeck er
an es
Ġsc issors
eat h
ro n
Ġbr idge
l ic
el f
Ġrac quet
Ġt y
Ġdo ck
Ġm ark
Ġcarro ts
Ġ D
Ġa m
Ġh air
if orm
Ġ "
an ing
on d
we en
Ġbre ad
Ġmicrow ave
Ġbet ween
Ġdecor ated
Ġcabin ets
g g
Ġg re
Ġfe w
Ġun iform
Ġpull ing
m an
Ġpi ck
l ing
Ġjack et
Ġ H
Ġsc en
Ġkid s
Ġm ouse
Ġgra y
Ġsurround ed
Ġp ill
an ce
Ġoutdo or
Ġphotogra ph
Ġla ke
as h
im e
a ched
il y
Ġdis h
Ġthrow ing
Ġboo ks
Ġha ve
Ġt ri
ow s
Ġdisplay ed
Ġcontrol ler
Ġwa ves
Ġst ick
Ġgirl s
Ġpur ple
Ġlot s
Ġcross ing
Ġcoun t
Ġb ran
Ġin cl
Ġper form
Ġsal ad
Ġsh op
Ġbus es
W oman
Ġc and
Ġf our
Ġdin ing
p es
Ġe x
Ġhel m
Ġbl an
Ġold er
Ġclou dy
Ġmonit or
Ġ G
at oes
Ġpain ted
Ġ IN
Ġst at
Ġboy s
Ġad ult
e ct
s er
Ġfor k
d ay
k en
Ġst ri
ol d
Ġon to
Ġh o
is h
Ġres ting
Ġatt ached
in t
Ġstop ped
Ġoff ice
Ġcat s
Ġmo ving
ĠO F
b y
pp ed
Ġski ers
b le
Ġcom ing
oc ol
in king
Ġfore st
ss ort
Ġmark et
Ġf la
Ġgre y
ocol ate
h day
Ġ N
irt hday
ub lic
Ġscen e
Ġ ed
Ġc ook
Ġro cks
Ġle aning
Ġwindow s
Ġdr inking
Ġcle an
Ġs etting
Ġcom m
Ġshel f
E R
Ġfe m
Ġo b
Ġhit ting
Ġtable s
ar y
Ġse en
Ġoran ges
Ġla mp
Ġsurfboard s
Ġtop ping
Ġele ct
Ġs qu
Ġb irthday
Ġm ult
Ġma king
S m
Ġp ublic
Ġg r
Ġbe en
Ġen g
L E
j o
Ġla y
ach ing
Ġmountain s
ing s
Ġf re
Ġtow el
Ġmet er
e ar
us hing
Ġwat ch
Ġwall s
Ġfruit s
Ġwor king
o arding
Ġch ocolate
Ġen jo
t i
Ġcle ar
Y oung
at s
Ġed ge
Ġskateb oarding
Ġsun ny
Ġtoward s
o on
Ġst one
Ġbas ket
it ure
Ġf urn
Ġr ide
Ġbi kes
Ġpat h
r ic
Ġf ries
Ġapp les
ent s
Ġdis t
ĠT V
Ġflow er
Ġfurn iture
et h
Ġcon c
Ġpicture s
Ġfem ale
s p
Ġf ac
Ġsm ile
Ġn ot
Ġcat ch
ast ic
et y
N D
Ġsh ot
Ġcat cher
Ġt om
Ġp en
Ġwor k
re am
Ġpla ced
A R
te red
Ġpit ch
R O
oo t
Ġb el
Ġte eth
Some one
Ġhelm et
Ġs ub
Ġpol ice
Sm all
Ġpl astic
Ġsnowboard er
Ġlea ves
Ġcl ot
Ġro l
Ġcount ry
Ġt rying
Ġst ack
Ġcell phone
Ġshow s
Ġtooth br
Ġblan ket
Ġstat ue
t op
Ġt urn
Ġp a
all y
IT H
B lack
n eath
he d
ĠW ITH
Ġa ssort
le ss
Ġy ard
Ġunder neath
le n
Ġv an
Ġcar t
Ġsh ap
Ġother s
Ġha ving
L arge
Ġapp le
Ġplat form
Ġs ing
Ġc ase
le ction
Ġw et
Ġc ooking
Ġ ur
Ġt v
Ġt ime
Ġp ack
Ġn ice
am ily
Ġcar ri
Ġtopping s
T HE
Ġm ar
Ġsome one
in al
re te
is t
Ġbe er
der n
Ġdon ut
l ow
Ġm il
Ġsh o
Ġhot el
Ġconc rete
Ġbran ch
b or
he red
Ġg ar
Ġenjo ying
Ġt r
Ġb ut
Ġd raw
Ġdi re
Ġpie ces
Ġsh ort
Ġdin ner
g er
Ġf ri
Ġbas e
Ġdoughn ut
Ġslic es
Ġdist ance
Ġvehic le
s it
Ġp ut
ee ding
Ġlaptop s
Ġfre sh
Ġpe pp
i x
un k
Ġla p
ick en
Ġf eat
Ġf amily
Ġwat ches
Ġeng ine
ee p
Ġta ke
Ġsa uce
Ġ E
Ġa f
ro ad
Ġfl ies
Ġapp l
are s
Ġpit cher
v ers
Ġthe y
ed est
Ġso f
Ġar m
c a
w n
Ġj ust
Ġsp e
Ġs ee
ro up
Ġl and
Ġpizz as
Ġcomput ers
Ġperform ing
Ġappl ian
e red
Ġst y
Ġvari ety
iz ed
Ġr ice
ip le
Ġper ched
s ed
Ġe y
Ġmo dern
Ġsing le
a ut
Ġeat en
m ing
in s
Ġtrain s
q ue
t ub
Ġw ell
Ġch icken
Ġt ran
Ġre ading
Ġsh ore
Ġwood s
j ect
Ġw ild
Ġf r
id es
ure s
ĠS T
Ġcontain ing
Ġplant s
Ġtri cks
l ight
Ġw as
Ġd ry
Ġne w
G roup
Ġw ire
at hered
Ġk ind
Ġle ft
le y
Ġg ear
Ġv ases
Ġtru cks
Ġne ck
Ġbath tub
Ġsw im
Ġar ran
Ġsa il
THE RE
Ġaf ter
Ġp ad
ion s
Ġsurf ace
Ġtow n
Ġcur tain
Ġtile d
i ed
Ġf eeding
Ġph ones
Ġta kes
Ġhot do
ion al
Ġben ches
ĠA ND
Ġboard s
Ġbr ushing
Ġpass ing
Ġsof a
Ġfen ced
it i
Ġin d
Ġguy s
Ġapplian ces
in es
Ġp as
an c
ch ool
Ġe qu
ĠC h
Ġcl ut
O ne
u ding
Ġp ul
el y
Ġrail road
p ack
Ġg athered
Ġincl uding
Ġ R
Ġf o
Ġfl y
Ġal one
Ġpasseng ers
aut if
Ġp edest
Ġst air
Ġdoughn uts
O M
m b
Ġbottle s
Ġdrink s
Ġpul led
Ġbag s
Ġpas ture
S t
pla ce
Ġmat ch
int age
c ial
Ġs chool
Ġbr ush
Ġbel ow
Ġcarri age
Ġa p
Ġf oot
Ġd u
Ġst all
Ġgra ff
Ġte am
Ġcut e
th ree
Ġser ved
Ġtoothbr ush
autif ul
i ding
Ġt an
en ter
Ġen d
Ġste el
arm ac
ron ic
A L
Ġback pack
Ġdes ser
Ġcand les
Ġfr idge
Ġplay s
th is
Ġbre ak
b b
Ġt armac
Ġw ii
he ad
Ġcur b
Ġ .
s elf
Ġc enter
Ġtra il
b all
Ġ qu
up p
Ġpill ows
Ġtr unk
Ġdirt y
Ġwhe el
Ġty pes
Ġam ong
Ġgraff iti
o s
Ġb al
Ġw r
Ġnear by
Ġpo les
Ġpo ses
Ġta ken
g ed
in i
Ġsh oes
st ru
Ġpain ting
b er
ra m
ur ch
ip s
Ġelect ronic
Ġm ess
ag es
Ġfe et
l and
u ches
Ġpla ce
Ġpo in
Ġsuitc ases
Ġg lo
Ġat op
Ġsand y
Ġfire place
Ġpre t
it s
Ġcat ching
Ġbowl s
Ġlay s
u ge
w ard
in ess
in ten
Ġw ed
Ġbe autiful
am es
Ġbox es
Ġcrowd ed
Ġser ve
a king
o ut
Ġh ay
ic hes
ad s
Ġstri ped
inten do
Ġbus hes
Ġbed s
Ġsty le
Ġl ow
Ġwhe re
f ess
Ġshap ed
Ġst aring
Ġro und
Ġch urch
Ġde v
Ġob ject
i v
Ġb lo
Ġw ra
Ġc ream
Ġr ight
ris t
Ġsmile s
Ġpret ty
fess ional
id ent
Ġre aching
Ġbus iness
Ġsp oon
Ġh uge
Ġsandw iches
Ġairpl anes
Ġh ar
Ġpl anes
ul ar
Ġle t
Ġdes er
Ġsink s
Ġvehic les
d ge
h ite
at o
is e
un ch
Ġwh ich
ell ing
ip ment
Ġlo c
Ġdire ction
Ġco ver
Ġfor m
Ġcontain er
Ġpol ar
Ġsqu are
Ġtom atoes
Ġput ting
Ġv intage
Ġdes ign
Ġcabin et
Ġequ ipment
m as
an ding
Ġpedest ri
i o
i ous
Ġle gs
Ġser ving
C h
d e
Ġa way
Ġb len
Ġpo se
Ġoff ic
ĠS t
Ġl ush
Ġe ar
Ġskateboard s
Ġswing s
Ġprep ares
Ġw in
en s
bo arding
P erson
er cial
Ġg old
Ġre t
Ġtra sh
Ġout f
Ġfl at
w ing
ur al
ard en
Ġbot h
Ġwed ding
f ast
s c
Ġg et
Ġstick ing
Ġfla g
s et
lass es
Ġar t
Ġcook ed
rist mas
al m
Ġg arden
ion ed
Ġfood s
ak ed
Ġslic ed
Ġclut tered
O R
v ent
Ġ ump
it ary
ur ry
Ġdis hes
Ġ U
Ġto ur
ic al
Ġhol d
Ġr ug
Ġpro fessional
Ġce ment
Ġclot hes
O P
Ġs ame
le t
yc l
Ġso up
Ġkn e
at es
ol l
Ġmot her
pp ing
art ment
Ġcomm ercial
Ġstack ed
L A
Ġp ool
Ġover l
ĠA RE
Ġmoun ted
Ġjump s
Ġpot atoes
E N
p eople
in y
Ġc ro
Ġf all
Ġsp ace
E T
O W
i um
l in
Ġthe re
Ġg ames
Ġst ain
ad ed
Ġdri ves
Ġbicycle s
Ġump ire
g lasses
u al
is ts
Ġro o
a red
o g
Ġapp ro
Ġfac ing
Ġsub way
Ġbreak fast
b an
n g
Ġf arm
el ing
Ġswim ming
stru ction
k ets
Ġ ice
Ġh am
Ġl one
Ġche ck
Ġur inal
Ġhotdo g
Ġdesser t
E S
I S
d ed
Ġb ur
ile r
Ġdock ed
n ic
s ian
Ġp ow
Ġblen der
m on
Ġco at
Ġbo arding
ul ts
Ġse ated
B o
Ġt er
re t
Ġon ions
ig e
ver t
Ġpar t
Ġsnow boarding
Ġskat ing
Ġeat s
Ġshort s
R A
i a
i raff
n ed
Ġst ep
ut er
Ġwood ed
Ġclock s
Ġrock y
Ġrol l
n a
n s
o u
Ġ V
Ġt ur
Ġc ra
ant s
Ġflo ating
Ġfri en
C K
O T
e ars
Ġsm o
Ġsurf ers
Ġref lection
Ġsun glasses
Ġmult iple
M en
Ġf ram
Ġd el
Ġpar ty
ren ch
Ġpro p
Ġpill ow
ĠN intendo
Ġassort ed
Ġmil itary
f ore
Ġt ied
at ive
Ġst raw
il s
Ġkit ten
Ġdis c
Ġarran ged
D ING
O N
S k
m ade
Ġs ay
ar row
Ġdo es
Ġsign al
Ġmo d
ation s
Ġrest room
Ġad vert
Ġoutdo ors
i cks
s ting
Ġg ate
ra ct
us hes
Ġle dge
Ġclou ds
Ġstair s
a ct
ph ones
dle r
Ġce iling
Ġf un
Ġm us
Ġl ad
Ġl unch
Ġbe fore
Ġco uches
Ġey es
d dler
p et
x ing
Ġdo ors
Ġcup s
Ġhigh way
Ġpepp er
a v
a z
c o
m er
Ġc ir
Ġch op
Ġclo sed
Ġra ce
Ġpic nic
Ġbro ken
Ġmess y
Ġpoin ting
f e
Ġg ather
Ġgi ant
ĠCh ristmas
Ġm ag
ra in
ur f
Ġski es
Ġgraz e
i red
Ġ K
Ġo pp
at ors
Ġf ish
Ġm ust
ĠA sian
Ġrack ets
Ġar ms
Ġhim self
Ġdeser t
C lo
Ġm ach
ed s
Ġco st
Ġe vent
Ġle ather
Ġcomp et
Ġfore ground
Ġdraw n
anc y
C at
a ke
i ff
t om
Ġh ard
Ġto ddler
Ġn arrow
Ġat te
Ġe g
Ġtra iler
Ġk ick
Ġste am
Ġmonit ors
Ġtran sit
s o
Ġp ond
Ġc r
un g
Ġne at
Ġv is
Ġcat tle
Ġcar pet
Ġbot tom
Ġoverl ooking
Ġcir c
Ġc ard
Ġc age
Ġf ash
as eball
Ġsp r
Ġpro d
a ches
re ad
Ġn ap
ic ing
Ġla wn
Ġflo ck
Ġapp ears
Ġad ults
Ġhar bor
Ġstain less
Ġroo f
Ġcost um
Ġf ancy
Ġm ix
Ġm ini
Ġth ings
Ġpla in
Ġben eath
uch ing
Ġma ke
Ġma kes
Ġor n
Ġty pe
Ġincl ud
Ġassort ment
u c
Ġf ig
Ġh ous
Ġl anding
el s
ad ow
ct ure
Ġse a
Ġflo ors
Ġlo g
ca kes
Ġwin ter
I R
i er
Ġ ut
Ġan ti
Ġf ol
Ġre la
Ġk et
Ġch ain
ct ed
Ġsay s
V ari
Z ebra
p er
Ġc la
on y
ver y
Ġphoto s
Ġrid er
Ġglo ve
Ġdev ice
R ed
Ġ ent
Ġa cc
Ġp ort
Ġm as
ck ed
Ġbl ow
Ġover head
Ġcol ors
Ġeg gs
o st
Ġw ide
Ġbe ver
Ġe xt
ke y
ĠT H
Ġrest s
Ġcl oth
Ġtowel s
b s
p s
Ġin ter
on i
Ġre ads
Ġpar ti
Ġhe ld
Ġclose up
Ġtoy s
Ġelect ric
Ġoutf it
lin er
Ġparti ally
Ġli es
Ġshel ves
W hite
Ġb ite
Ġin do
Ġm ush
Ġl id
Ġboard er
Ġdri ve
Ġche f
Ġcontroller s
G iraff
Ġa ction
Ġs ill
he l
ck et
Ġsh ade
Ġcon struction
Ġve gg
Ġha pp
man y
Ġstep s
F ive
Ġf ight
ra y
on s
Ġmach ine
Ġmush room
B aseball
i ers
Ġt w
Ġst r
Ġsm al
Ġen ter
ĠM AN
Ġgr ill
St reet
ident ial
Ġlet t
Ġanti que
Ġ J
Ġd oll
ic an
Ġdecor ative
Ġpast a
Ġsho ul
Ġfeat ures
Ġap artment
Ġ i
Ġs upp
la ge
Ġn et
Ġtoilet s
Ġus e
Ġwalk way
Ġrac ing
Ġkne eling
Ġmod el
i ble
Ġst ru
Ġst ret
Ġsh ip
Ġch ips
Ġte en
Ġpot s
Ġpepp ers
Vari ous
Ġsmal ler
I C
O U
c ting
or k
oo ter
Ġgi ving
Ġsuit s
Ġpull s
Ġce le
Ġs ides
Ġp ee
Ġm ug
Ġd ep
or y
Ġdesk top
ag ull
Ġpa w
Ġspr ink
Ġhous es
e f
i ves
is sing
Ġf rench
Ġg ets
ir d
Ġn ood
Ġwh at
Ġbe ard
Ġpo sit
Ġca kes
Ġsc ooter
Ġsa le
Ġpast ry
Ġkind s
S he
Ġp r
Ġp ants
Ġf ur
Ġm ud
la z
ot s
Ġsw eat
Ġsp ort
Ġlo aded
Ġpap ers
E D
O O
g o
i b
p l
Ġb ull
Ġw ets
ol ored
ul pt
Ġra iling
Ġj u
Ġhill side
Ġprep ared
Ġtom ato
Ġwets uit
i ke
Ġp etting
is ing
Ġst ill
Ġto ast
im b
Ġcontain s
Ġho le
Ġcomm uter
Ġclot hing
Ġappro aching
Ġfrien ds
Clo se
ĠTH AT
G irl
P l
h ouse
u ck
it al
ro p
Ġg ood
Ġr ust
Ġfe ed
Ġpast ries
Ġlea ding
Ġcarro t
Ġur ban
b e
Ġs iz
Ġstreet s
Ġbuil t
Ġsc ulpt
Ġte a
Ġso d
Ġhat s
Ch ild
Ġb aked
Ġopen ed
Ġsun set
Ġbar n
Ġres idential
Ġbright ly
T ING
Ġis land
all ow
Ġbus h
Ġwa its
Ġus ed
Ġno se
Ġturn ed
Ġgar age
Ġwr iting
Ġfight er
I G
O ld
p ar
Ġt ies
el ler
Ġup side
Ġcom f
ap e
Ġref le
Ġsa us
Ġpat io
Ġcontain ers
Ġmult i
Ġsmo ke
Ġmust ard
m e
Ġs y
Ġs elf
Ġp ans
Ġp ract
ch up
Ġcour se
Ġsa iling
Ġalong side
Ġsnowboard s
AL L
Ġblo ck
Ġket chup
Ġstru cture
in ing
it ten
er ing
Ġli qu
Ġle ash
Ġbi k
Ġrid ers
Ġthrow s
Ġex p
Ġmil k
Ġpad dle
Ġfash ioned
K ING
y ard
Ġa b
Ġw ar
er ial
Ġst ra
as ter
Ġla ugh
Ġpi er
Ġj o
Ġshe et
ull y
bo at
Ġus es
Ġdecor ations
Ġmushroom s
g on
l ies
at h
Ġst un
Ġto uching
Ġbl urry
Ġse agull
Ġle ans
ac on
Ġrain y
Ġbran ches
Ġvan ity
Ġprop eller
Ġlett uce
Ġsod a
S E
Ġp ave
er ly
Ġla mb
igh ting
Ġca p
Ġmo und
Ġuniform s
Ġwra pped
Bo y
Ġvegg ies
Ġnood les
c ra
g an
i eld
Ġc lass
ap er
Ġplat ter
Ġpack ed
Ġpedestri ans
Ġinclud es
Ġpave ment
b ile
b age
Ġb acon
an ge
Ġd eep
Ġst ad
Ġbe ans
Ġbe ige
Ġe gg
Ġj e
Ġshe ets
ĠT O
Ġdress er
ult iple
low ing
Ġdirection s
sc ape
T H
e m
at ure
Ġm it
Ġm ed
al s
Ġst ream
Ġhol der
Ġgro om
Ġch ar
Ġhead s
Ġremot es
Ġoffic er
Ġret urn
Ġstraw ber
Ġpepper oni
Ġstad ium
Y ING
Ġs ort
it ion
Ġwith out
Ġh all
un ding
Ġfro sting
Ġli ft
Ġal so
ook ed
Ġpat ter
Ġurinal s
Ġter m
Ġo w
Ġb are
Ġc ub
Ġf in
on ed
Ġn ame
Ġroad way
Ġsl iding
Ġpur se
Ġdu cks
Ġrela xing
Ġterm inal
Ġs ized
ic es
Ġsh allow
Ġla id
Ġbl ond
Ġcon d
ĠA T
Ġits elf
Ġpass es
RE ET
Ġdoor way
Ġbooks hel
Ġshop ping
Ġfla gs
Ġsho e
Ġfall ing
Ġbever age
u y
Ġp alm
Ġst eep
ot or
Ġfi ve
Ġbas kets
Ġmet ers
Ġlo ading
Ġlea f
Ġcand le
iv id
Ġorn ate
I L
h ill
l ue
Ġt iny
Ġon ly
ut e
Ġre ar
Ġpar ade
Ġpi pe
Ġca pt
Ġhand le
Ġmo st
Ġfac es
ĠST REET
Ġfram e
Ġsupp lies
She ep
A d
L ooking
i zz
w are
in a
Ġto ng
Ġbu cket
board s
sh irt
Ġlin es
Ġfri ed
Ġform ation
Ġpedestri an
ycl ist
Ġvis ible
cra ft
A B
C ars
Ġa w
Ġh ood
en ce
Ġfl ight
Ġrun s
Ġperform s
Ġrol ling
Ġfeat uring
Ġcostum e
Ġindo or
Ġshoul der
Ġsaus age
. .
I D
Ġ eld
is hing
Ġg as
Ġg laz
ck er
oo ks
Ġsm art
Ġsn ack
Ġair liner
ct s
Ġle g
Ġso ft
ĠP E
Ġbut ter
Ġtran sp
Ġcurtain s
Ġcover ing
Ġprod uce
Ġcele br
Ġju ice
ivid ual
Ġtong ue
E le
I n
O L
Ġp upp
Ġf ree
Ġto ol
us k
Ġgro wing
Ġsome ones
Ġri pe
Ġair craft
Ġcon s
Ġta il
bo y
Ġsp ect
ag ed
Ġdispla ying
Ġcl imb
Ġatt ire
Ġwr itten
OP LE
Ġhapp y
l ine
Ġt ab
Ġs im
Ġb ell
Ġp et
Ġf ir
Ġd ra
Ġst ud
Ġst icks
Ġperson al
st ed
Ġben ding
Ġwa it
Ġcol lection
Ġrem o
Ġey e
Ġdu ck
Ġelectronic s
G E
S urf
W O
a il
c ase
f ully
l ish
n ess
Ġ 2
Ġc re
Ġh ow
Ġperson s
se veral
Ġten t
Ġr ural
Ġse m
Ġle ap
ĠS IT
Ġgo ats
Ġwho le
ak ers
Ġcur led
Ġpile d
Ġpost ed
ycl ists
Ġnap k
C H
b ed
d ling
i or
Ġin f
Ġst ar
ri al
Ġv est
Ġfl ip
st er
ct or
Ġskateboard ers
Ġhe re
Ġwa gon
Ġban k
Ġite m
Ġpick up
Ġind ividual
Ġatte mp
Ġmit t
M ultiple
M otor
l it
Ġo l
is hed
Ġf ast
al len
Ġg uit
om ot
Ġto aster
or al
ge ment
oun t
Ġse ction
Ġmic ro
Ġtan k
Ġneat ly
Ġut ens
Ġsculpt ure
Ġje ans
G uy
H or
V iew
W e
i et
i pped
Ġ 1
Ġ Y
Ġ ing
Ġs elling
Ġm op
Ġm uff
Ġm issing
Ġd a
Ġl oung
Ġro pe
Ġwat ers
Ġta x
Ġarran gement
Ġloc omot
Ġlad ies
Ġkick ing
Ġsweat er
Ġspect ators
e um
i ents
Ġt rol
Ġp ine
Ġp ushing
Ġf allen
Ġg l
ck ing
id s
ic ture
Ġgreen s
Ġse par
Ġcol l
Ġbr ide
Ġim ages
Ġcor n
ust rial
Ġpot ted
Ġor gan
Ġcount ers
Ġland scape
ise ment
Ġpow er
Ġdel i
Ġeld erly
Ġsem i
ĠSIT TING
Ġattemp ting
Ġlocomot ive
D og
u es
v an
at er
ro unding
Ġre aches
Ġsur rounding
red ients
Ġhor s
Ġle mon
ĠS K
Ġpre s
Ġad j
Ġenclos ed
Ġtile s
AT E
Ġex h
Ġob ser
RO OM
Ġgar bage
Ġsport s
Child ren
Ġlaugh ing
H e
S S
b ow
c ycle
c ess
f our
is ed
Ġf ar
en d
Ġco vers
Ġpar as
raff ic
Ġsp read
Ġgo es
ER S
RO U
Ġmar ble
Ġnew sp
ĠSt reet
Ġadvert isement
Ġsprink les
Ġbookshel f
izz a
Ġtab by
C om
U T
b ur
n ow
Ġp or
Ġc as
Ġf ing
Ġg ent
eb ack
Ġsh ru
Ġgra vel
um er
Ġcat ches
Ġfl oral
Ġj ets
Ġcon f
Ġpicture d
way s
Ġsp ot
Ġbun ches
Ġhead phones
ĠB O
Ġtele phone
Ġtal ks
Ġpain t
Ġlamp s
Ġind ustrial
os ite
Ġmag n
Zebra s
Giraff es
Ġliqu id
Ġglaz ed
Ġing redients
C ows
Ġc al
Ġro ses
oun tain
Ġdown hill
Ġcar ries
ure d
Ġball s
Ġal m
Ġas leep
Ġstop light
Ġmirror s
Ġphotogra p
Ġstick ers
Ġpa ved
Ġspe ed
Ġwire s
Ġopp osite
Ġfir st
Ġutens ils
Ġhors eback
" .
A D
T raffic
g ing
Ġb ent
Ġin st
Ġf oc
as ing
Ġsit ing
ab it
Ġfro sted
am p
Ġr ange
Ġball oon
ĠA mer
Ġar ch
Ġhang s
Ġcross walk
IT E
Ġhel ping
Ġmat ching
ca ke
Ġhotdo gs
Ġmus eum
Ġacc ess
ĠPE OPLE
Ġpupp y
Ġgent le
G reen
t on
t ime
Ġ if
Ġc er
Ġd en
us ted
Ġfl own
Ġcar go
risb e
Ġmo ves
uff y
Ġha ired
ĠP LA
Ġme adow
Ġpot ato
Ġtoothbr ushes
Ġroll s
Ġself ie
I t
Ġ 3
he re
ro t
Ġh abit
Ġd ig
Ġst uck
or ter
Ġe ven
Ġdisplay s
Ġcup cakes
Ġtray s
Ġhelm ets
AR D
anc ing
Ġfo il
Ġoffic ers
Ġtransp ort
Ġclimb ing
Ġguit ar
P icture
d d
i que
n el
Ġ RE
Ġw ing
Ġre p
Ġe very
ile d
am ing
um in
and oned
Ġli fe
ran ce
Ġwe ather
Ġcon es
Ġcow boy
ĠB E
Ġqu iet
Ġobject s
Ġcompet ition
Ġmix ed
Ġnewsp aper
ĠAmer ican
Ġhabit at
a pp
Ġa ut
Ġs old
it tle
Ġc ycle
Ġf an
Ġch il
nis hed
ight ly
Ġfor ward
Ġmot ion
ran ge
Ġcounter top
Ġche st
th y
Ġboo th
Ġstr ing
Ġrust y
Ġfeed er
Ġpract icing
Ele phant
Ġalm ost
U RE
Ġb ul
Ġc alf
Ġf il
Ġf ake
Ġd im
ic ious
Ġth in
Ġtra v
Ġtop s
Ġsn iff
st and
Ġher self
ĠW H
Ġhill s
Ġsnowboard ers
Ġme et
Ġrow s
Ġblan kets
Ġsee ms
Ġham bur
Ġfig ur
Ġposit ion
Ġab andoned
Ġstun t
Ġhall way
AB LE
Ġmicro phone
N T
c ing
t ress
u zz
Ġc ere
Ġon l
Ġan g
Ġf ountain
Ġl ar
Ġto ss
Ġth rown
ad es
Ġsh iny
Ġbat ting
Ġr ub
Ġmotor b
bo ats
Ġmo re
Ġde ad
Ġhit s
Ġwor ds
Ġcle aning
Ġshap e
low er
Ġind ic
Ġwheel s
Ġcheck ered
Ġmag az
Ġtool s
Ġfoc us
Ġtrav elling
S now
g ress
Ġ icing
Ġon ion
Ġst ee
Ġst ool
Ġgra pes
Ġri bb
Ġpo uring
Ġshirt s
Ġsa van
Ġcup boards
Ġcook ies
Ġbasket ball
sp ital
av y
Ġmini ature
Ġfol lowing
Ġcond im
Ġexh ib
B us
D o
V e
c ar
v y
w ood
Ġa ud
Ġs ad
Ġb it
is es
Ġh um
Ġd usk
Ġl ighting
ch air
id er
Ġth ick
able s
Ġra d
Ġpo sed
Ġcon ne
Ġcon vers
Ġhome made
Ġrain bow
Ġpick le
Ġbal c
Ġcard board
Ġpr in
Ġsiz e
Ġol ives
Ġtrol ley
P izza
e w
m pt
o e
t own
u x
Ġa head
in ese
Ġs u
at tered
is ting
Ġst age
or ies
ol f
Ġy ou
Ġj ar
Ġwe ars
Ġopen ing
Ġpat ch
Ġtravel s
Ġsleep s
Ġmat tress
br ary
Ġtur ning
Ġaw a
Ġonl ook
Ġstee ple
Ġsavan na
' t
B rown
T URE
U S
o uth
w as
Ġ ic
Ġb ri
it ed
Ġp in
ro nt
Ġd ump
or d
op y
Ġbe g
eb oard
Ġse c
ast e
Ġcol d
ĠT ABLE
Ġshirt less
ĠI T
AN DING
Ġdel icious
Ġcla y
Ġpaw s
Ġstrawber ries
Motor cycle
A ssort
B lue
E L
U R
g age
i ence
o k
p y
r it
Ġ ill
Ġt ire
Ġs ug
Ġc alm
er ry
er ries
ro ccoli
Ġf ishing
ck ey
ir ds
il ity
Ġpar a
am ic
ind s
Ġback s
Ġle ar
Ġcomp le
Ġmo bile
Ġcol lage
Ġbr ushes
Ġgo at
Ġgraz es
Ġun made
Ġpro gress
Ġcontrol s
Ġpick ing
old ed
Ġho spital
Ġbur ger
Ġadvert ising
Ġenter tain
Ġcomf orter
ath room
Ġblond e
Ad ult
Ġnapk in
Ġloung ing
Ġcoll ar
Ġlar ger
Ġexhib it
was her
m en
n d
o d
z er
z en
Ġa ss
Ġs on
Ġw arm
Ġg olf
Ġl ab
Ġsk irt
Ġbo u
ant a
Ġfl uffy
Ġsurf s
Ġli f
Ġsp in
Ġsp ray
Ġche es
Ġcl iff
Ġslop es
Ġres ort
Ġdish washer
low ers
Ġap ron
Ġloc ated
Ġgather ing
Ġatte mpt
Ġblow ing
TH IS
Ġcer amic
F F
T o
c om
Ġt in
Ġt ries
Ġs ix
Ġb ra
Ġp le
Ġc ran
Ġh ugg
Ġst ir
ic olored
Ġv ol
Ġpla id
Ġli brary
ent al
ĠW OM
Ġche wing
Ġbag gage
Ġty ping
Ġgre at
Ġmud dy
Ġow ner
Ġmagn ets
Ġchil i
Ġhambur ger
Ġribb on
Ġbalc ony
L ittle
O n
r ight
Ġt un
it her
Ġp op
Ġp ige
an an
Ġf ans
Ġf risbe
Ġl ane
Ġne on
ers ey
Ġbe ef
Ġe ither
Ġv al
Ġfi xt
Ġsh ut
Ġdown town
Ġwind s
Ġar row
Ġpro cess
ak er
ĠP IC
Ġpan cakes
ĠD O
Ġdry er
Ġsail boat
Ġteam s
Ġdesser ts
Ġform al
Ġdesign ed
Ġgold en
Ġcirc ular
Ġent rance
Ġext en
Ġdrive way
Ġmost ly
Ġtax i
Ġorgan ized
B athroom
k a
m y
Ġw ings
Ġp ony
Ġc ru
ar p
Ġf urry
Ġst ares
us e
Ġre ad
Ġsh adow
Ġbus ses
Ġbu ff
Ġj ersey
Ġhe ading
ĠA ir
ast y
Ġbun k
Ġdri ver
Ġsa f
Ġprep are
Ġho se
Ġmult icolored
Ġmar ina
Ġwas hing
Ġglo ves
Ġteen ag
Ġstra ight
ĠWH ITE
Ġonlook ers
. "
A M
R o
Y ellow
a ks
c olored
d ers
Ġa v
Ġo wn
Ġp ri
Ġg az
om en
et te
un ks
op s
Ġco b
Ġr usted
ĠA N
Ġint ere
ag ue
ĠT RA
Ġcut s
Ġfloor ing
Ġpro te
Ġboo ts
Ġam ount
Ġcand y
Ġenjo y
iv al
Ġcheck ing
Ġtw in
pl ane
ID E
Ġsim ple
Ġcondim ents
Ġbou quet
ĠPIC TURE
B anan
C o
E AR
K it
m ed
o ra
w here
Ġa erial
Ġs us
Ġs ets
Ġb aking
Ġm om
Ġm ain
ic ely
Ġth an
ri mp
Ġe ars
Ġtra ctor
Ġsh a
Ġgro c
Ġfl ood
Ġwater ing
ru ck
umb o
ugh t
Ġle vel
Ġas ian
Ġsc ar
ĠB AT
Ġpro pped
are nt
Ġcont ents
ĠP L
Ġpit ching
Ġcan opy
Ġscreen s
ond on
Ġsqu at
Ġfresh ly
Ġdev ices
Ġcr ust
Ġinter ior
Ġsy st
Ġleap ing
Ġmop ed
Ġaccess ories
Ġmagaz ine
Ġaud ience
Ġsug ar
Ġentertain ment
B e
B irds
L O
m et
r al
Ġb and
Ġb iting
an o
Ġc ush
Ġd ot
en nis
Ġn at
el ves
Ġro se
Ġtable t
Ġsh aring
Ġsh ining
Ġup on
Ġsn e
Ġcom b
Ġhor ns
Ġhe art
Ġal ley
ĠB A
Ġste ak
Ġgr illed
Ġwork ers
Ġdraw ers
ĠST ANDING
Sk iers
Hor ses
Ġgentle man
ĠPLA YING
Ġeven ing
Ġcere al
A l
B roccoli
C E
T rain
T WO
p ass
w hite
Ġo dd
Ġw and
at eboard
Ġthe ms
Ġf olded
Ġg ri
Ġg ran
Ġst orm
Ġn umer
Ġn icely
Ġre ach
Ġsh aking
Ġsh rimp
Ġcar ts
Ġcom es
Ġj umbo
Ġski is
ent ly
pp er
Ġca fe
Ġsl ightly
Ġsc attered
Ġlight house
ĠW I
Ġun ique
Ġlo ad
Ġwor d
ust om
Ġseat s
gg ed
ward s
Giraff e
Ġi ron
Ġspin ach
Ġhugg ing
ĠWOM AN
re s
Ġc ustom
Ġf ab
Ġh ung
al thy
Ġst ory
Ġman s
her s
Ġco ach
Ġplay ed
ct ive
Ġle an
Ġmo ve
qu ets
Ġsky line
ang u
ĠP AR
Ġcan oe
Ġrail s
Ġtooth p
Ġsilver ware
Ġpick les
Ġgr and
Ġwork er
bb ing
Ġamong st
Ġfram ed
Ġchop ped
Ġcirc le
Ġmas k
Ġdep ic
IG H
Ġfing er
Ġconne cted
Ġnat ural
Ġthems elves
C ol
F ood
W omen
g y
h ou
o le
t or
Ġ el
Ġs le
Ġc ig
Ġc ool
at t
Ġf a
Ġh iding
Ġd ust
Ġto r
Ġn uts
Ġn intendo
op e
ic le
ri b
The se
Ġch asing
Ġpo int
Ġover c
ang er
Ġsun light
Ġun us
vel y
Ġwor ks
Ġnight stand
Ġor der
Ġlea ving
Ġfore ign
gg y
Ġstat ues
Ġfre ight
Ġbel t
Ġsho rel
ĠCh inese
Ġqu il
Ġbal ancing
Ġdesign s
Ġtur key
Ġprod u
Ġbeard ed
Close up
Ġmuff in
Elephant s
Ġvol ley
Ġsyst em
A S
K E
S h
d ered
z e
Ġt us
Ġb ak
Ġf ather
en ed
Ġl ink
Ġl angu
ra ying
id ed
Ġstan ce
Ġgra bbing
Ġclo set
Ġpi ano
pt ion
Ġdis k
Ġcourt yard
Ġgo gg
ick er
Ġpro t
Ġthem ed
Ġrac quets
Ġstri p
de cker
Sk ateboard
Ġfun ny
co vered
OO D
Ġcons isting
Ġadj us
ROU ND
Ġmotorb ike
Ġill umin
Ġsus pen
Ġfab ric
Ġshorel ine
Ġgogg les
V ER
g ant
i fferent
t ers
v ated
Ġo per
Ġb in
as ting
Ġne ed
ri ed
Ġsk in
Ġv end
igh bor
st ri
Ġgi ves
Ġli cking
Ġwe ar
Ġca re
Ġdis pen
Ġmotorc yclist
Ġta g
Ġcell phones
if lower
Ġar ri
ĠB en
Ġcross ed
Ġad or
Ġser ies
Ġbar s
Ġrail way
Ġmat erial
ĠL ondon
oot ers
Ġfoot ball
Ġfrien d
Ġmus ic
Ġlad der
uc umb
Ġstret ching
Ġsiz es
Ġwar ning
Ġjo ckey
Ġsnack s
Ġpor ch
Ġmeet ing
Ġfixt ures
Banan as
Ġgroc ery
Ġflood ed
Ġscar f
Ġgran ite
ĠWI I
Ġtus ks
Ġbak ery
d rop
h and
l s
w ork
z y
Ġt asty
Ġs la
Ġb ugg
Ġp ump
Ġc ases
Ġc ucumb
Ġin s
Ġl is
es ts
Ġsit e
il la
Ġth umb
Ġre ally
ve y
ul iflower
Ġra ft
Ġkit ty
one y
Ġover pass
Ġdes ks
Ġbun s
Ġun c
ĠP H
ĠH OL
Ġsail boats
Ġhard wood
Ġfig ure
Ġseagull s
Ġlamb s
Ġpatter n
Ġsoft ball
Ġfree zer
Ġdim ly
Ġval ley
H ROOM
P air
h ood
z a
Ġw re
Ġw icker
er ness
Ġf air
Ġm ay
Ġd ro
ra ge
Ġre g
Ġpla za
Ġpl an
Ġsh ades
Ġpar ach
Ġy outh
and a
ell s
Ġback yard
Ġle ague
Ġstop s
Ġsp raying
ĠC H
Ġbes ides
Ġpro ject
Ġcup cake
are t
Ġlo gs
Ġcook ie
Ġob st
Ġcountry side
ist ic
Ġtr unks
Ġopp on
Ġchef s
Ġpee king
Ġsepar ate
Ġcas tle
Ġsniff ing
Ġsavanna h
Ġintere sting
Ġtoothp aste
Ġoverc ast
ighbor hood
I E
r ing
x es
Ġ The
Ġ HE
Ġa ct
Ġb und
Ġh ooked
la bor
il lage
Ġre c
Ġv illage
Ġfi xing
Ġpar rot
am ond
Ġra ised
Ġwater f
Ġside ways
Ġback drop
Ġele gant
Ġhe avy
Ġhe althy
Ġse as
Ġsc ooters
Ġsp ac
Ġdi amond
Ġso ap
ĠS N
Ġhead ed
uff ed
Ġun f
ud dle
Ġpe an
to on
Ġpost er
Ġgr in
Ġnot eb
Ġwild erness
Ġpad dling
Ġpee led
Pl ate
Ġdig ital
Ġsu ite
Ġtun nel
ĠDO G
Ġcig aret
Ġquil t
Ġobst ac
a w
b lack
i xt
i ving
Ġ ,
Ġt alk
Ġc all
Ġf ry
Ġh i
al t
Ġg e
Ġg oo
Ġl oun
Ġst rol
la y
op ing
ab ly
ri er
Ġro ast
um ent
ack s
Ġbath ing
Ġj ung
Ġwa ding
Ġcon vey
Ġsp las
ere n
ĠF RO
ĠC AR
ĠC OU
Ġha ul
Ġgu ard
Ġlo b
Ġser v
ĠI nd
Ġbar rel
Ġwhe n
Ġsil hou
AN D
Ġam id
Ġtri m
Ġpack age
Ġcostum es
Ġfur nished
OO KING
Ġcomf ort
Ġpatter ned
Ġleaf y
Surf er
Ġobser ving
Ġphotograp her
Ġballoon s
Snow board
Ġconvers ation
Ġsec ond
Ġattempt s
Ġsne akers
Ġlis ten
ĠHOL DING
Ġloun ge
Ġjung le
A P
A ir
C HE
D on
H er
i pping
s ely
t a
Ġt rough
re sh
Ġc one
is c
Ġf ill
Ġf est
Ġne ighborhood
eb o
Ġbat s
Ġca uliflower
Ġdes c
Ġsl ow
Ġapp ear
Ġma les
ang ular
Ġday time
Ġcross es
Ġsto rage
Ġdecor ation
Ġpol ka
cl oth
gg ing
ĠG RA
Ġpolice man
Ġdire ct
ĠE ng
LA CK
Ġter rain
Ġrep air
Ġawa iting
Ġbuff et
Ġsaf ety
Ġcob ble
Col or
Ġoppon ent
C ar
K ids
S ix
T ennis
d led
e led
f ts
o bile
t ie
Ġ 4
Ġt ee
Ġb ill
Ġan t
Ġm es
Ġm ass
Ġm ixt
en ding
Ġl im
ra it
ur ning
Ġare na
ol ice
Ġat h
Ġbe an
Ġre cl
Ġk ay
Ġtable cloth
um n
Ġup right
ul d
Ġwater way
Ġca ught
Ġtow ing
Ġlight ed
Ġcell ular
if t
if ic
ĠW AT
Ġgo al
ip e
Ġar ray
Ġdress ing
ugg ed
Ġpro v
ler s
Ġkn ives
Ġdoub les
Ġpe ace
Ġbar bed
Ġphotograph s
Ġshop s
Ġnot e
Ġpen s
Ġturn s
Ġclut ter
Ġfo ggy
Ġpedest al
Ġorn am
Ġbik ini
Ġclass room
Ġshru bb
ĠBO ARD
Ġfigur ine
com ing
ĠBAT HROOM
Ġfa uc
Ġdispen ser
labor ate
ĠSN OW
Ġpean ut
Ġgrin ding
Ġmixt ure
A CH
S top
l ike
o ugh
r at
Ġ ident
Ġb erries
Ġw o
Ġp arent
Ġc her
Ġc rib
un ches
id y
oo red
Ġbe ak
Ġre ce
Ġclo sely
Ġbl inds
Ġcomp artment
Ġta pe
Ġdri ed
Ġsa ying
ĠF L
ĠB ig
Ġcl us
Ġkey s
Ġpair s
Ġmon key
Ġmeat s
Ġjet liner
AT ING
Ġfla v
Ġbut t
ĠU P
ĠU S
Ġtour ists
Ġpow dered
Ġbever ages
IG N
Ġrefle cting
Ġinf ant
ERS ON
Ġconf eren
Ġtransport ation
Ġlear ning
Kit chen
Ġsquat ting
Skateboard er
Ġins pe
Ġobstac le
Color ful
E P
F ruit
I V
P h
U N
a les
b ag
p ort
u ro
u cks
Ġt ux
Ġo cc
Ġs uch
Ġb ay
it ies
Ġw ill
Ġp anda
Ġf ighting
Ġm all
Ġd et
or ting
Ġman e
Ġre ct
Ġco ast
Ġk issing
Ġfro zen
Ġcar toon
Ġbas in
Ġgrass land
Ġher ding
pp le
Ġwa re
ag le
ap an
ĠS M
ĠB LACK
Ġhang ar
RE E
Ġboo g
Ġpost s
Ġjack ets
Ġspe akers
Ġap art
Ġwra pper
OT O
Ġchain ed
Ġindo ors
Ġenter ing
Ġteen age
Ġrefle cted
Ġcelebr ating
Ġbeg in
Assort ed
Ġcran e
Ġwinds urf
Ġprodu cts
Ġlangu age
Ġvend or
Ġbugg y
Ġshrubb ery
Ġconferen ce
D ifferent
S c
a rel
e en
k er
o de
s a
w s
Ġt att
Ġt asting
an ces
Ġc op
Ġc ree
Ġc ast
Ġc ans
Ġc ud
Ġan y
Ġf ed
Ġst range
or n
ic op
Ġro aming
Ġk eep
st one
Ġbl ood
Ġpo d
Ġpo ss
Ġpo cket
Ġj ars
Ġele vated
Ġgreen ery
Ġwa ff
Ġmo v
Ġde c
Ġde f
Ġdi v
ves t
ĠW AL
Ġdri vers
Ġpre ss
Ġhead board
Ġwor n
Ġdon key
Ġme as
Ġcur ved
ud e
AN T
ĠL OT
Ġstick er
Ġex am
light s
Ġret urning
Ġtour ist
Ġut ility
Ġposit ioned
Ġbik ers
Ġstrawber ry
Ġcub icle
Ġpine app
Ġdeli very
Ġlemon s
Com p
Ġarch ite
Ġhum an
Ġbri ef
Ġcomple te
Ġpige ons
Ġcush ion
Ġunc ooked
ĠPH OTO
Ġparach ute
Ġconvey or
Ġfauc et
Ġboog ie
Ġtatt oo
H ot
P edest
d it
i ent
v i
Ġ 5
in ished
Ġt ight
Ġt iss
Ġf at
Ġm el
Ġm ap
Ġd ug
al led
Ġg reet
Ġn ow
ur red
ig ating
ic s
Ġth ird
Ġat ten
ri ental
Ġre cor
Ġe laborate
Ġro t
Ġpl ugged
ver ing
Ġch and
am a
st icks
Ġair bor
Ġr ing
ugh ter
Ġwe re
Ġwe ird
Ġboard ers
Ġstop ping
ĠT WO
dle ss
Ġbig ger
Ġkn it
Ġbag el
Ġcan al
Ġplant er
Ġhel icop
ĠH OR
Ġscen ic
St uffed
Ġstall s
Ġmess age
Ġkne es
Ġcro uching
Ġappro aches
Bo ats
Ġsmo king
Ġinclud e
Ġport rait
Ġow l
Ġstud ents
Ġtoss ing
Ve get
rit ish
Ġfrisbe es
Co uple
IGH T
Ġsle e
Ġillumin ated
Ġthumb s
Ġcigaret te
Ġlisten ing
apan ese
Pedest ri
B O
I LE
L ots
O ut
S T
U n
a f
d en
e x
f ather
f lowers
g reen
t ruck
v al
v iew
Ġ es
Ġa do
Ġb ad
Ġp ig
er man
Ġin struction
Ġan ch
Ġm in
Ġh al
Ġto o
Ġn av
oo th
Ġth ing
Ġro b
Ġpla ins
Ġgro wn
am b
Ġsn ugg
Ġcar n
ass eng
ter ing
Ġskat er
Ġse lection
ub le
Ġsl ide
Ġta gs
Ġte xt
Ġtre ats
IN K
ĠS OM
ĠS anta
Ġma j
Ġveget ation
ĠC an
ĠC LO
Ġpe el
clo se
Ġbook case
Ġslic ing
ĠL OOKING
Ġtub e
Ġtri o
Ġex c
Ġdraw ing
Ġdraw er
Ġarm y
ĠST OP
Ġpad s
ĠR o
Ġpoin ts
Ġhar ness
Ġoutf its
sc ra
Ġfarm er
Ġfash ion
Ġmas hed
Ġelectric al
Ġrust ic
Ġcapt ion
Ġpres ent
Ġrad io
Motorcycle s
Ġcru ise
Ġteenag er
Ġhaul ing
uro pe
dit ional
Ġairbor ne
C ity
F resh
O pen
P asseng
S ign
V ery
d les
h ol
i vely
l ife
r up
t al
u ched
Ġ id
in ed
Ġt ro
Ġp ay
Ġp ane
er t
Ġh anding
ow er
Ġn ur
ut ion
ab y
Ġre lish
Ġtra ve
Ġpla ces
Ġsh arp
Ġgra b
Ġcar ry
Ġbl u
Ġyoung er
Ġfor ks
Ġback wards
Ġli e
Th at
Ġroad side
Ġwa ving
Ġdes t
ĠA pple
Ġsw e
ation al
Ġdi p
Ġrun ner
ĠS H
ĠS IDE
ĠS IGN
ĠC OM
Ġrefriger ators
ĠP ERSON
Ġser ves
Ġkeyboard s
Ġlin ing
Ġbar be
Ġrow ing
Ġpath way
Ġcatcher s
Ġsail s
Ġstair case
Ġdu al
Ġwheel chair
Ġspoon s
ĠK IT
Ġsill y
Ġdep ot
Ġpr int
Ġexp ress
Ġstra pped
Ġclass ic
Ġmuff ins
Ġda ughter
ĠSK ATE
FF E
Ġexten ded
ĠPAR K
Ġunus ual
Ġsuspen ded
Ġunf inished
Ġserv ice
Her d
Ġtux ed
Ġrect angular
Comp uter
Ġhelicop ter
L ong
N IS
P olice
e mb
h at
o sed
Ġ Z
Ġ ĠĠĊ
Ġt ry
Ġt idy
Ġs um
Ġp ug
Ġp uts
Ġc ome
at ter
ro ts
Ġwith in
Ġd am
Ġg un
Ġst om
Ġst able
Ġst ump
Ġn aked
el ier
ic o
Ġe as
Ġhis tor
nis hing
Ġten ts
Ġra bb
ph alt
Ġhe ar
Ġle ads
Ġcomp an
Ġmotorc yclists
ill s
ĠA f
ĠA IR
Ġsc ale
Ġopen s
Ġsp ro
Ġsp eeding
Ġsp lit
Ġcol le
ĠT EN
Ġsky scra
ĠW IN
Ġmid air
Ġhit ter
Ġbab ies
ĠB ritish
Ġcam p
Ġlo dge
Ġrem ain
some one
Ġbre aking
Ġhel p
Ġstore s
Ġrock ing
ne qu
Ġstri pes
Ġrol ler
Ġbut ton
ĠE ATING
ĠE urope
Ġspe cial
Ġspe aking
Ġwas her
Ġbackpack s
Ġbal ance
Ġdeser ted
ĠU n
OW N
Ġcra ck
ON E
Sk ier
Ġsignal s
Ġcompet ing
Cat tle
Ġstret ched
Ġcele ry
Pl ates
Ġsy rup
Ġmed ium
Ġindividual s
Ġparas a
Ġparas ol
Ġshru bs
Ġchees y
Ġshut tle
Ġpri v
ĠPL ATE
Ġel se
Ġador ned
Ġspac ious
Ġnoteb ook
ĠInd ian
Snowboard er
Ġpod ium
ĠWAL KING
I M
L a
L uggage
S and
U E
W ood
a ves
i pp
l at
s k
s uit
Ġ Zebra
Ġt rop
Ġo x
he dr
Ġc ooks
Ġon es
Ġf rying
Ġf oli
Ġf act
Ġm oored
Ġst re
Ġto n
Ġwh ipped
us hed
Ġsh red
Ġsh ag
Ġup ward
Ġbl urred
Ġr ings
Ġmen u
ĠA irl
ĠA ROUND
Ġas phalt
Ġde er
Ġte ch
eat en
ĠF I
ĠB US
Ġun lo
Ġlo ve
Ġem b
Ġkn ee
sh ield
pe ct
Ġclou dless
Ġatt ent
Ġshel ving
ĠD e
Ġsqu ash
RO W
Ġsub ur
THE R
Ġmar ried
Ġart istic
Ġfol low
Ġket tle
Ġhapp ily
ĠJ apanese
Ġsprink led
Ġpract ice
Ġstun ts
Surf ers
Ġstar ting
Ġsepar ated
Ġphotograp hed
Ġsold iers
Ġfigur ines
Ġindic ating
Al l
Ġdepic ting
stri ch
ĠGRA SS
Pedestri ans
Ġblu eb
Ġstom ach
Ġfoli age
Ġshag gy
A Y
A t
A IN
M o
M ale
P ro
V intage
c ue
f ash
i k
i kes
n o
o se
p ris
Ġ ROOM
in ation
Ġb ump
Ġb amb
Ġw ash
Ġc oo
Ġm ural
Ġh ind
Ġh ip
Ġd one
Ġd ash
Ġto uches
Ġman nequ
Ġn ames
ot ic
ri e
Ġre al
Ġsh ines
Ġgra vy
and al
Ġpi pes
st r
ell y
Ġben ds
Ġca ution
Ġwind shield
Ġhand ic
Ġsc rat
Ġte x
Ġflo at
Ġhill y
ĠF rench
ĠB U
Ġfull y
Ġdr ying
Ġcolor fully
Ġme m
Ġme mb
Ġcur ious
Ġdin er
Ġnumb ers
Ġlay er
ric an
Ġbal d
Ġwra p
de led
Ġwin ding
Ġret rie
Ġcro uches
ract ive
Ġcr ates
Ġcarpet ed
Ġext ra
Ġfur nishing
ib ly
Ġtoast ed
Com m
Ġinst alled
Ve hic
Ġcustom ers
Ġgrand father
Ġdust y
Ġadjus ting
ĠHE R
Ġwaterf all
Ġstrol ler
Ġdirect ly
ĠEng lish
Ġident ical
Ġmane u
Ġware house
Ġposs ibly
ĠCan ad
Ġexc ited
Ġrabb it
hedr al
fash ioned
Ġbamb oo
Ġfurnishing s
5 0
A GE
B aby
F lowers
I ON
L ight
O range
P ar
T eddy
V E
c ount
d es
g ers
h a
m el
o ff
p an
r um
y m
Ġ 6
Ġa ff
in er
Ġt il
Ġt ick
Ġp eng
Ġp ork
Ġc ass
Ġin vest
is hes
Ġf le
Ġf erry
Ġm uch
Ġm oney
Ġh ug
Ġg es
Ġg lowing
ra ble
la in
Ġne eds
ur t
Ġwh it
Ġth ru
Ġk e
Ġpl ush
Ġch ristmas
um my
Ġclo ud
ul ated
Ġra cks
Ġbed sp
Ġj unk
Ġhor ned
Ġhe ard
pp les
Ġcon so
Ġtow ed
Ġal co
Ġsl ides
Ġen vi
Ġbowl ing
ĠS HE
ment s
Ġsa u
Ġstation ary
ac ting
ven ue
Ġper ch
Ġbic yclists
Ġmon ument
Ġbar rier
IT Y
we ar
ron ment
ĠH IS
ĠG iraff
ĠG ROU
Ġclean ed
AR GE
Ġcarri ages
Ġwild life
Ġpainting s
ber ries
Ġstain ed
OT OR
Ġchop sticks
Ġvis it
Ġcirc us
Ġbik er
Hor se
Ġfing ers
Ġaut om
To ilet
Ġwand ering
Ġlean ed
Ġcool ing
Ġoper ating
Ġskin ny
Ġge ese
Ġlob by
Ġcobble stone
Ġant el
Ġclus ter
Ġpineapp le
Ġchand elier
ĠTEN NIS
Ġtrop ical
Ġfact ory
Ġtex ting
Ġges ture
Ġenvi ronment
ĠGROU P
B l
B ig
I Z
L iving
P LE
S un
T ow
a ff
b ee
o ck
p ers
r id
u la
u ally
w oman
Ġ Th
Ġ RO
Ġt ying
Ġt ug
Ġo riental
Ġo strich
Ġb le
it ive
er n
Ġf it
Ġm ous
al ks
Ġg aming
Ġg ym
Ġl imb
Ġto uch
et er
Ġn a
all ic
ut es
ic ally
Ġsk il
Ġco ck
Ġro ugh
Ġro de
Ġv andal
Ġfi x
Ġsh ips
Ġpar ts
ce lain
am as
Ġcat hedral
Ġsome where
Ġnear ly
nis h
Ġra w
Ġsign age
im ate
Ġr u
ter y
Ġj am
Ġj elly
Ġle d
ran ges
Ġwe eds
Ġben d
Ġroad s
Ġwa ke
Ġcomp let
Ġboard walk
Ġde mon
ĠT OP
Ġcut ter
ĠS UR
Ġgo ur
Ġview ing
Ġview ed
Ġma car
Ġmountain side
ĠF OR
ĠB IR
Ġhang er
Ġdress es
Ġmet ro
Ġmet allic
Ġcup board
Ġlo cked
Ġkn o
Ġcont ra
Ġpe ering
Ġdeck ed
Ġste pping
Ġhel ps
ĠM OTOR
Ġseat ing
ĠD OWN
Ġtri p
ĠG erman
ĠN E
ĠN EAR
ER Y
Sm iling
Ġnot es
Ġshot s
Ġpen c
Ġstack s
Ġpa j
Ġdire cting
Ġequ ipped
Ġbal ances
Ġblo om
vent ion
OW ER
Ġfarm ers
ON G
act ers
Ġfol ding
Ġvegg ie
Ġstr ings
Ġsculpt ures
Ġliqu or
Ġfin ished
Ġleap s
Ġspot ted
ĠRE D
Ġic ed
ĠTRA IN
Ġsla b
ĠFRO NT
Ġsilhou ette
CHE N
Ġfest ival
Ġath let
Ġprov ide
Ġwindsurf ing
Veget ables
Ġcarn ival
Ġtuxed o
La ptop
Sand w
Ġshred ded
ĠAirl ines
count ry
Ġpeng u
Ġbedsp read
Ġconso le
A KE
C T
H ING
L ady
S il
T our
U L
f oot
f ront
g en
h in
p ark
y e
y le
y oung
Ġa ler
Ġs ol
ing er
Ġw on
Ġw ip
Ġp on
Ġp age
Ġp uddle
er ole
at ely
Ġin form
ro me
Ġf ile
Ġh un
Ġh ad
al le
Ġg all
Ġg ad
la w
Ġn uzz
id ay
Ġne cks
el le
us ed
Ġre ve
Ġco les
Ġe ver
Ġro man
Ġro be
Ġv ac
Ġy og
Ġout st
Ġcar ous
Ġgroup ed
zz ly
Ġj ug
Ġz one
Ġtoilet ries
Ġcon g
Ġshe d
Ġta gged
Ġwall p
Ġsc o
Ġsc ru
bo x
Ġte mp
Ġsw ung
ag on
ag us
Ġfire truck
ĠT R
Ġdi pping
ĠS U
Ġche cks
Ġsa uc
ĠF OOD
ĠB L
ĠB Y
ĠO UT
ĠC ITY
Ġcl ub
Ġprep ar
Ġper ches
Ġcur ve
ĠI tal
Ġramp s
oc ad
ĠL e
ĠL ARGE
ron g
ĠN ew
Ġcomm ode
Ġeng ines
Ġbel ong
Ġtake off
Ġsof as
Ġspe aker
Ġblo cked
Ġloc al
Ġcro che
Ġcra ft
CK S
Ġinter act
Ġinter acting
Ġstret ches
Ġgood s
Boy s
IL DING
Ġcelebr ation
Ġstud io
Ġnapk ins
ĠSK I
Ġevery where
ĠBE ACH
Ġaut umn
Ġrub ber
Ġstool s
Ġprin ter
Assort ment
Ġlif ting
Ro ad
Ġav ocad
Ġprote ctive
Ġnumer ous
Ġprot est
Ġcucumb ers
Ġcomfort ably
isc uit
Ġmes h
ĠWAT ER
Ġbutt ons
Ġcree k
Ġmov ie
Ġmeas uring
Ġexam ining
ILE T
Ġado rable
Ġswe et
ĠKIT CHEN
lat able
Ġsubur ban
Ġdash board
ĠBU ILDING
Ġcass erole
Ġke pt
Ġskil let
Ġvandal ized
Ġmacar oni
Ġpaj amas
Ġgad get
Ġcoles law
Ġcarous el
A pples
B ic
B ird
C rowd
E m
H alf
O ranges
P lay
S o
b ing
d ress
f ive
f ect
l ane
o sing
p erson
p ipe
r us
v il
Ġ An
Ġt im
Ġs up
Ġb iscuit
re w
Ġc ot
Ġc ent
Ġin coming
ar n
Ġm ill
Ġh ud
Ġd ancing
om ebo
Ġst are
Ġst art
as ed
as hing
la ce
Ġn est
ur y
ur ple
ic ip
Ġe mp
Ġro d
Ġtra m
Ġk icks
Ġstreet light
Ġsh aded
Ġsh ake
Ġch ina
Ġch amp
Ġwat ched
Ġra ms
Ġra sp
Ġsur pris
An imal
Ġskat es
Ġpo ised
Ġski ier
Ġle ns
Ġhand bag
Ġtre at
Ġsp ar
Ġsp ots
ag ing
ag ne
Ġflo ats
ap ed
Ġban ner
Ġso ur
ĠS top
Ġpre ten
Ġma ker
Ġmid st
the se
ĠB ALL
ĠC o
ĠC AT
ac ent
ac hers
Ġun ri
Ġun able
ush i
Ġcor ds
Ġcle aring
Ġbic yclist
Ġset up
Ġste w
Ġatt ractive
Ġpile s
AN E
Ġmark ed
Ġfem ales
Ġshap es
Ġfri z
Ġpitcher s
Ġapplian ce
Ġfo g
stru cted
Ġpoin ted
Ġcro uched
lin ed
Ġpow ered
Ġcra s
Ġdisc us
av ily
Ġchop ping
Ġcub s
Ġremo deled
Ġinf latable
Ġadj acent
Ġpor celain
ĠBO Y
umin um
app y
Ġbul let
Ġang ry
Ġbit es
Ġbeg ins
Ġass emb
Ġteenag ers
AM E
Ġslow ly
Ġocc up
ĠSM ALL
Ġdug out
ĠHOR SE
Ġslee k
BO ARD
Ġanch ored
Ġmaj or
Passeng ers
Wood en
ĠDe cker
Mo dern
ĠSUR F
Ġoutst ret
Em pty
omebo dy
Ġchamp agne
A IR
B ed
B ow
B unches
B atter
C l
F em
H ere
I F
I KE
L e
M P
P H
P urple
S lic
T able
Y C
a i
b and
c y
i ator
n ers
p id
t oman
y l
z ing
Ġ ult
Ġt ide
Ġt arp
Ġo ct
Ġs led
Ġb la
Ġw ool
Ġp ir
Ġp il
Ġp ets
an a
re me
Ġc it
Ġc row
er ior
Ġm or
Ġh our
Ġd orm
en ds
es ting
Ġman tle
Ġn on
Ġare as
Ġre le
Ġe agle
Ġtra ditional
Ġdo zen
Ġsh are
ce pt
nt y
Ġy et
Ġch ange
Ġch rome
am s
Ġtrain ing
Ġwal led
Ġra m
Ġra ising
Ġra ises
ind er
Ġwater mel
Ġr hin
Ġbed ding
air y
Ġj eep
Ġot toman
Ġcon vention
ĠA ve
ĠA venue
Ġal arm
Ġal uminum
Ġas par
Ġte aching
Ġsp re
Ġen ds
Ġflow ing
Ġflow ered
Ġmirro red
do or
Ġtower ing
ick ly
Ġbes t
Ġun it
Ġad m
Ġwor ld
Ġser ious
Ġper fect
Ġtelevision s
Ġag ed
Ġpe as
Ġpe ars
Ġall ow
Ġbar ren
Ġste ms
Ġce met
to ck
Ġstri king
Ġeng aged
Ġfac ed
Ġmar sh
Ġgar nished
Ġfeat ured
Ġchicken s
Ġnew ly
Ġneck tie
Ġoutf ield
oll i
Ġbur nt
Ġdoes n
Ġsteam ed
Ġmix ing
Ġrela x
Ġcla im
Ġshoul ders
Ġblock ing
ĠTO ILET
Ġchar acters
Ad ults
Ġbutter f
Ġ1 9
Ġcal led
Ġinst rum
uzz y
Bus es
Ġtire s
Ġpige on
Ġsha ving
Ġpump k
Ġseas on
Ġhi king
Don uts
Ġdesc ri
Ġmass ive
Ġcud dling
Ġtiss ue
ĠCLO CK
Ġsum mer
Ġdam aged
Ġspro uts
ĠUn ited
Ġcrack ers
Ġpriv ate
Ġmemb ers
Ġalco hol
Ġautom obile
Ġcomplet ely
Ġdemon str
ĠBIR D
Ġoutstret ched
Ġaspar agus
Ġinstrum ents
E x
M AN
N G
R T
S IDE
T ra
Z A
a h
b ird
c on
c ot
f o
f ruit
f ield
o y
y ed
Ġ Zebras
Ġa im
Ġs ells
Ġs ushi
Ġb row
Ġp ed
re nt
Ġan al
Ġm er
Ġm is
Ġh om
Ġh ur
Ġd om
Ġl ime
Ġl ux
Ġst ating
ck ets
et iz
oo se
ot e
Ġre l
Ġco in
Ġco la
Ġco ke
Ġco uld
Ġk i
Ġpla cing
Ġhol iday
Ġy ach
Ġy arn
Ġsm ooth
am ed
Ġpi es
Ġgroup ing
Ġri m
Ġbas il
Ġbu y
Ġbl ind
Ġr an
Ġplay ground
Ġher bs
Ġhor n
Ġhe avily
Ġcomp act
ĠA L
ĠA P
Ġint ently
Ġhand les
Ġsc ra
Ġsw an
Ġdi ving
Ġso cks
Ġbr id
Se ven
ly mp
Ġbi plane
Ġapp etiz
ang ing
Ġhydrant s
Ġmountain ous
Ġbro n
ĠF or
ĠB R
ĠO ne
ark et
ĠC la
Ġsun lit
Ġpro m
Ġlo af
ator y
Ġthem e
Ġrid ding
ĠP O
Ġcan oes
Ġlin ens
Ġpol o
Ġres id
Ġste ering
Ġshel ter
ĠM EN
Ġdark ened
Ġno ses
ron s
Ġmark er
Ġmark ers
ĠD ES
Ġam er
Ġpick ed
Ġho les
Ġwindows ill
Ġsqu ir
ric t
Ġmar king
Ġmar oon
Ġgar lic
Ġfo am
Ġqu ickly
iv ity
Ġlet ting
Ġlet tering
LA SS
Ġcro iss
Ġopp osing
Clo ck
Ġcr ate
Ġmix er
Ġlog o
Ġent ree
Ġlett ers
Ġmug s
Ġsweat shirt
Ġbull s
Old er
TH REE
IL D
Ġhood ie
In side
Ġfree way
Ġmop eds
umer ous
Ġrub bing
Ġsad dle
Ġhum ming
Ġprin ted
Ġbri cks
ĠBA SE
Ġvolley ball
Ġmaterial s
Ġcucumb er
Ġwre st
Ġproject or
Ġcher ry
Ġinspe cting
Ġbegin ning
Sc issors
Ġhal ves
ĠSOM E
Ġeas y
ĠAf rican
Ġattent ion
Pro fessional
Vehic les
Ġtick et
IZ ZA
Ġgour met
Ġaler t
Ġinform ation
Ġyog urt
Ġwallp aper
Ġprepar ation
ĠItal ian
Ġbelong ings
Ġfriz bee
Ġpir ate
Ġmor ning
A V
A SE
C on
F ire
H and
I RA
I DING
N umerous
S pect
W h
X T
d ant
d ated
e ree
e ler
h am
m a
n oon
o x
p a
p her
p ress
t es
t hing
u il
w ise
w hat
Ġ '
Ġ 7
Ġ er
Ġ ip
Ġt u
Ġt et
Ġt elling
Ġo vers
Ġs anta
Ġs ided
Ġb or
Ġb id
an se
re ady
Ġf ine
Ġf uzzy
Ġd rain
Ġg ot
Ġg own
om s
on ely
or ld
Ġn ut
op us
el ine
ur s
ol ly
Ġbe ers
Ġv i
Ġv ests
Ġbo un
Ġgra bs
Ġsm elling
Ġpi cks
Ġgroup s
Ġtrain er
Ġside car
Ġmot e
Ġse wing
tle s
Ġal ready
Ġsand als
Ġsc iss
Ġen orm
Ġso aring
Ġma il
ĠB ED
ĠO VER
ĠO lymp
Ġcl own
Ġcam ping
Ġgu iding
Ġgu ests
RE D
urn ed
Ġcab bage
Ġpit ched
Ġpat rons
pe fruit
Ġcheese cake
Ġlea ve
Ġste er
iz on
Ġpost ers
Ġpill ar
Ġex iting
ĠG AME
Ġforest ed
Ġlay ered
ger ator
ĠE LE
Ġspe eds
Ġsee m
Ġland ed
Ġafter noon
Ġqu ite
Ġblo cks
Ġfall s
ĠV ERY
Ġcra cked
Ġfig ures
Ġtw ig
Ġstret ch
Girl s
Ġexp anse
Ġcons um
Ġbell s
Ġremo ved
Ġloung es
Ġobser ve
Ġcal ico
Ġcycle s
Ġcountertop s
Ġang le
Ġmotorb ikes
Ġindic ates
Ġrad iator
Ġlear n
Ġlif ts
Ġple nty
Ġgri zzly
Ġadjus ts
Ġreg ular
Ph oto
Ġarchite cture
Ġknit ted
Ġinstruction s
Ġpane led
Ġbarbe cue
Ġexpress ion
Ġcompan y
ĠEurope an
Ġparasa iling
Ġblueb erries
Ġmannequ in
Ġinvest igating
Ġantel ope
Ġble achers
ĠBL UE
Ġavocad o
Ġhud dled
Animal s
Ġspar se
Ġunri pe
Fem ale
Ġoct opus
Spect ators
Ġenorm ous
B E
D e
P L
P ink
P LA
a pped
c is
c ases
h ich
i ing
k ed
l arge
m at
n am
o id
p ie
Ġs at
Ġb arel
he t
Ġp el
re st
le te
Ġin v
Ġin stru
Ġthe se
Ġan im
Ġf er
Ġf ist
Ġf oll
Ġg ated
Ġl un
Ġl onely
el lo
ol it
ol og
ic ed
us ing
Ġre no
Ġco ats
Ġco zy
Ġro unding
Ġro ute
Ġv ast
lo ck
Ġgra ph
Ġy our
Ġsn ap
Ġfl ipping
Ġten ding
Ġfield s
st yle
Ġr ises
Ġpo kes
Ġback hand
Ġhe ight
Ġhe els
Ġwa x
Ġca ges
tle d
Ġcon ver
ĠA m
Ġunder wear
Ġsw ans
Ġsp ire
Ġsp orting
Ġbun ny
Ġen ough
pla y
ĠW ay
ĠW OOD
ĠW ashing
ĠW orld
ĠS L
Ġbi king
Ġdri ven
Ġma c
ang le
Ġpass ed
Ġfe eds
Ġref eree
ĠF R
ĠB EN
ĠO P
ĠC OW
Ġmet rop
Ġskate park
Ġme an
Ġdin ning
Ġpot tery
ĠI n
Ġste m
gra ph
ĠL AP
Ġbread s
Ġscen ery
ĠG IRA
Ġstri pe
Ġclear ly
Ġdist ant
Ġsub mer
Ġgar nish
ĠR IDING
ber ry
Ġbusiness man
Ġloc ation
Ġoffic ial
Ġpart ly
Ġchop py
ĠK it
Ġcompet e
Ġcard s
Ġport ion
Ġsupp ort
Ġrefle cts
Ġsaus ages
Ġpropeller s
Ġreturn s
Ġsmart phone
Ġremo d
Ġgl iding
Bus y
Ġic y
Ġwarm ing
Ġpop ulated
EAR ING
Be autiful
Ġstorm y
Ġtor n
Ġtor t
Ġroast ed
Ġsplas h
Ġsplas hing
Ġamid st
ific ial
Ġornam ent
ĠFL YING
Ġflav ors
IV ING
Ġwaff les
Ġgreet ing
Ġes c
Ġtrave lers
ĠPARK ED
Ġremain s
Ġemb ra
Ġfollow ed
Ġcoo ler
Ġhip ster
Ġscrat ching
Ġpengu in
Ġwip ing
Ġgall oping
Ġever green
ĠTR U
Ġrasp berries
Ġsurpris ed
YC LE
Ġwatermel on
Ġanal og
Ġki w
Ġamer ican
pher d
uil ding
Ġbid et
Ġbarel y
Ġfoll ows
ĠWashing ton
Ġsubmer ged
A nt
B RA
D OW
D ucks
N ew
O r
T ruck
a che
b il
b ack
b ama
g n
g ate
g rown
i en
l l
l ooking
m ultiple
s ion
t ra
t ate
z ens
Ġ &
Ġ 8
Ġ et
in ary
Ġt ul
Ġt anger
Ġs amp
Ġp ushed
re m
re es
Ġc raw
le phant
is ted
Ġh ut
Ġd v
Ġd eb
Ġd ance
Ġg en
es ter
ow ing
ch an
Ġsit u
id dle
ig er
ic tor
Ġth ough
us es
Ġsk ull
Ġre act
Ġv ess
Ġk iss
Ġsh oo
Ġsh ady
Ġgra d
Ġgra pefruit
Ġgro w
um s
and om
Ġsome what
Ġwal ing
Ġbus s
Ġroom s
st ers
ru cks
yc ling
Ġpo king
Ġpo urs
Ġhor izon
Ġse eds
Ġmotor ized
Ġover grown
ran cis
Ġtow ers
ĠA r
Ġwind y
Ġas c
rough t
ort h
Ġmo on
Ġtre y
Ġsp at
ap ers
Ġdi ffic
qu es
Ġsandw hich
ĠS E
ĠS he
ĠS INK
Ġim port
Ġjump ed
Ġtie red
ĠC he
ĠC AKE
ac ter
Ġcor d
Ġad ded
Ġsto ck
Ġsto cked
ĠP res
sh ot
Ġhigh chair
oth ic
Ġnight time
est ri
Ġboo t
Ġmouth s
ĠM ar
ĠM OU
iz ing
ĠL IGHT
Ġway s
Ġmeal s
Ġex it
Ġstri ke
Ġho vers
Ġfla ming
Ġcomm un
Ġsmile y
Ġrol led
Ġsing ing
ix ed
Ġfeat hers
aut y
Ġnew s
Ġfo al
mb ol
Ġdeser ts
Ġcabinet ry
Ch ocolate
ens ive
Ġtrash c
Ġart ificial
Ġroo ft
Ġpow der
ou f
Ġprop ell
Ġmus ical
Ġmust ache
Ġrela xes
OU NG
Ġpee ks
Ġpr ice
pl anes
Ġsy mbol
Ġwar ns
Ġchar acter
Ġbare foot
Ġfin ish
Ġbookshel ves
IL ING
Ġbell y
Ġdra ped
Ġ2 0
Ġcre w
Ġsection s
Ġgl ides
ĠSK Y
Ġpres ents
Ġden se
Ġevery one
Ġevery thing
Ġsniff s
Do uble
EL L
Ġarrow s
Ġgaz ing
Ġmom ent
Ġcomb ination
ĠBA CK
Ġnightstand s
Ġdro ps
ĠCH ILD
IE W
Ġbund le
Ġgoo se
Air plane
Ġbill board
Ġwo uld
Ġwaff le
Ġrot ten
Ġrob ot
ĠWIN DOW
Ġtech n
Ġhandic apped
Ġrode o
Sandw ich
Sil ver
Tour ists
Ġwon der
Ġpon ies
Ġvac ant
Ġscru b
Ġsauc er
Ġgadget s
Ġtim es
Ġsup er
Ġemp lo
Ġpreten ding
Ġult imate
Ġcemet ery
Ġbutterf ly
Ġhom es
Ġtu cked
Ġsciss or
het ti
olit an
Ġmetrop olitan
ĠTRU CK
rancis co
Ġdiffic ult
B r
B en
B ALL
B right
D is
D es
D ark
E BRA
F amily
K S
L Y
P E
R ef
T e
W ater
b at
c le
c ut
c ient
c olli
f eter
g irl
h old
i ver
i ans
k y
l ift
m all
n ut
r s
w alks
Ġ est
Ġa is
Ġt ar
Ġt shirt
Ġt rot
Ġo val
Ġs und
Ġs igh
Ġb ug
Ġb ord
Ġp al
Ġp ant
Ġp ep
Ġc ram
Ġc yclist
Ġc ops
at ian
is ter
Ġthe n
Ġm iss
Ġd ad
Ġd alm
Ġd airy
al a
al o
Ġst ones
Ġto ok
or ing
or ner
et ies
as hes
Ġn es
Ġn amed
il ar
il ight
ic t
Ġth rew
Ġbe auty
Ġre se
Ġv ine
Ġv ending
Ġfro g
Ġpar alle
Ġla v
ant ed
Ġup per
Ġri pen
Ġwal let
Ġbus hel
ain t
Ġair line
Ġair field
Ġr ise
Ġr andom
ee ping
air s
Ġback ed
Ġhe ater
Ġse ar
Ġle ad
Ġle ng
Ġle gged
ane ous
Ġca pped
Ġca feter
Ġcon structed
ris py
Ġint ric
Ġta ped
Ġmo ss
Ġde m
Ġte al
Ġte ap
Ġsw ord
Ġsp ag
Ġsp ark
Ġbr and
Se agull
ĠW hite
ĠW ALL
Ġview s
Ġche ws
Ġref rid
ĠF risbe
ĠF rancisco
ick ing
ĠO bama
Ġplat ed
ĠC ity
Ġsun flowers
Ġha w
Ġcam per
Ġcam ouf
Ġcor al
RE EN
RE NT
Ġcamer as
Ġvari eties
ĠP ar
ĠP IZZA
Ġme chan
Ġwalk ed
Ġcur rent
Ġoven s
ten ance
Ġpaper work
Ġpe ers
Ġpe ac
est ic
Ġlin er
Ġbrick ed
Ġbar ric
Ġdeck ered
Ġinters tate
ĠTHE M
Ġwhe eler
Ġpan el
Ġmicrow aves
ĠD I
ĠD el
Ġuniform ed
ĠG LASS
Ġstat es
Ġstri pped
ĠN o
RO R
Ġpack aged
Ġcarri ed
Ġdire cts
que e
Ġwas hed
Ġfo ra
mb led
Ġdirection al
ĠSt ar
Ġoverl ooks
Ġbur ning
Ġfram es
IR ROR
Ġcla w
Ġdoll s
Ġnood le
Ġexp ired
Ġmed ical
Ġchar ging
Ele ct
Ġcons ists
Ġsim ilar
Ġcre st
Ġstar ts
ĠY ork
Ġadvertisement s
Ġcal ves
Ġdig ging
ĠBE AR
Ġsold ier
Ġconvers ing
EL D
Ġlab el
Ġown ers
Kit es
Ġmain tain
Ġsha ved
Ġlevel s
Ġwand er
Ġcare fully
Ġarri ving
Ġjockey s
ĠCOU RT
Ġsilhou et
Car rots
Ġrecl iner
Ġkay ak
Fruit s
Ġdet a
Ġarchite ct
ex ican
Ġsnugg led
Sign s
ĠCOM P
ĠSKATE BOARD
ĠZ EBRA
Ġskyscra per
ipp ers
Ġstre wn
Ġmem ora
Ġmaneu ver
ĠSHE EP
ĠGiraff e
Ġvisit ors
ĠSU V
Ġcroche ted
Ġinteract ive
Bic ycle
Bed room
PH ANT
Ġcit rus
Ġsmooth ie
Ġbron ze
ĠFor ce
ĠDES K
Ġhumming bird
Ġip od
ĠOP EN
Ant ique
Ġtanger ines
Ġdeb ris
Ġgen er
Ġsitu ated
Ġgrad u
Ġspat ula
Ġimport ant
Ġtrot ting
Ġcafeter ia
Ġspag hetti
Ġrefrid gerator
ĠFrisbe es
0 0
2 0
B re
C le
C ow
C ats
E ight
G raff
I nt
I ES
M B
N ight
P ast
P ark
S ide
T w
T ER
U p
c ol
c ars
f illed
h or
i am
k n
p ical
s i
t ies
t urned
u le
u ard
v ation
w ar
w ell
z ard
Ġ Man
Ġ urn
Ġt esting
Ġs quee
it ch
it ude
Ġw oo
Ġw ig
Ġw eb
an na
an nel
re y
Ġc able
Ġc rown
ar a
ro fo
Ġf u
Ġf ut
Ġf am
Ġh oney
Ġh uddle
Ġd un
al ing
Ġg a
Ġg inger
en ing
en se
Ġl ion
Ġst alk
Ġst ars
Ġst rong
ra ut
ck led
or ial
la d
la pid
Ġn ature
op ped
all s
id den
ot hered
Ġbe ads
Ġsk ills
Ġco con
ad er
ad ows
Ġv ane
Ġv ans
ile s
Ġla m
Ġgra in
Ġsm othered
Ġbat ters
ant ic
Ġcar ved
st reet
Ġbu ds
Ġside walks
Ġr ig
ee ch
Ġplay fully
Ġfor ce
Ġback side
Ġother wise
Ġli p
Ġli ve
Ġli ves
Ġski iers
rel las
Ġca ct
Ġcon te
Ġhand ed
Ġhand led
Ġmo sa
Ġsp ices
Ġsp eech
Ġdi lapid
ĠW ar
ĠW EARING
ĠS an
Ġpre ser
Ġpre gn
Ġstand ard
Ġhead lights
Ġday light
Ġbro colli
ĠB B
ĠB e
ĠB ROW
ĠB IKE
ac ed
Ġcor ral
Ġem er
Ġem bed
RE L
Ġkn ow
ust ral
sh aped
Ġpast e
Ġbottle d
Ġpat ri
Ġrac er
Ġpe eling
Ġhouse hold
Ġpol it
Ġpur ch
ĠM IRROR
Ġwhe eled
Ġsal mon
ĠL IVING
ĠON E
ĠH ar
Ġincl ine
Ġsalad s
ĠG IR
Ġho op
Ġho vering
Ġgr inds
Ġdist rict
ND ER
Ġfeat ure
Ġsty led
ĠST U
Ġwire less
Ġneck lace
Ġpad dles
ines ses
Ġstair way
Ġblo ss
Ġwra pping
Ġform ally
Ch icken
Ġear ly
Ġret ail
Ġhold ers
Ġkne els
Ġbur rit
ĠV ictor
ĠV IEW
Ġcra fts
Sk ate
Ġcompet itive
Ġmake up
Ġacc om
Ġacc ents
Ġport able
Ġmas ks
Ġext rem
Ġcloth s
Ġtw ilight
Ġi P
Ġi Ph
Ġposit ions
Ġwetsuit s
me let
Ġexp osed
Ġfin ishing
IL L
Ġhandle b
Ġremo ving
Ġda is
ĠPLA Y
Ġfil thy
Do gs
Ġexten ds
Ġtaxi ing
ĠAN IM
Al tered
Ġodd ly
Ġprot ru
Ġneed le
ĠFRO M
ĠCAR S
Ġbarrel s
Ġfed ora
Ġdef ensive
Ġbrief case
Ġmel ted
Ġnav ig
ĠRo ad
Ġtro ph
Ġnur sing
FFE RENT
Ġhistor ic
Ġhistor ical
Ġskyscra pers
ĠFI RE
ĠFI ELD
Ġunlo ading
Ġbump er
ĠCanad ian
Ġtil ted
Ġsau ces
ĠNE XT
Ġbloom ing
Ġnuzz ling
So ccer
Bow l
Slic es
Ġrele asing
Ġlux ury
Ġyach t
Ġran ch
Ġresid ence
Ġtet hered
Ġbor der
ĠELE PHANT
ĠBEN CH
ĠKit ty
Ġkiw i
bil ia
Ġtul ips
estri an
Dis play
Ġais le
Ġparalle l
Ġleng th
Ġteap ot
Ġpeac ock
ĠDI FFERENT
ĠDel ta
Ġmemora bilia
Graff iti
rofo am
Ġlives tock
Ġconte mp
Ġmosa ic
Ġdilapid ated
Ġpregn ant
ĠBROW N
Ġembed ded
Ġextrem ely
ĠiPh one
A r
B ack
C ut
C ross
C ute
C orner
E AT
F ri
G lass
H ome
M eat
M ult
O ff
O VE
P art
R AN
R ows
T all
T LE
T rucks
U MP
V D
W ild
a e
b ul
b read
b ably
d raw
f ood
g le
h us
h ift
i vers
n es
o f
o ro
o ise
p ace
p ia
p ost
u f
u is
u ting
w or
Ġa qu
in ating
Ġt ack
Ġt ightly
Ġo il
Ġo melet
Ġs an
Ġs id
Ġs ight
Ġb ins
Ġb its
Ġb laz
it h
it or
Ġw ok
Ġp eop
Ġp ush
re p
re ts
Ġc ame
Ġc yclists
ar th
is k
Ġthe ater
Ġan cient
Ġf aded
Ġh ook
Ġh idden
Ġd uff
Ġd anger
al d
Ġl ite
om as
Ġst rain
Ġto day
es an
es ame
on t
or ary
ir ing
Ġn ine
op es
ch ini
ot ted
ut ter
ur ity
ard ed
Ġbe ca
Ġco ated
Ġe ight
eb ur
Ġro pes
Ġv ar
Ġv ent
The y
Ġthat s
Ġfi xes
ve led
Ġpar rots
ate e
Ġch annel
Ġout dated
Ġfl ips
Ġcar ving
Ġbus inesses
Ġra p
Ġra quet
Ġbu ckets
Ġbl own
Ġbl ows
Ġr ather
ct ors
Ġj ud
Ġmot el
Ġse ed
Ġse pia
Ġle ast
Ġmotor boat
Ġwa k
Ġwa ist
ĠA ustral
Ġshe pherd
Ġsl anted
Ġte ens
Ġtre k
Ġlit tered
Ġsw irl
Ġsp an
Ġsp ars
ag o
Ġcol um
Ġcol umn
Ġban quet
ĠT A
ĠT E
ĠT ALL
ĠT ennis
Ġshow room
Ġfen cing
ĠS W
ĠS h
ĠS outh
Ġgo atee
Ġhy d
Ġhit ched
Ġar ches
ĠF ed
ĠB ar
ĠB IG
Ġsun sh
ac es
Ġpro ud
Ġpro bably
Ġbox ing
Ġsto red
Ġlong board
Ġcont est
ĠP h
ĠP ark
Ġcur vy
Ġbre ast
ĠI M
Ġpat rol
Ġpe er
Ġmeat ball
Ġcan n
Ġor d
ool s
Ġplant ain
ĠM ac
ĠM exican
Ġlook ed
Ġsal t
ĠL A
Ġsurround s
Ġty pical
ĠD E
ĠD R
ĠD VD
Ġam use
ĠH IGH
ĠH ello
Ġtri ple
Ġmarket place
Ġsqu ares
Ġconc ert
Ġfac ility
Ġnot hing
Ġcarri er
Ġmar ching
Ġgar b
ca pped
Ġspe aks
Ġwild flowers
Group s
ĠR A
Ġfo und
Ġwed ges
iv ities
Ġart work
ĠU MB
ban k
IS BE
Ġbur ner
Ġbur ied
Ġpart icip
OT S
Ġkitten s
Ġpepper on
Ġmakes hift
uc chini
Vari ety
Ġmas cot
IC E
OU R
Ġju ic
ĠTO GE
Ġchar ter
Ġcapt ive
Ġdra gon
Ġdra gging
CH ING
ĠY OUNG
Ġtax is
UT ER
Ġarch way
Ġbooth s
Ġbul ld
Ġbul iding
Ġfil ming
Ġmagaz ines
Ġawa its
Ġcomple x
Ġchees es
Ġple as
Ġstir ring
Ġbuff alo
ĠAir ways
Ġsaf ari
Ġgaz elle
Ġenjoy s
Ġmain tenance
Be ach
Ġcush ions
Ġdot ted
Ġnumer al
Ġnumer als
Ġunus ed
Sh irt
Ġarri ve
Ġdro pping
Ġrec re
Ġwaterf ront
ĠCAR R
Ġfill ing
Ġlim es
Ġath lete
Ġbean ie
Ġpeace ful
Ġcher ries
Ġflav ored
Ġocc as
Ġatten ding
Ġrecor ding
Out side
Out door
Ġnav igating
ĠCanad a
Par king
Ġaff ection
Ġgesture s
Bl urry
Tow els
ĠRO AD
Ġmous es
Ġcontra ption
Ġpenc ils
Ġathlet es
Ġcong re
agon al
Ġassemb ly
Ġseason ing
Ġdemonstr ation
Ġappetiz ers
Ġsquir rel
Ġcroiss ant
ĠBASE BALL
De cor
pie ce
Ġanim ated
ĠFR ISBE
Ġcraw ling
ester n
Ġpropell or
Ġdalm atian
Ġnes tled
Ġhaw k
Ġfora ging
Ġarchitect ural
Ġcact us
REL LA
Ġpatri otic
ĠGIR L
Ġburrit o
ĠVictor ian
ĠANIM AL
Fri ends
hus i
Ġbeca use
Ġamuse ment
ĠUMB RELLA
ĠTOGE THER
B aked
F l
I s
L one
M et
N o
P e
P ie
S te
S omebody
T een
U G
W ine
W ork
b us
b rown
b ucks
c ome
f u
f ting
f ile
f ight
g roup
i ant
i ently
k raut
l or
l ong
n ey
o ke
r and
v as
y ond
Ġ Q
Ġ king
Ġ Se
Ġ que
in o
in ery
in ted
Ġt ip
Ġt ells
Ġt iger
ing le
Ġb urn
Ġb erry
Ġw i
Ġw ants
re ds
Ġc ane
er ies
er kraut
Ġf risb
Ġd ang
Ġd ots
Ġg al
Ġg low
Ġg ates
Ġl at
Ġl la
Ġl ate
Ġl anes
Ġst ere
Ġst ages
Ġto fu
un ching
Ġman ual
id ers
il ies
il itary
ut ers
ol ar
ic he
ic ular
us band
Ġbe at
Ġbe ached
Ġbe yond
Ġre ins
Ġco ca
Ġco bb
Ġe ff
eb e
Ġdo cks
Ġpeople s
Ġpla que
und ry
Ġtable top
Ġsh adows
Ġy ummy
Ġch o
Ġch at
Ġout house
Ġfl ash
Ġra ces
Ġbas ic
st ation
Ġgrass es
Ġr ising
ct ures
Ġgi ra
Ġgi fts
Ġmot es
Ġse x
Ġle ss
ent r
Ġz o
pp ost
Ġwa vy
Ġca ged
ill ing
ris e
Ġwind m
Ġsl ippers
Ġlight ly
ag ie
les c
Ġban ners
ĠT IE
Ġso ars
qu oise
Ġbr ing
Ġcourt s
Ġflow ery
if ied
ĠW A
ĠS AND
ĠS ox
Ġbi b
do g
Ġar ched
ĠB AN
Ġplat ters
ari ous
ĠC ol
Ġun b
Ġpro ce
Ġlo vely
Ġkn ick
Ġkn acks
Ġsto ves
ust r
th ora
ak fast
Ġtal ler
Ġdecor ating
Ġcab oose
Ġcur ly
Ġpain ts
Ġmon ster
Ġpe ar
Ġcan ned
Ġlin en
Ġbar b
Ġbar ber
Ġor ch
Ġfore hand
Ġsleep y
ĠTHE RE
Ġatt ach
Ġpur ses
Ġstore front
oc a
Ġhalf way
Ġpan els
ĠD on
ĠD IS
Ġam az
Ġam bul
ling s
ĠH OT
ĠH AS
Ġex otic
ĠG O
Ġho agie
ĠOF F
Ġed ges
Ġsqu ats
Ġconc entr
Ġfac ial
RO SS
Ġmar ks
Ġmil king
ĠE x
ĠE lephant
Ġspe c
Ġsty l
Ġsty les
Ġey ed
Ġtran s
Ġswim s
Ġequ estrian
ĠR ed
ĠR UN
Ġlow er
Ġwra ps
Ġflat bed
ĠU NDER
Ġoverl ook
EN T
EN CE
ET HING
lin ers
Ġham mer
Ġcheck er
Ġpart ial
RA W
ĠV ASE
Ġtur quoise
Ġdisc s
ĠK EP
Ġcr umb
Ġspr ing
IR T
Ġent husi
Ġacc ent
Ġmas ter
Ġext erior
Ġstr and
Ġshoul d
Ġstru ctures
pl ate
Ġjo b
Ġmed ian
Ġchar ger
Ġcapt ured
Ġhood ed
Ġtransp orting
Ġdra pes
Ġstud ying
Ġstud ent
Ġol ive
Ġsection al
Ġ1 1
Ġtrol ly
Ġgl ide
Ġdeli vering
Ġexh a
Ġstoplight s
AD E
Ġcer tain
Ġaut o
NT ER
Ġcere mon
Ġlif ted
Ġchees ebur
Ġbra ss
Ġple thora
Ġprocess or
Ġread ies
Ġav oid
ĠTRA CKS
Ġcomb ing
Ġworks pace
VER AL
Ġsla w
Ġact ivities
Ġbund led
Ġnoteb ooks
aw a
Ġtrim med
Ġcomfort able
Ġlim it
Ġprov ides
Ġornam ents
Ġparent s
Ġdiv ider
Ġdiv ided
Ġtiss ues
Ġrecor d
ĠSOM ETHING
Ġpresent ation
Ġid le
Ġid ly
Ġwash room
ha ired
Ġsau erkraut
Sun light
Ġna pping
Ġfix ed
Ġru ler
Ġkno cked
Ġpenc il
Ġathlet ic
Ġhun ched
Ġreve als
ĠSKI ING
Play ers
Ġsour ce
Ġbla des
Ġperfect ly
Ġdescri be
Ġhur dle
Ġwrest ling
PLA Y
Ġinv ol
ĠLAP T
ĠGIRA FFE
Ġtort illa
Ġet c
Ġstock ings
Ġrooft op
PE OPLE
Ġbord ered
Ġpep si
Ġintric ate
Seagull s
Cle an
Ġwoo ly
Ġfu el
Ġlam ppost
ĠBB Q
Ġaccom pan
Ġhandleb ars
Ġtroph y
Off ice
draw n
Ġrap ids
Ġspars ely
Ġsunsh ine
ĠIM AGE
Ġpepperon is
Shirt less
Ġoccas ion
Ġque en
Ġstere o
ĠKEP T
Ġcheesebur ger
A sian
B R
C YCLE
E G
E very
F ried
G ra
G rey
I m
L D
O C
S H
S l
S omething
S ES
U mb
V ase
W ell
b ic
b ook
b ble
b aseball
b lue
c ul
f l
f lower
g in
g ran
i ally
l ines
m ar
m obile
o ve
o cc
p osed
r m
s ized
s ia
v et
y al
Ġ (
Ġ 9
Ġ iv
in ent
Ġt ell
Ġt ired
Ġt usk
Ġo ar
Ġo ak
Ġs ure
Ġs anding
Ġs omebody
Ġs esame
Ġb one
it a
it ting
it ti
Ġw el
Ġw ines
Ġw rist
Ġw ades
Ġw rought
he ld
Ġp ra
Ġp ushes
Ġc ant
Ġc yl
le ct
le ts
le ry
er c
Ġon ward
is on
Ġthe rm
Ġan s
Ġan ten
Ġf ell
Ġf ellow
Ġm y
Ġm ur
Ġm ight
Ġm erry
Ġh und
Ġh usband
Ġd ate
al om
al ator
Ġg ull
om b
Ġst u
Ġst ate
Ġst ay
or ry
ir ie
Ġman ic
la ble
op ard
ch ild
up e
up ied
ig ious
ic les
Ġth read
ab lish
Ġco aches
Ġe ag
Ġro ot
Ġv en
Ġv ert
Ġk eeping
Ġdo ily
Ġdo zens
Ġpl ow
Ġstreet lights
Ġbo ul
Ġbo iled
Ġla undry
Ġgro ve
oun ted
Ġfl an
Ġsnow ing
Ġsnow suit
st al
st op
st ick
st ance
Ġhas h
Ġr ump
Ġsurf boarding
An d
Ġbed side
pt ions
Ġgi ve
Ġgi ven
Ġgi ft
Ġli zard
Th ose
Ġle opard
Ġover turned
Ġwe athered
Ġal mon
ep ad
Ġshe aring
Ġshe ars
Ġsl alom
pen d
Ġboat ing
Ġhand ling
Ġve g
Ġte ac
Ġsw amp
Ġsp ir
Ġbrown s
Ġbrown ie
Ġflo rets
Ġen vel
ĠT I
ĠT rain
ĠT OWER
Ġso aked
qu are
ĠW OR
ĠS C
ry stal
Ġgo ers
Ġgo ble
Ġapp e
Ġpre y
Ġstand up
ĠF LO
ĠF ENCE
ick ey
ĠB us
ĠB road
ĠB OW
ĠB lue
ĠO THER
Ġhang ed
ĠC AN
ĠC AB
ĠC OL
ac y
Ġun occ
Ġpro file
Ġac ro
Ġcont act
Ġrid den
ĠP A
ĠP izza
sh ip
Ġcab s
Ġpit ches
Ġpe ak
Ġcan vas
Ġbar ri
clos ure
ĠM on
br ush
Ġhalf pipe
Ġsal sa
ĠL IT
ĠL ittle
AT ION
Ġbet ter
ĠH ot
ĠG REEN
Ġstri ps
Ġho ckey
ĠN ok
Ġsetting s
Ġwork ed
Ġsub stance
Ġpolice men
Ġpa ying
Ġpa uses
len der
Ġpack s
Ġpack ages
bor n
Ġarm chair
Ġwild ebe
Ġnew born
ĠR oman
Ġteam m
Ġcurb side
ĠSt ation
ĠSt ates
OR N
OR T
Ġrug s
Ġcro ok
Ġappro ach
Ġtur tle
OT H
Ġadvert ises
Ġfun ction
Ġchop s
iff el
Ġvis or
Ġhous ing
Ġut il
Ġent ry
Ġgrill ing
ĠJ UMP
Ġdep artment
allow een
Ġrefle ctive
Ġlaugh s
Ġje w
Ġmed ia
Ġsort s
Ġpatter ns
Ġleaf less
Ġglaz e
Ġcelebr atory
Ġguit ars
Ġobser ves
Ġparas ail
Ġcas ual
AD Y
Ġgentle men
Ġden im
Ġfil m
uzz le
Ġtoss es
Ġtoss ed
Ġindic ate
Ġfocus ed
Ġcondim ent
Do ugh
Ġsec urity
ĠIT S
Ġill ustr
Ġlab els
Ġlab eled
Ġpop ular
Ġfixt ure
Ġav ai
ĠPL ANE
Ġprodu ct
Ġneed les
stri p
Ġarri ves
Ġplan k
ĠCH AIR
Ġrec ently
Snowboard ers
Air planes
Ġrecl ining
Ġkay aking
ĠWAT CHING
Ġrece ive
Ġcompartment s
Ġgrassland s
ĠSM ILING
Ġcree py
Ġpress ing
Ġtattoo s
ĠHOR SES
Ġsnugg ling
Ġdest ro
Ġdest ination
ĠCOM ING
Ġcolle ge
Ġcolle ct
ĠWIN E
sk irt
Ġox en
Ġton gs
Ġhandic ap
Ġmem orial
Ġcurious ly
Ġretrie ver
Comm uter
Ġaff ixed
ĠGiraff es
ye es
Ġsol ar
Play er
Ġmill ing
Ġcras hing
Ġdiscus sion
Ġoccup ied
Ġspre ading
Ġspre ads
Ġadm iring
Ġpumpk in
Ġpumpk ins
ĠBIRD S
Ġrel igious
ĠAL ONG
Ġscra mbled
Ġprom inent
Ġmarking s
Ġfoam y
Ġovers ized
Ġvi ol
ĠOlymp ic
Ġlun ges
Ġgraph ic
ĠAm tra
ĠSL OP
Ġesc alator
Ġembra cing
Or n
Ġsamp ling
ĠAr my
ĠPres ident
Ġflaming os
Ġtrashc an
Ġtechn olog
Ġwonder ful
Ben ches
Des k
Ġest ablish
Ġcram ped
Ġdem ol
Ġcamouf lage
Ġmechan ical
ĠZEBRA S
Bre akfast
ĠPLAY ER
Ġcolum ns
ĠFed Ex
Ġplantain s
Ġrecre ational
Met al
Ġgira f
ĠBAN AN
ĠDIS PLAY
Ġambul ance
ĠGO ING
awa ii
Ġaccompan ied
Ġalmon ds
ĠBroad way
Ġunocc upied
ĠNok ia
Ġcrook ed
ĠJUMP ING
Ġavai lable
ĠAmtra k
Ġestablish ment
B ook
B ear
C he
C ooked
D Y
E ld
F arm
F lower
G ING
I CK
J et
K ite
L F
L ine
L OTS
M other
M ini
M ilitary
P it
S p
S ail
T ables
U P
U Y
V ases
W AY
a led
d ale
e cting
f or
g h
g uy
g uard
h y
j ection
k ward
k ids
n ie
o la
o und
o ver
s he
s mall
t age
t rain
v arious
w he
w est
Ġ ir
Ġ ug
Ġa board
in ations
in nam
Ġt ins
Ġo st
Ġo rig
Ġb ark
Ġw ade
Ġw ife
Ġw aste
Ġw estern
Ġp ome
Ġp ood
Ġp ac
Ġp ud
Ġp ins
an ced
Ġc el
Ġc ul
Ġc rying
er v
Ġon coming
at ch
Ġan n
Ġf is
Ġm p
Ġm ice
Ġm int
Ġm isc
Ġh oo
Ġh ides
Ġh ooks
Ġd rop
Ġg n
Ġg or
Ġg la
Ġg um
Ġg othic
Ġl as
Ġst alks
Ġto t
ra bic
or gan
op ened
ch ment
ot a
el les
Ġwh ine
Ġwh ip
ig an
ic a
ic ans
Ġth ose
Ġco aster
Ġro am
ff od
Ġfro l
Ġsh ine
Ġpar chment
Ġla ce
Ġgra f
Ġy ak
Ġch arm
Ġch anging
am i
Ġup wards
Ġout skirt
Ġsn oo
Ġsnow mobile
Ġri bs
Ġpark s
Ġbas es
st ract
st ory
ell aneous
Ġloo se
Ġbu ying
Ġair strip
Ġr at
Ġr ally
Ġplay ful
Ġpo or
Ġpo ured
Ġher ds
Ġmot oc
irt y
ie f
Ġle ashes
Ġz ucchini
ran g
Ġcity scape
ĠA sia
Ġal t
Ġshe ared
ks w
Ġas h
Ġint ense
Ġchair lift
Ġhand ra
ort ed
ast ed
cc ess
Ġlit ter
Ġsp raw
Ġliving room
Ġfire man
Ġfire fight
Ġbun ched
Ġdi ff
Ġso cial
ly des
if ier
ĠW est
ĠS k
Ġpre form
Ġpass anger
do ck
Ġhill top
Ġim press
Ġsa fe
Ġbro ad
Ġbro cc
ĠF ord
ĠB ear
ĠB ost
ĠO LD
ugg ling
ĠC D
ĠC al
ĠC ent
ĠC ON
ĠC lock
ĠC ROSS
Ġsun rise
HE RE
Ġstuff ing
Ġun eaten
Ġun kn
Ġun opened
Ġcl ip
Ġwho se
Ġgu ide
Ġlo ck
Ġlo ves
Ġac ting
ak i
ĠP OL
Ġbag els
Ġper pend
Ġpat ient
Ġpat iently
Ġpe aking
Ġpe els
est uring
Ġbar red
Ġste al
Ġhel lo
ĠTHE IR
Ġshel l
Ġrow boat
gra m
Ġrain ing
hic ago
Ġwhe at
Ġmat s
we ed
iz es
Ġno vel
ĠL in
ĠL ANDING
ĠH appy
ĠH alloween
ĠH awaii
Ġpill ars
Ġperform ance
Ġfour s
Ġex cept
Ġex erc
ĠN avy
Ġcook er
Ġgr ind
Ġeng aging
ti ble
ric hes
Ġconc er
Ġhelmet ed
Ġpa vil
Ġvan illa
Ġcart on
Ġpack ing
Ġpack aging
Ġbase man
unk in
Ġlap s
Ġtake out
Ġsee ming
Ġsail ors
Ġclut ching
mb ling
St at
bb les
Ġcenter piece
Ġqu art
Ġwheel ie
os ure
Ġwr ink
Ġplace mat
Ġpret z
Ġround ed
Ġlet ter
Ġloc ations
ious ly
sc ent
ĠARE A
Ġter rier
Ġpart ner
ĠV W
Ġmod els
Ġlad en
co at
ĠK reme
ĠK rispy
Ġmach inery
ung ing
Ġchain s
Ġinter n
Ġdep ar
Pl ane
Pl ated
Ġab stract
Ġjo gging
Ġmit ts
Ġmed ic
Ġcond ition
ĠAT V
Ġcapt ure
Ġcapt ivity
Ġaw kward
Ġpupp ies
usk y
Ġeye glasses
Ġinf ront
Motor c
lit tle
Ġtank er
Ġ1 0
Ġda wn
Ġda ffod
Ġsurrounding s
Ġcas ually
ĠBO AT
Ġtransport ed
Ġlife guard
Ġhambur gers
NT AIN
Ġrad ishes
Ġmattress es
Ġawa it
Ġpin ned
Ġcliff s
Ġbra ce
Ġcran es
Ġexten ding
Ro om
Ġband ana
Ġalley way
Ġcustom er
Ġdepic ts
Ġlangu ages
Ġvend ors
Ġwre ath
Ġmay be
Ġyouth s
Ġbund t
Ġseas oned
Ġspac es
ĠCOU PLE
ĠCOU NTER
Ġlob ster
ĠEng land
Ġmes sing
Ġkay aks
Ġwo ven
Ġrece ption
Ġclus tered
ĠUS ING
Ġtattoo ed
Ġatten dant
Ġpig s
Ġtrave ler
Ġdest inations
Ġhear ts
Ġhear ty
Comm ercial
Ġfle et
Ġhug s
ĠMOTOR CYCLE
gen cy
ĠOUT SIDE
ĠLe ague
Ġbiscuit s
Ġdiscus sing
Ġpil ot
Ġrhin o
ĠCla us
AV ING
Hand s
Ġmail box
Ġconsum ption
Ġinstru ctor
Ġremod eling
Ġvess el
Ġasc ending
Ġcommun ity
Ġ20 1
Ġpant ry
Ġsear ching
Ġbarric ade
ĠStar bucks
Elect ronic
Ġmaintain ed
Ġsilhouet ted
ĠCOMP UTER
Ġgradu ation
iam ese
Ġfut on
Ġcocon ut
ĠSTU FF
Ġbloss oms
Ġdais ies
Ġprotru ding
Mult i
wor ks
Ġblaz er
Ġcann ot
Ġord inary
Ġbulld og
ĠFRISBE E
Pie ces
Ġgal ley
ĠLAPT OP
Im age
Ġpra irie
Ġanten na
Ġboul ders
ĠFLO OR
Ġacro bat
Ġbarri ers
Ġdestro yed
Orn ate
Ġdemol ished
Eld erly
innam on
Ġost riches
Ġpome gran
Ġpood le
Ġmisc ellaneous
Ġoutskirt s
lydes dale
ĠBost on
Ġunkn own
Ġperpend icular
Ġseeming ly
Ġdaffod ils
' re
3 0
A G
A UT
B ot
F ans
F ather
F OUR
G o
G lasses
G ray
H igh
I f
K ES
N ine
N ice
N ING
N IF
O RE
P ot
P ack
P ublic
P ots
R es
S ingle
T O
U B
W hat
a ils
b la
c reen
c Don
d ri
d own
d ry
d ges
d ifferent
e g
f y
g und
g lass
g oes
h ost
h aw
i el
j ured
m ers
m ble
m otor
m arket
m ounted
n uts
o uts
o ram
o inted
p o
p it
p icture
r ink
r idge
s urf
t el
t ail
u ed
v ine
v ator
v intage
w ed
w ater
y s
z ed
z ebra
Ġ u
Ġ There
Ġa ve
Ġa ble
in ce
in ter
in ts
Ġt it
Ġo ptions
Ġs lo
Ġs che
Ġs ack
Ġs ipping
Ġb room
Ġb ru
Ġb ake
Ġb inder
it ol
it ions
Ġw il
Ġw ant
Ġw ired
Ġp eb
Ġp ale
Ġp uffy
Ġc ris
Ġc ider
Ġc ables
Ġc ycling
Ġc rystal
Ġc innamon
le vision
at a
at ic
Ġin ner
Ġin closure
ar pen
Ġof a
Ġf et
Ġf ind
Ġf ading
Ġf iled
Ġm ad
Ġm ama
Ġd ome
Ġd ram
Ġd olly
Ġd iced
Ġg lue
Ġg esturing
en ting
en ities
Ġl ant
Ġl ast
Ġl unging
Ġst aff
Ġto ned
ra ck
et ro
et ti
un ction
as hed
ir st
ir gin
Ġman ner
Ġman uf
la mp
Ġn ook
Ġn unch
Ġn avy
Ġn asty
Ġn ational
op ed
el ve
el ines
ers ide
Ġth ink
Ġat e
us ting
us sian
Ġbe am
Ġbe aring
Ġbe agle
ri ate
Ġsk ew
Ġco al
Ġe re
Ġtra de
Ġv er
Ġv ines
Ġv ia
Ġbo und
Ġbo red
Ġsh in
Ġsh ares
Ġsh arpen
Ġpar ake
Ġpar lor
Ġla kes
Ġla vis
Ġy ear
Ġy aw
Ġch alk
Ġch ip
Ġch ases
Ġch ute
Ġch unks
Ġbat ch
am er
Ġout c
Ġfl u
Ġfl ats
Ġfl ipped
Ġfl oored
ign s
ree k
st ore
st ones
st ools
Ġbu d
Ġair liners
Ġkit s
Ġr ink
Ġr ushing
Ġsurf aces
Ġyoung ster
Ġcom bo
zz arel
Ġfor ty
Ġkitchen ette
Ġele vator
Ġhe ating
Ġhe dge
Ġse g
Ġse ren
Ġle cture
ent y
Ġwa king
Ġwa res
Ġdis g
ĠA S
ĠA t
Ġboard ed
Ġal tered
Ġal ways
Ġglass ware
Ġta ils
Ġta gging
Ġthrough out
Ġhand held
Ġsp ik
Ġbrown ies
Ġflo ur
Ġfire works
Ġbun t
ĠT eddy
ĠT REE
ĠT ower
Ġdi pped
Ġdi agonal
Ġeach other
Ġfen ces
if ying
if orn
ĠW all
IN D
IN E
ĠS P
ĠS p
ĠS ams
Ġdri es
Ġview er
Ġapp arel
ress ed
Ġhead set
Ġfe ast
Ġar id
ĠF E
ĠB AR
ĠB roccoli
ĠO CE
Ġdress ers
ari um
ĠC L
ĠC ar
ĠC UT
ĠC oca
ĠC hicago
Ġdr ums
Ġstation ed
Ġha zy
Ġun com
Ġcl im
Ġcam el
Ġpro jection
Ġgu arding
Ġad dress
Ġlo st
Ġem pt
Ġkn ight
ust ers
ĠP arm
ĠP lay
ĠP olar
Ġbre ed
Ġcontrol led
Ġcontrol ling
omet er
Ġmon k
Ġherd ed
Ġpe ach
ced es
Ġboo ze
Ġfore head
Ġatt ack
ĠM ickey
ĠM cDon
Ġnumb ered
Ġsil o
Ġscreen ed
we et
AN S
AN GING
Ġpan ting
Ġsal on
ĠL i
ĠL YING
Ġdock ing
Ġam enities
Ġhair y
Ġhair cut
ond a
ĠH AND
ĠH AVING
Ġphotograph ing
Ġtri angular
Ġcand ies
Ġblan k
ĠIN SIDE
Ġho und
Ġho st
int on
Ġlay ed
Ġpack et
Ġlap se
ĠE l
ĠE iffel
Ġspe ckled
Ġsee ing
Ġsty rofoam
Ġpad dock
pack ed
ĠR ussian
Ġtan ks
Ġqu iche
Ġbal anced
Ġround s
Ġhar nes
Ġdesign ated
Ch airs
Ġear th
Ġear phones
Ġart is
OR D
ET TING
OW ERS
Ġham m
ES S
Ġbur gers
Ġbur gund
ĠV ader
Ġcra zy
Ġsignal ing
Ġmod ified
Ġceiling s
ĠK ITE
Ġmach ines
Ġcostum ed
Ġcla d
Ġent ire
Ġacc ident
IC H
laz ed
OO KS
Pl astic
uck y
Ġsod as
Ġexp lo
Ġab und
Ġrear view
Ġaw ning
Ġdra gs
Ġmicro phones
Guy s
ĠY ARD
Ġtax ider
Ġgl ider
Ġdeli ver
Ġpres ident
Ġadj ust
Ġconf used
Ġcal cul
Ġbent o
Ġrep res
Ġchest s
Ġang el
Ġrub ble
Do or
Ġthick et
Ġconne cting
Ġsu ccess
Ġcomple ting
Ġass isting
Ġspin ning
Ġspray s
Ġapron s
Ġgaz es
Ġgaz elles
Ġprote ction
Ġdepic ted
Ġorder ing
Ġlink ed
Ġsuspen ders
Ġador ns
Ġfriend ly
Ġbugg ies
ĠPH ONE
Ġact ivity
Ġfry er
Ġfest ive
Ġrepair s
tie red
Ġrecl ines
Ġgoal ie
Ġpeace fully
Ġornam ental
ĠFL OWERS
IV E
Ġdet our
Ġkeep s
Ġblood y
Ġmov ies
Ġpress ed
ĠLOT S
Ġpineapp les
Ġnow here
Veget able
Ġpresent ed
Fresh ly
Passeng er
Ġnur se
ĠSH IRT
ĠSIGN S
Ġbarbe que
Ġspro ut
Ġremain ing
Ġpriv acy
Ġblueb erry
Ġmannequ ins
Ġwhit es
Bl ond
Ġfit ted
Sandw iches
UL L
Ġtemp le
Ġcroche t
dress ed
ĠAn g
ĠCo la
ĠSURF ING
IF UL
Ġbla de
Ġwool ly
Ġpil ots
Ġcrow ds
Ġhour s
Ġallow ed
Ġaim ing
Ġmer ch
Ġbrid le
ĠPO S
ĠSOME ONE
Ġvi br
Ġboun cing
PL ANE
Ġpel ican
Ġpel icans
Ġfer ns
Ġreno vated
Ġreno vation
Ġsnap shot
Ġconver ted
Ġconver tible
Ġremod el
Ġdv d
Ġreact s
Ġshoo ts
ĠChe v
ĠMOU NTAIN
ĠLIGHT S
Ġsuper market
Ġemplo y
Ġemplo yees
Te levision
Ġlav a
Ġbushel s
ĠPar king
ĠGLASS ES
Bicycle s
Int erior
col n
Ġfam ous
Ġga ug
Ġemer gency
Ġpolit ical
Ġpeop el
Ġdanger ous
ĠAustral ia
Ġtrek king
ĠTA KING
ĠSouth west
Ġhyd ro
Ġmeatball s
Ġpleas ant
Ġcongre gate
ĠQ ue
Ġburn ers
Ġdang ling
Ġeff ect
ĠWA IT
Ġstyl ized
Ġceremon y
Every one
Sl ice
Umb rellas
Ġiv y
Ġwel come
Ġmanic ured
Ġrump led
Ġspir al
ĠBOW L
ĠMon ument
Ġjew el
ĠCHAIR S
Ġviol in
Ġgiraf ee
Pit cher
Ġug ly
Ġpac ifier
organ ized
Ġfrol icking
Ġalt itude
ĠCal iforn
ĠCROSS ING
ĠLin coln
Ġconcer ned
Ġpavil ion
Ġmedic ine
AUT IFUL
Res idential
Ġsche me
Ġmanuf act
Ġlavis h
Ġyaw ning
zzarel la
ĠOCE AN
ĠParm esan
Ġharnes ses
Ġburgund y
ĠCaliforn ia
' d
A s
A irl
A th
B as
B ikes
B uilding
C an
C ake
C LO
D in
D irty
F rench
G H
H appy
I AN
K ey
L unch
M e
M ost
M iddle
M ENT
P rep
R ain
R ider
S old
S quare
W ind
W OM
W AL
W ICH
a j
a way
c er
c ross
d ar
e k
e ding
e ad
e ight
f ted
g ar
g ame
g iraff
g ien
h u
i pt
i hu
l ink
l ie
l ots
m o
m inton
n al
n ch
o h
p ee
p ine
p art
s ive
s ix
s now
t ic
t ables
u a
u ing
u er
y er
y on
z es
Ġa ge
Ġa mp
Ġt ast
Ġt ips
Ġt ier
Ġs om
Ġs ell
Ġs uck
Ġs lender
Ġs iamese
Ġb arge
Ġb ale
Ġb itten
Ġb aker
it es
it ter
it ors
it ating
Ġw rong
Ġw rang
he ye
Ġp ers
Ġp ub
an ish
Ġc d
Ġc ds
er ia
er ature
at ten
Ġin n
Ġin jured
ro let
Ġf av
Ġm al
Ġd ing
Ġd ut
Ġd ol
Ġd ated
Ġd anc
Ġg ig
Ġg one
Ġg utter
Ġg host
Ġl ass
Ġl inger
om y
Ġst ab
Ġst ark
Ġst ork
Ġto ll
ra ction
on o
on ge
on na
un ger
as k
Ġman goes
Ġman tel
la ged
Ġn i
Ġn in
Ġn ets
Ġn ude
il ts
ot hes
Ġne ut
Ġne cess
el t
ut ting
ur ious
Ġwh is
Ġwh om
Ġwh ale
ol o
ol ding
us s
ard i
ab out
Ġbe autif
Ġbe gging
ri ve
Ġsk e
Ġco le
eb oarding
Ġro yal
Ġtra iling
Ġtra ctors
Ġk im
The ir
Ġpl ug
Ġpl umb
Ġpl ums
Ġpl unger
und own
Ġsh ared
Ġla ven
Ġla zy
Ġgra s
Ġgra ce
Ġy ears
Ġperson nel
Ġch in
Ġch ang
Ġch inese
and er
Ġdown ward
Ġup hill
Ġtop less
Ġsn ake
Ġcar ing
Ġsnow sh
Ġbus t
Ġbus ted
Ġra men
Ġra pid
Ġsign ing
Ġsign post
Ġblack berry
st le
st ill
st orm
im s
Ġbu bble
Ġair lines
Ġpo und
Ġj ala
Ġj uggling
Ġli ps
ie val
Ġhe dges
Ġse qu
Ġse ven
Ġse cl
Ġse per
Ġle is
Ġover h
Ġover alls
Ġz omb
rel y
rel la
Ġtoilet te
Ġca ve
Ġca ps
Ġcon ven
Ġcouple s
ill i
ĠA l
ĠA las
tain ers
Ġsl im
Ġint ens
Ġta le
Ġhand made
Ġsc all
Ġsc ri
Ġsc aff
Ġlight er
Ġmo ved
Ġmo haw
Ġmo zzarella
Ġde co
cc o
Ġtre stle
Ġsw ift
Ġsp illed
Ġsp ider
Ġsp onge
ag ers
ag na
Ġcol la
Ġbow s
ĠT e
ĠT own
ĠT ex
Ġoff ering
Ġso il
Ġso und
Ġso aking
Ġcut out
Ġcut lery
ĠS A
ĠS pan
Ġmoun ting
Ġdri ft
Ġapp arent
dr ying
orm al
Ġstand still
Ġday s
ip her
Ġsa ve
Ġsa les
Ġbro th
Ġrest ed
Ġrest ored
ĠB I
ĠB M
ĠB l
ĠB irthday
ĠB AB
ĠO n
ĠC ap
ĠC HE
ĠC LE
ĠC ORN
ĠC UP
Ġdr um
Ġsun flower
Ġun t
Ġcl ump
Ġgu ides
Ġad ditional
Ġlo ft
Ġem ble
Ġem bank
eng er
RE N
RE SS
cor ting
Ġcont in
riger ator
ĠP C
ĠP AS
ĠP INK
Ġper io
Ġper ipher
Ġdecor ate
Ġme x
Ġme ans
Ġag es
Ġpit a
Ġpat ties
pe ctive
omet ric
Ġmon o
Ġrac ers
Ġpe cking
clo ck
Ġbar king
Ġbar stools
Ġres cue
Ġor dered
Ġfore front
clos ed
Ġplant ed
Ġhel ped
Ġatt raction
Ġrain s
ĠM E
ĠM er
ĠM ich
ĠM ouse
ĠM arket
Ġbook store
Ġpan oram
Ġbatter ies
ĠL O
ĠL ane
ĠL AND
ĠL ONG
ĠL IKE
AT ED
lic a
ĠD o
ĠD av
ĠD arth
ĠD unkin
ĠD rive
ĠD RESS
ĠH igh
ĠH IT
ĠH ANGING
Ġtri angle
Ġcount ries
Ġex pl
ĠG i
ĠG old
Ġho ses
Ġclean er
Ġob long
Ġeng lish
LE S
Ġlay ers
ric a
ric ycle
Ġpen ny
Ġwork station
RO C
Ġsub mar
Ġclot hed
Ġpa using
Ġmil ks
Ġdraw s
Ġengine er
ĠE N
Ġland s
ĠST OVE
Ġnew er
Ġleft over
Ġswim suit
ĠCh urch
ĠCh ina
ĠR AM
ĠR iver
Ġfo aming
OM E
St ud
Ġfoot p
bb ling
Ġqu aint
Ġlow ered
Ġround about
Ġcream y
Ch ristmas
Ġblen d
Ġwin ning
Person al
Ġret ro
Ġart icle
Ġgarden ing
Ġcro ck
Ġham ster
Bo at
Bo xes
Ġpart ition
ĠV ol
ĠV EG
Ġtur b
Ġsmo kes
Ġmod est
Ġmus c
Ġgather s
Ġtoddler s
Ġsteam ing
Ġvis iting
Ġcarpet ing
Ġsea weed
Ġfol ks
Ġcla ws
Ġmas on
Ġlid s
Ġtw isted
OU SE
pl ant
Ġrailing s
Ġpract ices
Ġexp osure
Ġjo y
Ġmed ieval
Ġgroom ing
Ġgroom ed
Ġfin ely
Ġfin ishes
Ġsteep les
Ġcapt ures
OL D
boy s
Ġpet als
Surf boards
Ġ2 5
Ġcre ation
Ġcre me
Ġinf ield
Ġsection ed
Ġutens il
Ġda ily
Ġgl aring
ids on
Ġcoll ie
Ġpres enting
Com pet
Ġshru b
Ġconf ined
Ġspot less
Ġmagn et
Ġspeed boat
Ġaccess ible
ĠRE F
ĠRE ADY
Ġrep lica
Ġquiet ly
Ġchil ds
Ġribb ons
Ġaud itor
Ġonlook er
US H
US T
Ġass ist
Ġwarm ly
Ġspray ed
To ddler
ĠWOM EN
Ġshut ters
Ġintere sted
ĠTRA SH
Banan a
Ġsha kes
Ġgroc eries
Ġband anna
Ġgri ps
Ġel bow
Ġsle igh
Sh ot
Ġoper ated
Ġador n
Ġwre cked
Ġfair ly
Ġmay onna
Ġreg ion
ĠHE AD
Ġrec ipe
Ġge ometric
ĠInd ia
AP ER
Ġdesc ending
Ġrepair ing
Ġbill boards
Ġant icip
Ġlim bs
rat ul
Ġwo und
Ġinspe cts
Ġcoast line
Ġcop per
Ġdec als
Ġmeas ure
Ġexam ines
Ġmel ons
Ġmap le
Un iform
view ed
Ġes corting
Ġbad minton
Ġmin imal
Ġmin utes
Ġrob es
ĠCLO SE
ĠSH OWER
ĠSIDE WAL
Ġexpress ing
Ġroller bla
Ġparasa iler
Ġparasol s
ĠBUS Y
Vehic le
ĠSHE LF
Ġantel opes
ĠTh omas
Ġmous epad
Ġna ils
Ġcock pit
Ġpengu ins
CT ION
Sil hou
Ġsco op
Ġtemp orary
Bic yclists
Crowd ed
Ġcot tage
Ġcent ury
ĠCo ke
Bow ls
Slic ed
Ġrhin os
Ġ19 50
Tra ins
ah ua
Ġped al
Ġmis ses
Ġdom estic
ĠAP P
ĠCla use
Ġsquir ting
Ġcroiss ants
Wh ile
pa ved
Ġer a
ĠOlymp ics
ĠWOOD S
Ġdv ds
Ġvess els
Ġshoo ting
ĠSE VERAL
Ġsymbol s
Br ide
Ġsund ae
Ġrese mble
Ġripen ed
Ġcurrent ly
hor ses
Ġdun es
Ġpreser ve
Ġpurch ase
ĠiP od
Ġnavig ate
Ġcontemp l
ivers ity
oro us
Ġaqu arium
Ġsid elines
Ġduff le
Ġvar ying
Ġwak eboarding
Ġspan ning
Ġproud ly
ĠLA YING
Ġjuic er
ĠCARR I
ĠANIMAL S
Teen agers
Ġfrisb y
Ġlla ma
Ġcobb led
Ġcho ices
Ġchat ting
Ġzo om
Ġwindm ill
ĠSAND WICH
Ġorch ard
Ġattach ment
ĠDon uts
Ġconcentr ating
ĠElephant s
ĠRUN NING
Ġchecker board
Ġenthusi ast
Ġstrand ed
Ġexha ust
Ġauto graph
Ġmur ky
Ġhund reds
Ġgull s
child ren
Ġflan ked
Ġenvel ope
Ġgoble ts
ĠCAB IN
ĠLIT TLE
ĠHot el
Ġteamm ate
Ġillustr ation
Ġtechnolog y
ĠBANAN A
Sail boats
hy drant
she ep
Ġgor illa
Ġlas agna
Ġtot ally
Ġgraf itti
Ġsnoo zing
Ġpoor ly
ksw agon
Ġhandra il
Ġpreform ing
ĠCent ral
ĠHawaii an
Ġquart ers
Ġnunch uck
Ġflats creen
Ġseren e
Ġspik y
ĠSams ung
Ġartis an
Ġhamm ock
Ġtaxider my
Ġcalcul ator
Blond e
Ġvibr ant
ĠChev rolet
ĠMOUNTAIN S
Ġgaug es
Ġhydro gen
Airl iner
Key board
Prep ared
Sold iers
WOM AN
ihu ahua
Ġwrang ling
atten ded
Ġdol ph
Ġgig antic
Ġneut ral
Ġbeautif ully
Ġplumb ing
Ġlaven der
Ġjala pen
ĠAlas ka
Ġswift ly
ĠTex as
ĠSpan ish
Ġapparent ly
ĠCORN ER
Ġembank ment
Ġperio d
Ġexpl oring
Ġsubmar ine
Ġauditor ium
Ġmayonna ise
ĠSIDEWAL K
! "
" ,
A ut
A bo
A CE
B Y
B ag
B oth
B read
B ik
C a
C lass
D own
D ishes
E ven
F ront
G etting
G ROUND
G AIN
G iant
H is
H am
H IND
M S
M ac
O ver
O dd
P o
P an
P la
P ING
P ERSON
R Y
R ow
R ice
R ail
R ipe
R ANT
S P
S w
S er
S et
S ep
S uit
S leep
S weet
T S
T ray
T ooth
V EN
Y ou
Z ING
a x
a ign
a zz
a ise
b ike
b ooks
b irds
c at
c red
d ging
e er
e or
f s
f ri
f lowing
f aced
g est
h op
h ole
h orn
h appy
h aki
i ron
i pper
j ar
j ump
k iing
m ac
m ale
n as
o les
p or
p ard
p os
p eline
p riate
r ily
s ail
t in
t her
t ips
t ower
u ds
u ctor
w r
w ra
w all
w ning
w ire
w alled
y d
y gen
z ily
Ġ $
Ġ x
Ġ Two
Ġ eth
Ġ ĠĠĠĊ
Ġa st
Ġa jar
Ġt iling
Ġt aste
Ġt ricycle
Ġo at
Ġo ur
Ġo ars
Ġs ut
Ġs ong
Ġb old
Ġb orn
Ġb ison
Ġw an
Ġw ro
Ġw id
Ġw orm
Ġp y
Ġp ing
Ġp ace
Ġp est
Ġp ric
Ġp ages
Ġp unch
Ġp uzzle
an k
re at
re ary
Ġc red
Ġc uck
Ġc ities
Ġc uis
le e
le v
er op
er ware
at ively
ar at
ar oo
is m
is ion
is ins
Ġan k
Ġf ud
Ġf ond
Ġf its
Ġf inds
Ġm ist
Ġm oose
Ġm unching
Ġwit he
Ġh ump
Ġh oping
Ġh usky
Ġd ue
Ġd ine
Ġd ude
Ġd itch
Ġd anish
Ġd reary
al ity
Ġg ing
Ġg el
Ġg ain
Ġg ang
Ġg alle
en e
en ded
Ġl ic
Ġl orry
Ġst ro
Ġst ony
Ġst ables
Ġst ilts
Ġto urn
Ġto ne
Ġto ns
ra d
es y
ding s
on ies
or ite
et rack
Ġman go
Ġn un
Ġn ick
Ġn ative
Ġn ormal
ch anging
ch ief
up s
up lic
Ġne ver
el la
Ġwh isk
ol der
us eum
Ġbe e
Ġbe aks
ri ped
ri oles
Ġre qu
Ġre cess
Ġco ins
Ġco ord
Ġe vil
Ġro ped
Ġv a
Ġv el
Ġk il
Ġk ang
Ġk haki
Ġdo c
lo cks
Ġpl ans
Ġhol ing
Ġfro wning
Ġstreet car
Ġbo ut
Ġbo iling
Ġfi red
Ġsh ark
Ġsh ield
Ġpar s
Ġla unch
Ġla unching
Ġla zily
Ġgra sp
Ġgra ins
Ġsm ashed
Ġch ub
Ġch ase
Ġch unk
Ġch ased
Ġch ihuahua
Ġbat tle
ant ly
am ent
um ph
Ġup sc
Ġpi peline
Ġout let
ach sh
Ġsn o
Ġten der
Ġfront s
ure ly
Ġra isins
Ġbas eline
st anding
row ave
Ġbu oy
Ġbu ckled
Ġbu bbles
Ġair sh
Ġbuil d
zz le
Ġfor ming
Ġfor rest
ct ic
Ġj ous
Ġj unction
Ġher der
Ġpizz eria
Ġback ward
Ġmot oro
Ġli kes
Ġski ies
Ġse al
Ġse ap
Ġse ash
Ġle go
Ġmotor ists
ent ial
Ġz ip
Ġeat ery
Ġclock tower
Ġdis pos
ub s
ub way
ill as
ĠA ri
ĠA rabic
ĠA GAIN
Ġal ign
Ġal ter
Ġal pine
Ġshe ering
Ġsl at
Ġsl ats
Ġint ent
Ġsand s
Ġhand ler
Ġhand stand
Ġhand wr
Ġsc ore
Ġve in
Ġunder ground
Ġde al
Ġte ar
Ġte lesc
Ġtre nch
ap s
Ġban ister
ĠT oy
Ġdi ves
Ġdi aper
Ġoff ers
Ġoff sp
Ġso ck
ore scent
Ġbr ings
Ġbr ushed
Ġbr uss
Ġsky light
Ġlot ion
Ġkite boarding
ĠW AY
ĠW AV
ĠS w
ĠS te
ĠS ty
ĠS av
ĠS ony
Ġapp ointed
Ġapp arat
irro r
Ġhy gien
Ġveget ari
Ġsheep s
Ġche w
Ġfe ild
Ġjump er
Ġdifferent ly
Ġar ts
Ġracket t
ĠF UN
ĠB IC
ĠB uilding
ĠB ridge
ĠO R
ĠO pen
ĠO ak
ĠO riental
ĠO RAN
Ġground s
ugg ing
ĠC E
ĠC a
ĠC on
ĠC ELL
Ġsun bat
ey e
Ġun packed
Ġun paved
Ġun attended
Ġcl usters
Ġcam o
Ġpro pping
Ġpro gram
ult ural
ult aneous
Ġslop ed
Ġslop py
Ġcross b
ess y
Ġad ding
Ġad ds
Ġlo cks
Ġlo aves
Ġsto cking
cor n
Ġtele phones
Ġcont ent
Ġrid ge
th rough
ĠP hill
ĠP APER
Ġser ver
Ġcolor ing
sh ower
sh opped
Ġdoub led
Ġpast ed
Ġwalk er
Ġcur ry
Ġcur ling
Ġcur ls
Ġvideo game
Ġbre aks
Ġhigh ly
Ġhigh light
Ġpot ter
ĠI t
Ġpat ty
ten nis
ten der
ud ed
Ġpaper back
Ġmon ora
Ġhome less
Ġrac etrack
Ġrestaurant s
Ġpe g
Ġpe aches
Ġpe aks
Ġcan op
Ġcan yon
est aurant
Ġpol l
Ġinters ecting
Ġshel ls
ĠM A
ĠM O
ĠM ot
ĠM ain
ĠM ADE
Ġbook cases
Ġlook out
Ġmat ches
cl ing
Ġpan cake
Ġbatter y
ĠL a
ĠL ED
ĠL ove
ĠD an
ĠD EN
Ġhair dry
Ġpick et
ĠH Y
ĠH e
ĠH or
ĠH ol
ĠH AT
ĠH AIR
ĠH onda
ĠH OUSE
Ġscen es
Ġshop ped
Ġex ting
Ġex pla
Ġex per
ĠG u
ĠG reen
ĠG ROUND
ĠG othic
ĠG rand
ĠG UY
ĠG reek
Ġfla pping
Ġfla me
ĠN Y
ĠN orth
Ġcook ware
Ġcomm uters
Ġgr iddle
LE D
Ġfre ely
sp ired
Ġpen ned
Ġpa wing
Ġpa use
Ġplatform s
ist or
Ġsho cked
eep s
ĠE X
ĠE ast
ĠE ACH
Ġarm o
Ġarm rest
Ġland sc
Ġwild ly
Ġfr id
ĠST RAW
ĠST ATION
ĠST ORE
Ġswim mer
Ġarran ging
Ġcurtain ed
ĠCh ar
Ġfly s
St riped
Ġdu ct
Ġtrail s
Ġqu ar
upp erware
ber ty
land scape
Ġglo be
Ġglo omy
Ġlow ers
rist ine
Ġserving s
Ch inese
Ch opped
Ġart ist
OR S
ĠU K
ET S
Ġappro priate
Ġcheck ed
Ġter ra
Ġtur f
Ġcra cker
Ġcra fting
Ġdel ta
Ġdisc arded
Ġlad le
urf ing
ĠK ing
Ġeg ret
Ġcr us
Ġcirc les
Ġnap s
Ġorn ately
Ġsea food
Ġlog os
Ġanti ques
Ġcla pping
Ġacc ord
Ġext reme
Ġinter viewed
Ġtw enty
ĠJ UST
Ġdoll ar
Ġsupp ly
Ġteen aged
Ġsprink le
go ing
Ġju ven
Pl anes
Ġcomf y
me al
ALL Y
Ġstra p
Ġjo int
Ġegg plant
ĠTO OTH
Ġterminal s
Ġcond itions
Ġcond uctor
Ad vert
Ġeld er
Ġsmart phones
Ġcelebr ate
Ġcelebr ity
In d
OL ATE
Ġsim ultaneous
Ġremo ves
Ġduck lings
Ġcre ating
Ġstar ring
Ġ1 2
Ġ1 8
ĠY ou
ĠY ELL
Ġsepar ating
Ġorgan ic
Ġorgan iz
He ad
Ġnewsp apers
UT S
Ġmagn ific
Ġalm ond
Ġinst it
Ġinst ead
Ġfoc al
Ġaccess ory
Picture s
ĠRE ST
Ġwing ed
Ġcowboy s
ĠBE AUTIFUL
ĠBE HIND
Ġbul b
Ġfil th
ĠWH ILE
Ġrub s
Do zens
Ġprin cess
ew ish
Ġbri m
Ġdump ster
UR N
FF ES
To y
Ġcran berries
Ġhugg ed
Ġtun a
Ġcru ising
Ġshadow y
Ġstraight ening
Ġpri or
Ġpri ze
Ġgaz ebo
Ġprote ct
Co ffee
EAR S
ĠPL AT
Ġsne aker
Ġhung ry
rib ing
Ġorder ly
Ġquil ted
Ġturkey s
Skateboard ers
Ġillumin ates
Ġfabric s
Ġraft ers
Ġfair y
Ġmay o
ĠCH OC
Ġproject ed
Ġact ors
Ġseas ide
Ġcigaret tes
Ġhi pp
Ġgoo g
Ġgoo ey
ĠCOU CH
Ġserv iced
CHE R
ta ils
Ġfill s
Ġcobble stones
Ġbill owing
Ġflav or
Ġinspe ct
port s
Ġwindsurf er
Ġcud dled
Ġcud dles
Ġdonkey s
Ġbrief cases
Ġmel on
Ġatten ded
Ġslee ve
Un der
Ġado lesc
Ġselection s
ĠRo ck
Ġharness ed
Ġtro uble
Ġswe ets
Ġtuxed os
Ġgun s
Ġcompan ion
ĠAf rica
ĠAIR PLANE
Ġcamp us
Ġox ygen
Ġton es
Ġunlo aded
Ġemb ro
At t
ik i
Ġscrat ched
Ġretrie ve
ĠHER D
Ġmaneu vering
Ġtil ting
Ġinvest ig
Ġfle a
Ġtug boat
Ġru les
Ġkno bs
Ġcontra st
Ġtrip od
Ġsol itary
Ġsco oping
Ġtemp erature
ĠSU IT
Ġsauc ers
ĠLe go
Road way
Ġcot ton
Ġcras hes
Ġcras hed
Ġoccup y
Ġadm ire
Ġmarsh y
Ġshaving s
Ġdescri ption
Ġaim ed
Ġbrow nish
Ġmis ty
Ġyach ts
Ġblind f
ĠAL L
ĠAP PLE
ĠBR ID
Con tainers
Ġtwig s
Photo graph
Ġinstru cting
Ġfer ris
Ġspire s
ĠCOW S
ĠGIRA FFES
Ġofficial s
Ġsupport s
Ġtort illas
Ġsamp les
Ġhorizon tal
ĠShe pard
ĠMOU TH
Ġtrashc ans
ĠBACK GROUND
ĠCHILD REN
Ref lection
Ġrese mbling
Ġlav atory
Ġmoss y
Ġbarric ades
Elect ric
Ġsilhouet tes
Ġdeta ils
Ġdeta iled
Ġgener ated
Cow boys
Past a
Ġsquee zed
anna h
Ġlip stick
Ġnavig ates
Ġcontemp orary
Ġaqu a
Ġsight se
Ġduff el
Ġstrain er
Ġjud ges
Ġwak eboard
ĠSW ING
ĠPh oto
ĠLA UG
ĠRA CK
Ġparticip ating
ĠCARR YING
Decor ative
Work ers
Ġsex y
Ġless on
Ġunb aked
Ġamaz ing
ĠEx press
Ġcrumb s
Ġaccent ed
Ġcyl ind
Ġtherm ometer
Ġeag erly
Ġteac her
ĠWOR KING
Ġappe aring
ĠPA SS
Ġwildebe est
ĠSLOP E
gh an
Ġpud ding
Ġann oun
Ġfis heye
Ġgla re
Ġspraw led
Ġfirefight er
Ġsocial izing
Ġloves eat
ĠPOL AR
Ġpretz el
Ġacrobat ic
Ġpomegran ate
Bot tles
motor cycle
Ġwil ted
Ġpeb b
Ġdram atic
Ġskew ers
Ġshin ning
Ġflu orescent
Ġuncom mon
Ġclim bs
Ġempt ied
Ġknight s
ĠMcDon ald
Ġabund ance
Ġrepres ent
ĠPOS ING
Ġemploy ee
ĠQue en
Ġjewel ry
CLO S
Din ner
Me al
pee led
Ġsuck ling
Ġfav orite
Ġdut y
Ġlass o
Ġlinger ie
Ġchang ed
Ġrapid ly
Ġsequ ence
Ġsecl uded
Ġseper ate
Ġscaff olding
Ġmohaw k
ĠBI KES
ĠBM W
ĠBAB Y
ĠCap itol
Ġemble m
ĠPAS TURE
ĠDo uble
ĠDav idson
ĠDRESS ED
Uniform ed
Ġrollerbla ding
ĠCARRI AGE
Ġdolph in
Bik ers
Sep ia
Ġeth nic
Ġwan ting
Ġpest o
Ġpric es
Ġcred it
Ġcuck oo
Ġcuis ine
Ġfud ge
Ġfond ant
Ġgalle ry
Ġtourn ament
uplic ate
Ġkang aroo
Ġchub by
Ġupsc ale
achsh und
Ġairsh ow
Ġseap lane
Ġseash ore
ĠAGAIN ST
ĠToy ota
Ġoffsp ring
ĠWAV ES
ĠSav annah
Ġvegetari an
Ġmonora il
Ġhairdry er
ĠYELL OW
Ġmagnific ent
ĠCHOC OLATE
Ġadolesc ent
ĠLAUG HING
0 7
4 0
4 7
A C
A ction
A CT
B L
B AT
B unch
B ooks
B US
C r
C al
C row
C OR
C ooks
D ude
D RANT
E ng
F E
F or
F am
F ore
F ish
F ew
F lock
G r
G rand
G lazed
H uge
I B
I te
I RE
I ET
K id
L ives
M on
M ot
M ore
M ountain
M essy
N e
N IC
O F
O G
O LE
O ON
P at
P ort
P ige
P IZZA
P iles
S pe
S chool
S hel
T E
T Y
T om
T op
T ri
T ran
T iny
T rees
U r
V ING
W H
W o
W all
a u
a it
a el
a ler
a ired
b re
b en
b arrow
b athroom
c an
c ard
c am
c if
c our
c ream
c lad
d on
d ery
d uce
d ish
e c
e ing
e ms
e lephant
e cut
f le
f ed
f all
f ace
f th
f light
g a
g th
g ating
g ae
i qu
i ated
i rely
l if
l uggage
l iding
l iet
l iving
m it
m ore
m ies
m ark
m art
m itive
m esan
o v
o at
o ting
o kes
p ot
p ad
p ets
p ants
r un
r ine
r ings
r ument
s ink
s ery
s omething
t oned
t HERE
u k
u v
u cc
u les
u eling
v oy
w h
w ich
w ash
w ith
x im
y ellow
y ou
Ġ #
Ġa le
Ġa side
Ġa ward
Ġa ctive
Ġa venue
Ġa erop
in is
in ate
in ara
Ġt i
Ġt und
Ġt and
Ġt ipped
Ġt ater
Ġt upperware
Ġo d
Ġo uting
Ġs en
Ġs ed
Ġs ch
Ġs lack
Ġs ip
Ġs ick
Ġs ash
Ġs ings
Ġs iding
Ġs orting
Ġb er
Ġb ris
Ġb urned
it am
it ering
it ables
Ġw est
Ġw int
Ġw ti
Ġw rench
he althy
Ġp ate
Ġp ong
Ġp uff
Ġp ristine
an ks
an os
re c
re x
re al
Ġc ash
Ġc opy
Ġc rispy
le nt
er os
er many
er rier
Ġon a
Ġon ce
Ġon top
at in
at oo
Ġin k
Ġin qu
Ġin ser
Ġin set
Ġin cred
Ġin spired
Ġof ten
ro c
ro r
is ses
Ġf as
Ġf oo
Ġf iling
Ġf inal
Ġf ont
Ġm ol
Ġm ate
Ġm unch
Ġm iles
Ġm uzzle
Ġwith a
Ġh ig
Ġh ope
Ġd id
Ġd ying
Ġd read
Ġd amp
Ġd usted
Ġd ental
Ġd ummy
Ġd uplicate
Ġd achshund
al ian
Ġg on
Ġg ay
Ġg ushing
Ġg ears
Ġg erman
Ġg ummy
Ġl umb
Ġl ily
Ġl ions
Ġl ondon
Ġl ilies
om ber
Ġst a
Ġst ories
Ġto ts
Ġto uched
Ġto liet
ra ss
es us
on a
on n
on der
on ne
Ġis n
Ġis le
ed ic
ow l
ow ed
un t
as a
as y
as ian
as ket
Ġman made
Ġman dar
la im
la dy
op h
op en
op ping
ch ain
oo h
oo ding
up cakes
ot es
Ġne g
el led
ut tered
ur nished
Ġwh y
ers ection
ic ycle
ic ian
Ġth o
us ual
her nal
Ġbe et
Ġbe ets
Ġsk im
Ġre tain
Ġre ached
Ġre eds
Ġre igns
ide red
Ġco ve
Ġco upe
Ġe v
Ġe cle
Ġro ds
Ġro mp
Ġro asting
Ġtra pped
Ġtra vers
ad illa
Ġv ers
Ġk ill
Ġk ale
Ġk isses
Ġdo ctor
lo af
Ġit h
Ġpla ques
Ġpl y
Ġpl iers
Ġpl owing
Ġstreet lamp
Ġbo ar
Ġbo vine
Ġfi fth
Ġsh oot
Ġsh orter
Ġsh aker
Ġsh ipping
Ġpar ag
Ġpar ap
Ġpar ading
Ġpar mesan
Ġla w
Ġla zing
Ġgra v
Ġgro ss
Ġy aks
Ġy ells
Ġsm ir
Ġsm ack
Ġch oo
Ġch arge
Ġch im
Ġch ocol
Ġch icks
Ġch ipped
Ġch aise
am el
am ps
um e
um ents
and ise
Ġup d
Ġup s
Ġup dated
che on
Ġclo ver
Ġclo ses
Ġclo sing
Ġclo ser
Ġout s
Ġout er
Ġout wards
Ġout lets
ul ture
ul ted
Ġsn out
Ġfl ing
Ġfl ick
Ġfl ush
Ġfl ashing
Ġfl ooding
Ġcar pets
Ġcar amel
se at
se en
Ġnear s
ke ep
Ġsnow storm
Ġten d
Ġri fle
Ġwal sk
Ġra g
Ġra red
Ġra fts
Ġsign ed
ug s
ug ula
Ġsur g
Ġsur ge
Ġsur board
Ġbas s
Ġbas ins
st on
st airs
im eter
im ote
Ġby stand
ain ted
Ġbu cking
Ġbl ur
Ġr uff
Ġr ushes
Ġr undown
Ġred dish
ass orted
ph oto
An other
ink s
Ġyoung sters
Ġbaseball s
Ġbathroom s
Ġskateb o
Ġpo ckets
Ġj ac
Ġj ail
Ġj utting
Ġback sp
umb s
Ġmot if
Ġli ck
Ġli cks
Ġele ven
Ġwood land
Ġski i
Ġhe at
Ġhe aped
Ġse le
Ġle n
Ġle ag
Ġle ts
Ġover n
Ġover view
Ġover coat
Ġover flowing
Ġwe ed
Ġwe ight
pp ers
Ġwa xing
Ġca pp
Ġca using
Ġcon voy
Ġdis m
Ġdis app
Ġdis emb
Ġdis organized
Ġcomp lic
ous tic
ub a
Ġmen s
Ġmen us
ris on
ĠA M
ĠA R
ĠA v
ĠA BO
Ġal b
Ġal ly
Ġal ike
Ġal ien
Ġal gae
Ġsl ate
Ġcomput e
Ġwindow ed
pen ding
pen sive
Ġta c
Ġta pping
Ġta co
Ġsc rol
Ġsc out
Ġsc rew
Ġlight ning
bo dy
Ġmo deled
Ġunder pass
Ġunder going
Ġde ath
Ġde lect
Ġde aler
Ġte h
Ġte ak
Ġsw eeping
Ġsw itch
Ġsp l
Ġsp ell
Ġsp are
Ġsp out
Ġsp ons
Ġsp illing
ap ing
Ġban ks
Ġen er
Ġbow tie
ĠT o
ĠT w
ĠT ree
ĠT IM
ĠT UB
ĠT errier
Ġdi et
Ġdi apers
Ġso le
Ġso ul
Ġso uth
Ġso iled
qu il
Ġshow c
Se a
if i
if ul
Ġrun ners
ĠW alk
ĠW oman
ĠW ater
IN ING
ĠS ing
ĠS ER
ĠS cot
ĠS erv
ĠS yd
Ġhy dr
Ġpass age
Ġpass port
do la
Ġhead band
Ġocean s
Ġmountain top
iling ual
Ġche ek
Ġim ag
the med
ip ing
Ġar c
Ġsa ute
Ġbro ke
ĠF re
ĠF er
ĠF rance
our s
ĠB ook
ĠB LE
ĠB aseball
ĠB ox
ĠO ld
ĠO VEN
Ġplat er
ari o
ĠC om
ĠC ard
ĠC enter
ĠC OOKING
ĠC ROW
ĠC OVE
ĠC lydesdale
Ġstation s
Some ones
ac o
HE R
Ġun s
Ġun ti
Ġun its
Ġun iversity
Ġun healthy
Ġun seen
Ġcl ips
Ġcup ola
Ġgu ided
ess ion
Ġad d
Ġad v
Ġad vis
Ġlo sing
Ġlo cker
Ġlo itering
Ġac oustic
Ġkn ot
Ġsto vet
Ġvari ed
Ġkey chain
Ġhanging s
las h
Ġlong er
th ans
ĠP ac
ĠP AL
ĠP UR
ĠP IE
ĠP olice
ĠP AIN
ĠP lane
Ġper ching
Ġper imeter
Ġbic ycling
sh op
Ġdecor ates
ii er
Ġpast el
Ġdin os
Ġag o
Ġag gress
Ġpot ential
Ġchildren s
ĠI I
ĠI s
ĠI nt
ĠI ris
Ġpat ches
ud es
Ġbody suit
Ġmon ks
Ġhome work
Ġcan es
est ion
Ġbar tender
iss ance
Ġriver bank
ple te
Ġste ers
Ġplant ers
ial s
Ġjet ty
Ġatt aching
Ġmouth wash
Ġrain coat
hic hes
ĠM as
ĠM ET
ĠM EAT
ĠM aj
oc eros
Ġrock et
we ight
AN ES
to ilet
to ons
Ġpan ini
Ġpan eling
iz ard
ĠL uf
AT UE
Ġtub s
elf ie
ĠD ON
Ġhair brush
Ġbread ed
Ġpick er
ĠH y
ĠH ouse
Ġstick y
Ġperform ers
Ġshop pers
Ġex changing
Ġex pensive
ĠG uard
ĠG ETTING
ĠG eor
Ġfork lift
Ġho isted
Ġfla m
ĠN O
ĠN OT
ĠN ike
ĠN umer
Ġcook book
Ġob sc
Ġob structed
Ġmult itude
Sm oke
Ġgr ate
Ġgr its
Ġeng age
LE BR
Ġfre est
Ġdist orted
Ġflower ing
ream ing
Ġpa il
Ġpack ets
Ġmar ine
Ġmar inara
ist rict
Ġsho vel
Ġgar land
Ġtr ink
Ġbut cher
Ġdraw ings
Ġlap el
ĠE D
ĠE Y
ĠE d
Ġaf ro
Ġaf ield
Ġaf rican
Ġspe wing
Ġsty lish
Ġtran quil
ĠST ATUE
Ġswim mers
Ġpad ding
Ġtown s
iti ous
ĠR V
ĠR e
ĠR out
ĠR ail
ĠR IGHT
Ġfo yer
St ack
St acks
Ġbrush y
Ġgraff it
AL KING
Ġbackpack ing
head ed
Ġqu ality
Ġwheel barrow
Ġbal ding
Ġwr ites
ber t
Ġmess enger
Ġpoin ty
Ġwed ge
Ġdev iled
iv il
Ġblo use
Ġwra ppers
Ġhar sh
Ġcover ings
Ġform ations
Ġdesign er
Ġdesign ating
Ġblen ds
Ġblen ders
ĠSt at
ĠSt ate
ĠSt ore
Ġear rings
Ġflat bread
sc reen
Ġart ich
Ġart fully
Ġart icles
OR M
Ġump ing
ĠU NIF
Ġrug by
Ġprofessional s
let on
Ġoverl ooked
Ġjumps uit
Ġcro p
OW S
Ġroo ster
Ġroo sters
Ġpow dery
mon t
Bo x
Ġter rit
ĠV irgin
Ġtur ban
Ġcra b
Ġcra fted
Ġsmo ked
Ġlad ders
Ġchop per
Clo sed
Ġcompet itors
Ġtrailer s
so ccer
Ġcard inal
Ġcard igan
Ġhous ebo
Ġfol der
Ġent ran
Ġent rees
Ġent irely
Ġext ern
ĠTH REE
Ġoutfit ted
Ġtw elve
Ġstr ung
Ġgrill s
ĠJ E
ĠJ ack
ĠJ UN
ĠJ ewish
Ġapartment s
Ġi phone
Ġi Mac
OU T
Ġdep art
ef ully
Ġju ices
Ġstra d
Ġpier cing
ath tub
Ġstun ning
SE VERAL
em pty
Ġmed al
Ġstream s
Ġreturn ed
Ġcub e
Ġfin anc
ĠAT M
Ġleaf s
Ġcapt ain
ID D
ID S
In door
Ġspect ator
Ġpet al
Ġdra b
Ġdra ft
Ġwait er
Ġwait ress
Ġcre ative
ĠSIT S
Ġol lie
Ġfast ened
iet nam
Ġ1 4
ĠY ear
Ġarrangement s
Ġgl ows
Ġcoll ision
Ġlemon ade
Ġpres idential
bow l
Ġconf etti
Ġspot light
Ġinst all
Ġinst rument
ĠPLA CE
ĠRE M
ĠRE S
Ġrep aired
ĠBE ING
Ġbul bs
Ġfil tered
uzz i
Ġang les
Ġang rily
Ġlar gest
Bus iness
Ġsad dles
Ġconne ct
Ġbalc onies
Ġprin ts
Ġic ebo
Ġpin stri
EL F
Ġsug ared
Ġbacks ides
Ġass ists
Ġbra ces
Ġstir s
Ġpop corn
Ġval ve
Ġshut ter
Ġprocess ion
ĠDO ING
ĠDO OR
ĠAir plane
Ro und
Ġpri mitive
Ġprote cted
Ġmom my
ught ers
Ġscar ves
arent s
Ġsquat ted
Ġsyst ems
Ġcomb ined
ĠBA G
Ġwand ers
pper oni
Ġmans ion
ĠPAR KING
Ġtoothp icks
Ġfinger tips
Ġcig ar
Ġtor so
AS T
Ġprot esting
Ġillumin ate
Ġsuspen sion
VER Y
Ġdispen s
Ġmusic ians
hand ed
Ġpump s
Ġunc ut
Ġwre ck
Ġreg al
Ġreg ister
Ġparach utes
Ġact ual
Ġsoap s
ĠDOG S
Ġobstac les
Ġcall ing
Ġhi ker
Ġgoo gle
Ġstrol l
lay er
Ġguard s
AP P
CHE D
Ġdesc ribing
ĠGRA ZING
Ġarray ed
ACH ING
Ġrece iving
Ġrece ipt
ĠFL OWER
ĠUS A
Ġdet er
Ġrect angle
Ġwindsurf ers
sa iling
Ġcast s
Ġposs ible
Ġdec al
Ġdef aced
Ġpress es
Ġtight s
Ġmel ting
Ġrecor ds
Ġrot ting
Ġrot ted
ama ha
Ġknit ting
Ġslee ves
Pedestri an
Un usual
Ġmin or
Ġhal ter
Ġrob in
Ġtext ured
Ġmaj estic
Ġpay phone
Ġnur sery
ĠZ OO
Ġeas el
Ġeas ily
Ġcamp aign
Ġunlo ad
Ġattent ively
ROW ING
Ġstomach s
Pro duce
str ide
Ġmemb er
Ġretrie ving
Ġmaneu vers
Ġexcited ly
Ġ6 6
Ġtil ts
Ġtick ets
Ġfle xing
Ġalco ve
ĠTh ames
Ġcock tail
Ġfix ings
Ġkno b
ĠNEAR BY
Ġhun ting
Ġnuzz le
Ġnuzz les
Ġreve aling
Ġcong ratul
Ġsco uts
Ġsco ops
ĠSKI ES
Ġavocad os
So up
vil le
Ġtim er
Ġcent ered
Ġcent ral
Ġemp ire
Ġrasp berry
Ġsurpris e
Ġhandbag s
Ġpreten d
ĠBOY S
Ġassemb led
Cl othes
Ġcit iz
Ġrele ased
Ġrhin oceros
Ġserious ly
Ġcemet ary
Ġmarsh mall
Ġrelax ed
Ġbutterf lies
Ġautomobile s
Ġdemonstr ating
fo il
Ġbrow sing
Ġmis mat
Ġdom in
Ġdom ed
Ġlux urious
Ġrel ated
ĠAP PL
Ġbrid ges
Ġappetiz er
ĠBR ICK
Ġ7 47
Ġer ase
Ġtet her
Ġgot ten
olly wood
Ġsat ell
Ġinv iting
Ġlun cheon
Ġgraph ics
ĠWOOD EN
ĠIn n
Ġsupport ed
Ġembra ce
Ġevergreen s
New ly
Ġgrow th
ĠShe pherd
Ġflaming o
Ġcommun ic
Ġrooft ops
Br ightly
Ben ch
Ref rigerator
Ġest ate
Ġtshirt s
Ġsund own
Ġbug s
Ġpal ace
Ġripen ess
Ġcamouf laged
ĠSHEEP S
Past ry
Park ed
hor se
ule nt
Ġfam ilies
Ġdun e
Ġcocon uts
Ġpolit ician
Ġpurch asing
ĠHar ley
Ġbloss om
ĠiP ad
Ġdais y
ĠELEPHANT S
EAT H
Home made
uis her
Ġswirl y
ĠSh op
ĠRA IL
Ġparticip ate
Ġjuic y
Ġaffection ately
Fl uffy
Ste am
group s
Ġlat est
Ġlla mas
Ġcobb ler
Ġzo oms
Ġwindm ills
Ġbring ing
Ġproce eding
Ġorch id
Ġtrans form
Ġexha usted
Ġinvol ved
fl ip
Ġcyl inder
Ġans w
Ġstu dy
Ġstu cco
Ġstay s
Ġven ue
Ġvert ical
Ġvert ically
Ġplow ed
Ġveg tables
Ġveg itables
ĠTI ED
ĠCOL OR
Ġutil izing
Dough nuts
ĠSLOP ES
Mini ature
whe eled
Ġorig inal
Ġorig ami
Ġcul inary
Ġgn ar
Ġmotoc ycle
Ġmotoc ross
Ġdiff rent
Ġbrocc olli
Ġlock ers
Stat ue
Stat ues
Ġwrink led
Ġintern et
Ġintern ational
Ġdepar ting
Ġawkward ly
Motorc yclist
po int
Ġtit led
Ġbru ised
Ġlant ern
Ġver dant
Ġparake ets
Ġlakes ide
Ġchalk board
amer a
Ġoutc ro
Ġseg ments
ĠAt l
ĠCL OU
ĠCUT TING
Ġattack ing
ĠLi berty
Door way
ĠAng els
Ġmerch andise
ĠWAIT ING
Ġmanufact ure
Ath lete
Bas kets
Building s
gar ita
giraff es
Ġpers pective
Ġmal n
Ġding y
Ġni bbling
Ġnecess ary
Ġske leton
Ġkim ono
Ġsnowsh oes
Ġleis urely
Ġoverh ang
Ġzomb ie
Ġintens ely
Ġscri pt
Ġcolla red
ĠCHE CK
Ġunt idy
Ġperipher al
Ġmex ican
ĠMer cedes
ĠMich igan
Ġpanoram ic
ĠGi ants
ĠEN CLOS
ĠRAM P
Stud ents
Ġfootp ath
Ġanticip ation
Silhou ette
Ġcontempl ating
Ġzoom ed
Ġjalapen os
Suit cases
fri end
wra pped
Ġoat meal
Ġwro te
Ġpy ram
lev ard
Ġank le
Ġlic ense
Ġstro ke
rad or
Ġrecess ed
Ġvel vet
Ġpars ley
Ġgrasp s
Ġmotoro la
Ġdispos able
Ġhandwr itten
Ġtelesc ope
Ġbruss el
ĠSw iss
ĠSty rofoam
Ġapparat us
Ġhygien e
ĠBIC YCLE
ĠORAN GE
Ġcrossb ones
Ġcanop ies
Ġexting uisher
Ġexpla ining
Ġarmo ire
Ġjuven ile
ĠTOOTH BR
Ind ividual
Ġsimultaneous ly
ĠPLAT ES
Ġembro idered
ĠBRID GE
Ġsightse eing
Ġwakeboard er
Crow ds
Fore ign
Gr illed
Ite ms
Lives tock
elephant s
Ġaerop lane
Ġtund ra
Ġtand em
Ġwti h
Ġinqu is
Ġincred ible
Ġmol dy
Ġgon dola
hernal ia
Ġparap hernalia
Ġchim ney
Ġchocol ates
Ġflick r
keep er
Ġbystand ers
Ġjac uzzi
Ġbacksp lash
Ġcomplic ated
ĠABO VE
Ġdelect able
ĠTIM E
ĠSyd ney
ĠCROW D
ĠCOVE RED
Ġunti ed
Ġstovet op
thans a
ĠPUR PLE
Ġdinos aur
ĠLuf thansa
ĠNumer als
ĠRout e
ĠUNIF ORM
Ġextern al
Ġicebo x
Ġpinstri pe
Ġmarshmall ows
Ġmismat ched
ĠAPPL IAN
' m
, "
. ,
1 0
1 1
1 5
1 9
3 2
3 8
3 50
A f
A m
A UR
A VE
B und
B rick
B are
B irthday
B unk
B LACK
B ritish
B lender
C ell
C ong
C ER
C ED
C yclists
C ASE
C oca
C amera
D S
D el
D ay
D uring
D ire
D oll
D AY
D rink
E Y
E nt
E qu
E DING
F C
F ing
F re
F is
F lo
F ast
F ancy
F ishing
F UL
G old
G LE
G arden
G ES
G az
G UY
H T
H ow
H el
H ol
H ey
H IC
I AL
J ets
K IN
K ET
L B
L L
L o
L ow
L ook
L ive
L IC
L OOKING
L OOKS
M ar
M ain
M arket
M ixed
M irror
N eat
N EATH
O S
O FFE
P D
P S
P re
P ic
P ile
P ost
P rop
P rot
P anda
P otted
P ORT
P olo
R U
R ust
R ear
R em
R aw
R IES
R iders
S M
S al
S ur
S ty
S pl
S outh
S anta
S eries
S itting
S ubway
S ports
S elfie
T en
T oo
T ree
T ime
T EN
T AIN
T ools
T ax
T Wo
U t
U IN
V end
V ERS
W at
W ed
W aff
Y OUNG
a ar
a ver
a ving
a uce
a ved
b a
b l
b q
b it
b al
b ra
b el
b ell
b aby
b ased
b uses
c ent
c ity
c ows
c ope
d ies
e in
e cker
f er
f la
f ry
f ire
f ish
f resh
g her
g ri
g ular
g lazed
h i
h igh
h ib
h att
h used
h ound
i ar
i ary
i os
i ques
i lad
j et
k in
k it
k ely
l t
l oo
l ooks
m i
m ic
m eat
m other
m ings
m aces
n ip
o sit
o vers
o spital
o ckey
o zer
o ala
p r
p se
p ane
p ly
p izza
p olice
p ainted
p arents
r d
r ated
r itious
s on
s ign
s met
t w
t ch
t able
t ign
t eddy
t urn
t ons
t raffic
t iled
t rucks
u lo
u ve
u ke
u ction
u ces
u ary
u ette
v ane
v ory
w omen
w atch
z o
z ar
z or
z ona
Ġ -
Ġ X
Ġ Ġ
Ġ ide
Ġ People
Ġa x
Ġa id
Ġa ds
Ġa bs
Ġa stride
Ġa uction
in ting
in ers
Ġt as
Ġt reet
Ġt ang
Ġt art
Ġt int
Ġt uck
Ġt attered
Ġt acks
Ġt ucks
Ġt angle
Ġt ugging
Ġo ve
Ġo ats
Ġs i
Ġs in
Ġs am
Ġs ugg
Ġs ons
Ġs orry
Ġs pending
Ġs ession
Ġb ree
Ġb ellow
Ġb az
Ġb rought
Ġb omber
Ġb ilingual
Ġb bq
it o
it ated
it ched
it iz
Ġw ard
Ġw ast
Ġw izard
he m
he n
he nt
he veled
Ġp om
Ġp am
Ġp and
Ġp row
Ġp red
Ġp unk
Ġp rison
an as
an yard
re gular
Ġc i
Ġc ors
Ġc oney
Ġc uddle
Ġc inder
Ġc lydesdale
Ġc ultural
Ġc ivil
le x
le ge
le st
le ase
le gged
er ns
at re
at ified
Ġin a
Ġin se
Ġin ning
ar ant
ro ning
Ġan a
Ġan tle
Ġan ime
Ġf ilet
Ġf ris
Ġf les
Ġf old
Ġf anc
Ġf ooth
Ġf ern
Ġf elt
Ġm am
Ġm im
Ġm ild
Ġm ull
Ġm ast
Ġm arm
Ġm itten
Ġm ule
Ġm ingle
Ġwit ting
Ġh il
Ġh ide
Ġh ate
Ġh ips
Ġh ike
Ġh ops
Ġh unches
Ġh urt
Ġd us
Ġd ill
Ġd yed
Ġd war
Ġd ata
Ġd usting
Ġd edic
Ġd udes
al king
al ds
al ade
Ġg ag
Ġg ap
Ġg amer
en a
en ces
en ced
en ns
en closed
Ġl ist
Ġl isting
Ġl anyard
om ic
om box
Ġst ood
Ġst ag
Ġst ap
Ġst ren
Ġst ake
Ġst amp
Ġst ern
Ġst itch
Ġst amps
Ġto le
Ġto te
Ġto lit
Ġto iled
Ġto asting
Ġto ga
es ome
es adilla
on ic
on ds
on ial
on nie
ow der
or ding
or ks
or der
or ange
or por
et tle
un te
un ny
as se
Ġman es
Ġman ip
la f
la ces
Ġn igh
Ġn ach
Ġn ail
op ot
op py
id as
il ities
ot ter
ot hing
Ġne gle
el iers
el isk
ut ches
ut ional
ut ons
ur ally
ur istic
Ġwh olly
Ġwh ims
ig ues
ig orous
ol is
ol or
ol as
ol ate
ol ds
ic ase
Ġstan ing
ge e
ge ous
Ġth igh
Ġth irt
Ġth ous
Ġat m
us c
us ion
ard s
ab by
her men
Ġbe ware
Ġbe ams
Ġsk a
Ġsk illed
Ġre n
Ġre in
Ġre ind
Ġre co
Ġco re
Ġco als
Ġco smet
eb er
eb asket
Ġro m
Ġro utes
Ġtra ff
Ġtra mp
ad ian
ad dled
Ġv es
Ġv irt
Ġv ice
Ġv ict
Ġv ulture
Ġv igorous
Ġk en
Ġk ara
Ġk oala
able d
Ġdo dging
lo ad
lo aded
Ġit alian
ff y
Ġpl ot
Ġpl us
Ġpl ying
Ġpl ast
ver ly
ver ted
Ġfro st
Ġfro wn
Ġbo dies
Ġfi ves
Ġfi ft
Ġsh it
Ġsh uff
Ġsh ave
Ġsh akers
Ġsh amp
Ġsh attered
Ġsh rine
Ġsh abby
ce ment
ce ption
Ġgra ve
Ġgra de
Ġgra ham
ate ur
Ġy ield
Ġsm ash
Ġsm ells
Ġch ic
Ġch ari
Ġch illing
Ġch illi
Ġch aps
Ġch ugs
Ġbat hed
ant age
oun ts
am us
am ole
and s
Ġdown stairs
Ġcat er
Ġup coming
Ġup turned
che l
Ġpi ers
Ġout ward
Ġout lined
ul y
ul led
Ġfl ot
Ġfl ushing
Ġfl iers
Ġfl ops
Ġfl utes
Ġfl ashes
Ġfl oppy
Ġcar toons
Ġdog gy
Ġsnow man
Ġsnow capped
nis hes
Ġten ds
Ġri vers
Ġtrain ers
Ġwal mart
Ġfront ed
Ġpark a
Ġpark land
room s
Ġra y
Ġra re
Ġra vi
Ġra fting
Ġra zor
Ġsur ve
Ġsur vey
Ġsur real
Ġbas set
st ain
st ep
st ool
st ein
im es
im ore
row s
ight ened
Ġwater y
Ġph armac
Ġph ys
Ġbu dd
Ġbath ro
Ġr ye
board er
board ers
ee f
Ġskat ers
Ġcom ic
Ġcom ical
Ġcom bs
zz led
Ġfor t
Ġpo uch
Ġj uts
Ġback lit
Ġback seat
Ġmot ions
Ġli ved
Ġli kely
Ġele ment
ie g
ie v
Ġball on
Ġball park
Th in
Th re
Ġhe el
Ġhe ated
Ġhe eled
Ġgiraff ee
Ġse w
Ġse ver
Ġle veled
Ġbeach front
Ġz ipping
Ġz ipper
ran sit
Ġwe en
Ġwe aves
Ġwa iving
Ġca ut
Ġca pe
Ġca len
Ġca use
Ġgirl friend
Ġcon ve
Ġcon ce
Ġcon ges
Ġcon cept
Ġdes olate
Ġdis ks
Ġdis hing
Ġdis rep
Ġdis heveled
Ġdis asse
Ġcomp on
Ġcomp ris
Ġcomp ared
Ġcomp iled
Ġumb e
Ġmotorc y
ill y
ill board
ill iam
ĠA B
ĠA D
ĠA pples
ĠA ll
Ġshe er
Ġsl ug
Ġsl ight
Ġsl ush
Ġsl iver
Ġint rig
Ġglass y
pen ed
Ġta p
Ġta ught
ull man
Ġhand y
Ġhand lers
Ġhand ker
Ġsc ree
Ġsc are
Ġsc ared
Ġsc ape
Ġsc uba
ort ers
Ġmo ut
Ġmo der
Ġmo oring
Ġopen er
Ġund one
Ġund erside
Ġund ressed
Ġunder way
Ġunder water
Ġde cl
Ġde ca
Ġte ach
Ġte aches
Ġtre ed
Ġtre ading
Ġsw it
Ġsw iss
Ġsw eeps
Ġsp rig
Ġsp ool
Ġsp ear
Ġsp arrow
ag er
Ġflo ss
ap le
ap ered
Ġfire s
Ġfire men
Ġfire trucks
Ġcol t
Ġsurfboard er
Ġen c
Ġen h
Ġen close
Ġbow ler
ĠT r
ĠT ar
ĠT ra
ĠT RE
ĠT ime
ĠT OW
ĠT ELL
ĠT ALKING
Ġdi ve
Ġdi ps
Ġoff ered
Ġsuit es
Ġsuit ed
Ġcoun ting
Ġcow girl
Ġcell ar
Ġso on
ore an
Ġsky ward
Ġcut outs
Ġcourt house
Ġcourt esy
ction al
Ġflow s
if es
if th
Ġkite board
Ġsandw hiches
ĠW i
ĠW in
ĠW ood
ĠW ILD
ĠW illiam
IN ES
IN ED
IN KING
ĠS c
ĠS ign
ĠS im
ĠS IZ
ĠS AME
ĠS ky
ĠS aint
ĠS OC
ĠS quare
ĠS ORT
ĠS ELF
Ġmoun t
Ġbi zar
Ġgo d
Ġdri pping
Ġapp lic
Ġhot plate
Ġma re
ang es
ress ion
do ugh
do gs
do uble
Ġhead dress
uff s
Ġche er
Ġim ple
Ġim itating
Ġfe ar
Ġfe el
Ġhit ch
the ir
Ġar ugula
Ġref resh
Ġref ueling
Ġsa w
Ġsa vory
Ġbro ch
Ġbro iler
ĠF UR
ĠF AM
ĠF ULL
ĠF ifth
our ished
Ġus er
Ġus ual
ĠB el
ĠB ut
ĠB ab
ĠB ay
ĠB rown
ĠB RE
ĠB ud
ĠB est
ĠB ES
ĠB OT
ĠB anan
ĠB alt
ĠB ROC
ĠB icycle
ĠO r
ĠO re
ĠO cean
ĠO ven
ĠO rioles
ĠC le
ĠC as
ĠC ross
ĠC RE
ĠC AL
ĠC UR
ĠC AG
ĠC OFFE
ĠC orpor
te en
Ġsun ning
ey ed
ac ing
ac led
ac amole
Ġbes pect
Ġha unches
Ġha zard
Ġun z
Ġun in
Ġun ic
Ġun to
Ġun ident
Ġun ited
Ġun peeled
Ġun iqu
Ġcl in
Ġcl ipped
Ġcam ps
Ġpro xim
Ġpro hib
Ġhat ch
Ġbox ed
Ġcor dless
Ġcor rid
Ġgu est
Ġgu acamole
Ġlo om
Ġlo ads
vel oped
Ġwor ding
der ing
Ġwine glass
Ġem o
eng ine
RE S
Ġkn ots
Ġkn elt
Ġkn ifes
Ġsto op
Ġsto ic
Ġsto ops
Ġkey pad
Ġlong horn
th og
th umbs
urn iture
ĠP R
ĠP RO
ĠP UT
ĠP lace
ĠP ILL
ĠP OTS
ĠP ooh
ĠP enns
ĠP otter
ĠP ullman
Ġtal be
Ġbag uette
Ġcle ment
Ġcle ared
Ġdon ation
Ġper man
sh ots
Ġme ets
Ġme me
Ġwalk ers
Ġcur l
Ġcur ving
Ġcur ves
Ġdin ers
Ġdin ette
Ġbicycle rs
Ġhigh lights
Ġpot ty
Ġkites urfing
Ġpat tered
Ġpe a
Ġpe al
Ġpe cks
Ġpe ice
Ġmeat loaf
Ġcan ning
Ġcan ist
est ically
Ġall ig
Ġall ows
cher s
Ġpol y
Ġpol ished
Ġboo ster
Ġres er
Ġor ders
Ġlea king
IT AL
IT ION
Ġriver boat
ple ts
Ġste et
Ġshower ing
Ġsleep er
Ġjet liners
Ġatt ic
Ġatt ract
Ġrow boats
Ġintersection s
ty pe
ĠM N
ĠM om
ĠM all
ĠM ag
ĠM other
ĠM AT
ĠM ary
ĠM useum
ĠM ario
ĠM IDD
ĠM LB
Ġlook ign
Ġmat es
Ġmat ure
Ġmat ress
Ġslic er
we red
br idge
br ushes
Ġenclosure s
Ġdark ness
iz e
ale nt
Ġpost card
Ġsal oon
Ġsal ami
ĠL E
ĠL G
ĠL o
ĠL as
ĠL ake
ĠL ADY
ĠL ANES
ĠL INED
lic ed
ĠD ad
ĠD ay
ĠD ep
ĠD alm
ĠD og
ĠD OU
ĠD UR
ĠD AY
ĠD RAW
ĠD etro
ĠD istrict
Ġam ph
Ġhair do
Ġ" .
ĠH om
ĠH il
ĠH am
ĠH ill
ĠH ere
ĠH usky
ĠH ollywood
Ġphotograph y
ash ion
Ġfour th
Ġex its
Ġex act
Ġex ception
ĠG ra
ĠG ate
ĠG ermany
ĠG PS
ĠIN TO
Ġstat ely
Ġstat ute
Ġho s
Ġho sting
Ġcats up
ĠN ot
ĠN IGHT
Ġed ible
Ġcook top
ER RIES
Ġob elisk
Ġsqu ad
Ġsqu inting
Ġmult it
Ġgr ated
Ġgr ating
Ġgr ins
Ġgr atified
Ġfurn ace
ric al
ric ots
Ġdist in
sp here
Ġfac ade
Ġnot epad
astic ally
Ġpen dant
AR M
AR IET
RO AD
oot ball
Ġsub ject
Ġclot he
Ġturn ips
Ġpa id
Ġpa red
Ġcart ons
Ġur inating
Ġmar ch
Ġmar ath
Ġgar ment
Ġgar nishes
Ġtr ump
Ġbase ment
sit ting
ĠE le
ĠE nt
ĠE AT
ĠE nd
Ġaf ghan
road s
Ġarm ed
Ġsty ling
Ġfr ightened
ĠST ALL
ĠST AND
ĠST EP
Ġwas hes
Ġneck laces
Ġsail or
Ġpad ded
Ġind ian
anc ou
ĠCh ild
Ġclut ches
Ġclut ched
ĠR d
ĠR ide
ĠR ad
ĠR ue
ĠR estaurant
Ġfo i
Ġfly er
Ġstair well
St ar
St range
Ġschool bus
Ġap ricots
Ġfoot stool
Ġdu el
Ġstall ion
Ġgraff itti
Ġqu ant
Ġqu izz
Ġqu estion
Ġqu esadilla
Ġwheel ing
os k
Ġmess ed
Ġmess ages
land s
Ġlow ering
Ġdev il
Ġspoon ful
Ch urch
de es
de ck
Ġblen ding
Ġwin ery
Ġwin ner
ens ation
Person s
sc issors
Ġflag stone
Ġart if
ĠU R
ĠU MP
ĠU lt
Ġclothes line
LA DY
EN G
Ġcro uch
Ġcro ps
Ġcro tch
Ġcro utons
ET ABLE
OW ING
Ġroo st
Ġfarm land
IS H
IS T
Ġbur ies
Ġpart aking
ou is
ĠV E
ĠV eg
ĠV ietnam
ĠV alent
ĠV ancou
Ġcra cks
Ġcra sh
OT E
Ġdel ic
Ġprop s
Ġprop erly
Ġmod eling
Ġadvert ised
ract or
Ġmus cle
Ġlunch box
az ard
co al
Ġcir ca
Ġcir cling
urf er
ĠK NIF
ĠK IDS
Ġmust ached
Ġkick stand
Ġkick flip
Ġsteam boat
Ġcr usted
Ġcr ushed
Ġcr utches
Ġspr ings
Ġmix es
Ġmini van
Ġinclud ed
uc asian
Ġcla p
Ġcla mp
Ġport ions
key s
ĠTH IS
ĠTH ROU
Ġinter cept
hel ls
Ġhapp en
Ġfight ers
Ġtw ist
Ġstr ide
ĠJ u
ĠJ et
ĠJ ET
ĠJ acks
ĠJ esus
Ġdoll house
Ġi roning
Ġuse ful
Ġpee k
Ġpee ler
Ġpee ping
Ġdep lo
Ġsprink ling
Ġfur iously
Ġsweat ers
Ġsweat pants
OO K
pl ish
Ġbush y
Ġwriting s
Ġrefle ct
Ġbik inis
Ġab ility
Ġwar ms
Ġwar thog
aster n
Ġjo ined
gon omic
ath ans
Ġmound s
cra fts
Ġclass ical
Ġje we
TH RE
em ble
Ġstream ing
Ġstream ers
Ġgroom er
Ġchar gers
Ġchar coal
Ġfin ding
Ġcond ensation
IL Y
Ġaw esome
Ġhood s
ID ES
Ġleg os
ĠPE OLE
Ġtransp arent
Ġcelebr ates
Ġtail gate
Ġsim ply
Ġpet ted
Ġfir m
Ġdra g
Ġremo ve
Ġduck y
Ġ2 2
Ġcre ated
Ġcre pe
Ġattemp ing
ĠY amaha
Ġda ughters
Ġwaters kiing
Ġcoll iding
Ġorgan izes
Ġdeli vered
Ġdeli vers
van ia
Ġobser ved
cycle s
Ġpor c
Ġconf ection
Ġconf ront
Ġmagn ifying
Ġcal z
Ġphotograp hers
amp les
rot urf
Ġeven ly
Ġtransport s
dd les
ĠRE ACHING
Ġrep orter
Ġrep orters
Ġweather vane
Ġchil ies
Ġcalf s
Ġfil ter
Ġfil med
uzz led
Ġonl ooking
Ġexhib ition
Bus hel
Ġaud io
Ġsad dled
Ġhum ans
Ġhum orous
oe ing
oe uv
Ġsu v
Ġpatch work
Ġic ons
Ġic icles
Ġpin ning
Ġsec uring
EL S
EL Y
EL ING
ok er
Ġcalm ly
Ġcomple ted
od es
Ġass oc
Ġass isted
Ġgolf er
Ġbou levard
Ġspray er
Ġceramic s
FF IC
com plete
Ġtin foil
Ġbra ch
Ġbra ke
Ġbra ids
Ġple ased
Ġcran berry
Ġstir red
Ġvol kswagon
Ġvol unte
On ions
Ġtun ed
Ġshut tered
Ġtaxi way
Ġpony tail
Ġcru de
Ġcru ises
Ġcru cif
Ġread ied
Ġjersey s
ĠTRA FFIC
Ġprote cting
Co la
ĠBAT TER
ĠPL ANT
Be arded
met ed
Ġcush ioned
Ġsne ak
Ġcomb ines
ĠBA ORD
Ġgri pping
Ġgri me
Ġgri maces
Ġgran ola
Ġmove ment
ĠPAR ADE
Ġfinger ling
Col lage
Ġoverc ooked
Ġworks hop
AS A
Sh adow
Ġoper ator
Ġoper ates
Ġneed ed
Ġarri val
Ġpump ing
Ġins ign
Pair s
Ġdro plets
Ġplan ks
Ġplan ner
Ġoppon ents
ĠThe atre
Ġact ively
Ġact ually
Ġbund les
Ġelegant ly
Ġseas hells
Ġunf olded
Ġunf urnished
Ġpean uts
Ġgrin ning
Ġcall s
Ġge ared
Ġgoo fy
Ġstrol ling
Ġstrol ls
lay ed
Ġconvey er
Ġsplas hes
ĠCAR T
Ġhaul s
Ġtrim mings
Ġlisten s
CHE S
Her ds
ta che
Ġdesc ends
Car go
Car rot
Ġbean bag
Ġfauc ets
ĠSNOW BOARD
ĠUS B
bag s
Ġdet ached
Ġcoast al
Sc ulpt
Ġkeep er
Ġdec iding
Ġdec ided
Ġdef in
Ġdef end
Ġdiv iders
ĠWAL K
Ġpress ure
Hot el
Ġ5 0
Ġ5 1
Ġfat igues
Ġrot ini
Ġchand eliers
Ġbad ge
Ġbad ges
Ġpig tails
Ġinstruction al
Ġanch or
Ġanch ov
Ġhal ved
Ġnav al
Ġsnugg les
Ġcarn ation
Ġcarn ations
Ġtext s
Ġmaj estically
ĠRo yal
Ġtro op
Ġnur ses
ĠSH OWING
ĠCOM M
Ġbarbe c
ĠKIT ES
Police men
ĠZ oo
Ġsum mit
Ġstump s
ĠAIR PORT
Ġcolle cting
Ġcamp ground
Ġspecial s
Ġspecial ty
ĠUn ion
Ġparasa ils
IM B
Sand y
ipp y
Ġstre ak
Ġstre aking
Ġtech nic
Ġattent ive
Ġartistic ally
Ġbump ing
Ġcoo lers
Ġreal istic
Ġscrat ches
Ġretrie vers
Comm ode
Light s
Par ach
Ġfle x
ĠTh ai
Ġmous tache
Ġgym nas
Ġna iled
Ġru ined
Ġjam med
Ġcomplet es
ĠFOR K
ĠNE W
Ġsol o
Ġwip es
Ġpon toon
Ġpage ant
Ġfile s
Ġreve al
Ġvac ation
Ġyog a
Ġjug s
Ġscru ffy
Ġprepar ations
ĠItal y
Ġprotest ors
Ġsup reme
Ġhud dling
Ġrod ent
Ġunri pened
Ġassemb ling
Cl own
Cl uttered
Le ft
Le gs
PH ONE
yl vania
Ġult ra
Ġcrow ding
Ġwatermel ons
Ġadm ired
Ġallow ing
Ġseason ings
Ġalcohol ic
Ġaim s
Ġmer ge
Ġmer ging
Ġhur dles
Ġbuy s
Ġscra p
Ġscra mbling
Ġbrid al
ĠBR IGHT
ĠPO ST
LASS ES
Ġwrest le
Ġalert ly
AV Y
Con struction
Wh y
XT RA
ham mer
ma id
Ġer gonomic
Ġip ad
Ġdrain age
Ġnut ella
Ġnut ritious
ĠBED ROOM
ĠOVER LOOKING
Ġclown s
ĠELE CT
Ġconsum ing
Ġconsum ed
PL ATE
PLA CE
Ġsat in
Ġfer ret
Ġyour self
Ġheight s
Ġmac book
Ġstem med
ĠKit chen
Ġesc ort
Ġkiw is
Ġet ched
Ġgrapefruit s
Ġasc ends
ĠChe vy
Ġtar ps
Ġbord ers
Ġpal ms
Ġcram med
Ġmiss ed
ict ion
Ġsear ch
Ġintric ately
Ġspark ler
Ġspark ling
ĠWALL S
Ġsimilar ly
Ġdeta iling
Ġgradu ates
Tw in
col or
kn acks
ĠMan hatt
Ġurn s
Ġsquee zing
Ġweb cam
Ġfut uristic
Ġginger bread
ĠBe ach
Ġemer ges
ĠHar ry
Ġprotru des
ĠFIRE PLACE
Part ially
Ġtack ling
Ġblaz e
Ġcarving s
Ġjud ge
ĠAustral ian
Ġspan iel
ĠTE LE
ĠTE AM
Ġhyd ra
Ġbreast s
ĠDE COR
ĠDR INK
ĠDR INKING
ĠDVD s
Ġbulld ozer
Ġaffection ate
Ġcongre gating
Decor ated
ĠGIRL S
ĠUMBRELLA S
Pe pperoni
Ste ak
Work er
Ġwi h
Ġlat te
iche n
Ġeff ort
Ġcho ice
ĠCol gate
Ġunb ut
Ġproce ed
Ġproce eds
Ġpear ls
Ġbarb wire
Ġattach ments
Ġstorefront s
Ġamaz ed
Ġconcentr ates
Ġspec ies
Ġspec ific
Ġspec ially
ĠRUN WAY
ĠUNDER NEATH
Ġcrumb ling
Ġenthusi astically
Ġceremon ial
Ġinvol ving
Ġtherm os
Ġhund red
Ġeag er
Ġteac up
Ġswamp y
ĠTI ER
ĠWOR MS
ĠSC REEN
Ġgoble t
Ġwildebe ests
Ġteamm ates
Ġfunction al
Ġentry way
Dough nut
Ġcollect ible
Ġtechnolog ical
Desk top
ĠBANAN AS
Che ese
Che fs
whe eler
Ġir ises
Ġir regular
Ġhoo f
Ġgn ome
Ġcharm ing
Ġrat ty
Ġfirefight ers
Ġimpress ed
Ġimpress ive
Ġbroad ly
ĠCD s
ĠPOL ICE
gram med
Ġexerc ise
Ġexerc ising
Ġwrink les
Ġpretz els
Ġdepar ture
Ġcondition er
Motorc yclists
Ġbrace let
Ġbrace lets
Ġwreath s
Ġ201 2
Ġpomegran ates
Go ats
dri ver
zebra s
Ġtit le
Ġcris p
Ġcris s
Ġfet a
Ġlant erns
lamp s
Ġere cted
Ġsharpen s
Ġsharpen er
Ġparake et
Ġoutc rop
Ġseg ment
Ġdisg usting
ĠSP OON
ĠSp ring
ĠFE EDING
ĠBAR N
Ġaddress es
ĠPolar oid
Ġforehead s
ĠLi brary
Ġhost s
Ġsuccess ful
Ġsuccess fully
Ġmerch ant
Ġlavish ly
GH N
mo dern
oh n
Ġtast es
Ġdanc er
Ġdanc ers
Ġstab bed
Ġnin et
Ġwhis key
Ġgras ping
ĠCLE AN
ĠCLE AR
Ġcontin ue
Ġmono grammed
ĠME AL
ĠHIT TING
ĠGold en
ĠVol kswagon
ĠVEG G
Ġmusc les
Ġmusc ular
Compet itor
Ġspotless ly
Ġmagnet ic
ĠREF LE
Ġmeasure ments
ĠAPP EARING
Ġenthusiast s
Ġautograph s
Abo ut
Class ic
Even ing
Pan cakes
Pla ying
Sw ans
Sleep ing
Tray s
Ġsut icase
Ġging ham
Ġgain ing
Ġwhisk ers
Ġrequ ire
Ġcoord inating
Ġva ulted
Ġkil n
Ġdoc uments
Ġbout onnie
ĠAri zona
Ġalign ed
Ġslat ted
ĠCE LEBR
Ġdoubled ecker
Ġpeg board
ĠDan i
ĠHY DRANT
ĠHor ses
Ġexper t
ĠGUY S
ĠNY PD
istor ic
Ġlandsc aping
Ġfrid ges
ĠChar acters
Ġquar ter
Ġcrus ts
Ġaccord ion
Advert ising
Ġorganiz ation
Ġinstit utional
ĠREST AUR
Ġbulb ous
Ġhipp opot
Att ractive
Ġinvestig ate
Ġblindf olded
ĠAPPLE S
ĠRACK ET
Ġcylind rical
ĠPASS ING
Ġpebb led
Ġuncommon ly
BAT HROOM
Cal ico
Mot ion
Mountain s
Pige ons
Tom atoes
Ur ban
cour t
ecut ive
ucc ino
Ġsen ior
Ġslack s
Ġbris tles
rex posed
Ġfas c
Ġlumb er
Ġbeet le
Ġretain ing
Ġecle ctic
Ġtravers ing
Ġvers ion
Ġply wood
Ġgrav ity
Ġleag uer
Ġovern ight
Ġcapp uccino
Ġalb um
Ġtac os
Ġscrol ls
Ġscrew driver
Ġdealer ship
Ġteak ettle
Ġspons or
Ġshowc asing
ifi able
ĠScot t
ĠServ ice
Ġsaute ed
ĠCard inal
Ġadv antage
ĠPac ific
ĠPIE CE
ĠPAIN T
Ġaggress ively
ĠIris h
ĠMET ER
ĠMaj or
ĠDON UTS
ĠGeor ge
Ġflam es
ĠEd ward
Ġgraffit ied
ĠStat ue
Ġartich okes
Ġterrit ory
Ġhousebo at
Ġentran cing
ĠJE ANS
ĠJUN GLE
Ġstrad dling
Ġfinanc ial
Ġinstall ation
Ġdispens ers
APP EARS
Ġdeter m
Ġsatell ite
Ġtransform ed
Ġansw ering
Ġmaln ourished
Ġpyram id
ĠTOOTHBR USH
Ġinquis itive
Bund les
Fing ers
Hel meted
Pic nic
Post er
Prot est
Spl it
TEN NIS
Ut ility
gher ita
pane led
ulo us
Ġabs ol
Ġtang led
Ġove rexposed
Ġsam ple
Ġbree ze
Ġbaz aar
Ġwast ebasket
hent ic
Ġpam ph
Ġpand as
Ġfles h
Ġfooth ills
Ġmarm alade
Ġdus ter
Ġdedic ated
Ġstren gth
Ġnach o
Ġnegle cted
Ġreind eer
Ġkara oke
Ġplast ered
Ġfift ies
Ġchari ot
Ġravi oli
Ġpharmac y
Ġphys ical
Ġconges ted
Ġdisrep air
Ġdisasse mbled
Ġslush y
Ġhandker chief
Ġdeca ying
ĠTRE ES
ĠSOC CER
Ġbizar re
Ġimple ments
Ġrefresh ments
ĠFAM ILY
ĠBES IDES
ĠBalt imore
ĠCOFFE E
Ġbespect acled
Ġunto uched
Ġunident ifiable
Ġuniqu ely
Ġcamps ite
Ġproxim ity
Ġcorrid or
ĠPUT TING
ĠPenns ylvania
Ġperman ently
Ġcanist ers
ĠMIDD LE
ĠDOU GHN
ĠDRAW N
ĠDetro it
Ġmarath on
Ġquizz ical
ĠUMP IRE
ĠUlt imate
ĠVeg as
ĠVietnam ese
ĠVancou ver
ĠKNIF E
ĠTHROU GH
ĠJacks on
Ġanchov ies
Ġgymnas ium
ĠManhatt an
Ġboutonnie re
ĠCELEBR ATING
ĠRESTAUR ANT
Ġhippopot amus
' .
' ll
, .
0 8
1 2
1 4
1 8
2 5
2 9
3 5
5 5
6 0
? ?
A F
A K
A b
A ler
A RE
A man
A sp
A mer
A KING
A rial
A pple
A CKS
A KES
A CHER
B M
B ar
B all
B ur
B ase
B ull
B ey
B LE
B ins
B ears
B ike
B acon
B aker
B AM
B urning
B ASE
B ald
B utter
B athtub
B eef
B illboard
B ERRIES
C e
C it
C ur
C ard
C ab
C her
C and
C ru
C age
C are
C ING
C AT
C AR
C OM
C ES
C olored
C OL
C ROSS
C ADE
C urious
C upcakes
D I
D ri
D ad
D am
D ess
D ist
D ining
D ental
D isc
D airy
D OG
E xt
E ach
E mp
E mb
E laborate
E RED
F L
F T
F e
F le
F ig
F ree
F ull
F risbee
F ram
F aded
F og
F ake
F ully
F lat
F uzzy
F irst
F IVE
F urniture
F ashion
G I
G O
G Y
G e
G oo
G ri
G ated
G erman
G reat
H um
H ors
H ouse
H anging
H aving
H ospital
I ng
I ERS
I CKS
J O
J ust
J apanese
K n
K ing
K itten
L I
L M
L et
L ab
L ad
L ime
L ERS
L ondon
L AND
L amb
L ower
L ARGE
L ONG
L ove
M A
M E
M I
M Y
M om
M as
M ic
M us
M ay
M ush
M ING
M AT
M ature
M exican
M ounted
M aj
M useum
N N
N on
N ow
N uts
N aked
N ative
N arrow
N ERS
N icely
O D
O b
O cean
O OM
O FF
O VER
O riental
O THER
O strich
O RED
P P
P U
P er
P or
P ig
P ain
P ep
P ick
P ens
P alm
P aper
P ano
P res
P apers
P olar
Q U
Q ue
R e
R et
R oll
R IC
R usted
R hin
R iver
R etro
R undown
R estaurant
S n
S an
S at
S tain
S omet
S low
S ED
S ushi
S ince
S OME
S ORS
T A
T V
T y
T ort
T ag
T rol
T RO
T OM
T ram
T IS
T iled
T URN
T ractor
U M
U nd
V IS
V andal
V IEW
V irgin
W A
W E
W he
W ar
W or
W et
W ide
W ii
W TH
W orn
W rought
W atch
W HERE
W inter
W ait
W onder
Y es
Y ach
a pt
a ult
a ven
a iting
a ist
a wn
a fe
a erial
a ware
a ughter
b ar
b on
b et
b ot
b ig
b ard
b ug
b ie
b ull
b are
b ows
b ish
b ear
b aked
b lock
b ians
b athtub
c r
c re
c id
c il
c row
c ass
c ast
c ooking
c art
c ely
c ular
c ute
c urity
c ially
c oph
c upcakes
d ged
e an
e ff
e ks
e cor
f ing
f oo
f ree
f red
f ull
f ort
f ram
f ired
f lies
f ried
f inished
f irst
g i
g ro
g ot
g us
g ile
g ue
g ry
g gs
g oon
g os
g ons
g iving
g iant
g liding
h ow
h ous
h ire
h alf
h ns
h ake
h adow
h abit
h ode
h aps
i y
i at
i la
i ot
i ate
i ation
i ors
i vered
i ved
i eth
i ker
j a
j u
j ecting
k ers
k ay
k ule
l u
l is
l ot
l ying
l ated
l lic
l ized
l ied
l ier
l angu
m m
m n
m al
m ouse
m ond
m ary
m allow
m od
m aker
m med
m elier
m ote
m inating
m ith
m ilitary
n at
n or
n et
n ity
n ine
n ets
n ies
o b
o or
o ir
o ks
o ors
o cked
o ids
o hem
p ro
p ic
p ink
p air
p ill
p ast
p ip
p ool
p ond
p uter
p ots
p icious
p od
p ole
p ose
p osure
r ug
r ill
r int
r ince
r ints
s l
s q
s w
s y
s ite
s pe
s wing
s els
s hel
s ided
s bee
s unny
s liced
s bians
t it
t ow
t ting
t ents
t ray
t hers
t ichen
u et
u ant
u ree
u quet
u zer
u arant
v d
v ag
v ious
v ia
v aged
v ival
v itating
w y
w an
w ur
w ild
w th
w ars
w ave
w ny
w rit
w orth
x ig
x agonal
y o
y st
y pt
y led
y ummy
z ip
z illa
z ucchini
Ġ [
Ġ ig
Ġ ign
Ġ Three
Ġ Several
Ġ ud
Ġ elf
Ġ ROUND
Ġ idy
Ġ ROW
Ġa y
Ġa z
Ġa ck
Ġa lo
Ġa ver
Ġa cts
Ġa ux
Ġa rabic
in m
in ine
in ated
in to
in ness
in ental
in isc
in nes
Ġt p
Ġt ink
Ġt umb
Ġt illed
Ġt est
Ġt iers
Ġt ummy
Ġt ask
Ġt iki
Ġo o
Ġo p
Ġo y
Ġo her
Ġo ils
Ġo ption
Ġo pa
Ġo kay
Ġs ow
Ġs ot
Ġs wo
Ġs king
Ġs own
Ġs ul
Ġs age
Ġs ent
Ġs if
Ġs ched
Ġs ust
Ġs ens
Ġs izz
Ġs ixt
Ġs ending
Ġs ister
Ġs omb
Ġs ince
Ġs sitting
Ġs ippy
ing ing
ing ling
Ġb ol
Ġb igh
Ġb ac
Ġb ales
Ġb ails
it age
it ely
it ory
Ġw ad
Ġw ile
Ġw aring
Ġw illed
Ġw ren
Ġw th
Ġw ider
Ġw olf
Ġw nd
Ġw orth
Ġw iring
Ġw asted
Ġw inks
he ro
he st
he ws
Ġp b
Ġp f
Ġp m
Ġp es
Ġp ure
Ġp reen
Ġp rick
Ġp illed
Ġp inking
Ġp eep
Ġp raying
Ġp alle
Ġp elle
Ġp yl
Ġp oms
Ġp uree
an f
an y
an ed
an ie
an imal
an ning
re f
re ro
re cted
Ġc u
Ġc il
Ġc ad
Ġc ay
Ġc rick
le ying
le nty
le efully
er ce
er ade
er by
er ings
er oni
er pris
er bil
er chief
Ġon line
at he
at ar
at ures
at ives
at wur
Ġin ves
Ġin vis
Ġin vent
Ġin let
Ġin app
Ġin cle
Ġin verted
Ġin complete
ar f
ar an
ar king
ar ine
ar ching
ar ies
ar ted
ar ish
ar ray
ar agus
ar ison
ro s
ro ving
ro so
ro med
ro of
is er
is ten
is ley
Ġthe e
Ġan no
Ġf id
Ġf us
Ġf ee
Ġf irl
Ġf ool
Ġf aster
Ġf rance
Ġf erries
Ġf use
Ġf rass
Ġf ulled
Ġm c
Ġm ut
Ġm ile
Ġm ack
Ġm ort
Ġm ime
Ġm ental
Ġm unches
Ġm ower
Ġm ills
Ġm ickey
Ġm ucky
Ġm ules
Ġm owed
Ġm uzzled
Ġm ingling
Ġwit ches
Ġh ub
Ġh uts
Ġh arm
Ġh ula
Ġh ued
Ġh opping
Ġd um
Ġd ran
Ġd ull
Ġd art
Ġd ye
Ġd unkin
al nut
al vation
Ġg in
Ġg ir
Ġg ut
Ġg ass
Ġg ild
Ġg ong
Ġg oth
Ġg na
Ġg ps
Ġg ana
Ġg lad
Ġg olds
Ġg leefully
Ġg erbil
en o
en as
en ice
en ance
Ġl ur
Ġl ugg
Ġl oll
Ġl att
Ġl unches
Ġl ucky
om in
om ers
om obile
Ġst et
Ġst ting
Ġst ur
Ġst ilet
Ġst eth
Ġst ray
Ġst aged
Ġst rang
Ġst itched
Ġst alking
Ġto es
Ġto ting
Ġto st
Ġto uring
Ġto iler
ra id
ra el
ra se
ra its
ra cy
ra gile
es el
es se
es ted
on ti
on os
on structed
Ġis s
ed er
ed ar
or und
or ds
or ny
or ative
or anges
et her
et ary
et ah
et tes
un e
un s
un ity
un ette
as king
as ant
as oned
ir g
ir ates
ir cling
ir cular
Ġman ue
Ġman age
Ġman ger
Ġman aging
Ġman hole
la b
la c
la uge
la den
Ġn er
Ġn etting
Ġn esting
Ġn orth
op sticks
ch n
ch icken
ch uck
ch opped
ch iev
all ion
Ġsit es
Ġsit ti
Ġsit tin
id io
id ence
oo f
oo ts
up er
il ver
il ation
il ian
il iary
ot ional
Ġne ct
Ġne ighbor
el ph
ut re
ut ch
ut ure
ut ely
ur ant
ur ban
ur posed
ur pose
Ġwh ats
Ġwh ike
Ġwh izz
Ġwh ited
ig ers
ig hed
ol s
ol ine
ol ks
ol ini
ers by
ers hop
ic y
ic ured
ic olor
ic ilian
ge les
ge yed
Ġth inking
Ġth rees
Ġth omas
Ġth orny
Ġat en
Ġat mo
us er
us tery
ard ant
ab ric
ab eth
ab att
her n
her man
Ġbe es
Ġbe ad
Ġbe aded
Ġbe ret
Ġbe vy
Ġbe come
Ġbe wild
ri et
ri ble
ri ption
ri umph
Ġre ed
Ġre nt
Ġre ub
Ġre pla
Ġre ars
Ġre na
Ġre cycle
Ġco y
Ġco op
Ġco up
Ġco il
Ġco cks
Ġco ating
Ġco ached
Ġco usc
Ġe ying
Ġe ase
Ġe ffic
Ġe urope
Ġe iffel
Ġe astern
eb ook
eb rows
Ġro le
Ġro ver
Ġro ots
Ġtra ms
ad a
ad o
Ġv at
Ġv ying
Ġv ist
Ġv iny
Ġv ivid
Ġv od
Ġv illa
Ġv ictor
Ġv itam
Ġk ar
Ġk ab
Ġk raut
Ġk tichen
Ġk erchief
Ġdo ves
Ġdo ctors
The e
lo c
lo yees
ss y
ss es
Ġpla e
Ġpla cid
Ġwhite board
ile vered
Ġpl ump
Ġpl ows
Ġhol low
Ġwoman s
und er
und reds
Ġtable ts
ver n
ver ty
Ġthat ch
Ġfro lic
Ġfro thy
Ġstreet cars
Ġbo b
Ġbo g
Ġbo ars
Ġbo iler
Ġbo ggy
Ġbo bble
Ġbo ombox
ood oo
Ġfi e
Ġfi erce
ve rely
Ġsh ad
Ġsh ading
Ġsh acks
Ġsh ift
Ġsh orn
Ġpar is
ce iling
Ġla cks
Ġla ces
Ġla cking
Ġla cy
Ġla ma
Ġla cross
Ġla goon
Ġgra ined
ate gy
Ġgro ws
Ġy e
Ġy o
Ġy ork
Ġy awn
Ġsm e
Ġch ir
Ġch am
Ġch ill
Ġch ick
Ġch art
Ġch ance
Ġch ats
Ġch allen
Ġch owder
Ġch romed
Ġbat t
Ġbat hes
Ġbat tered
ant e
ant ro
ant ily
ant ically
oun ding
am an
um es
um mer
um ably
and y
Ġdown s
Ġdown y
Ġdown ed
Ġdown wards
Ġcat hol
Ġcat nip
Ġup gra
Ġup set
Ġup hol
Ġup lif
che t
Ġclo ves
Ġclo gged
Ġtop per
Ġtop ics
Ġpi ke
Ġpi ping
Ġpi anos
Ġpi laf
ul ting
ul ate
ul ator
ul ating
ul ance
ul fed
ach u
Ġsn ail
Ġfl urry
Ġfl uffed
Ġfl ask
Ġcar ves
Ġcar av
Ġcar ring
Ġcar port
Ġcar mel
Ġcar cass
se ven
Ġnear ing
ke mpt
Ġsnow bo
Ġsnow ball
Ġsnow men
Ġsnow fall
nis ter
nis tic
Ġfield er
Ġfield ers
Ġri pp
Ġri ms
Ġri pped
Ġri pping
Ġtrain ed
Ġtrain yard
Ġwal nuts
Ġfront ier
Ġra pping
Ġra iled
Ġra gged
Ġra vine
Ġsign ific
Ġbas ed
Ġbas king
ind ers
ind ly
ind ows
Ġblack top
Ġblack berries
ay lor
st re
st ery
st uffs
st yled
Ġplate au
im i
im pse
row ed
Ġwater board
Ġloo sely
Ġph o
Ġph rase
Ġbu id
Ġair crafts
Ġkit che
ue led
Ġbath t
Ġbl ck
Ġbl and
Ġbl ustery
Ġr c
Ġr d
Ġr in
Ġr um
Ġr umb
Ġr anger
Ġr ugged
Ġred s
Ġred one
Ġred headed
Ġred ecor
ph azard
An gry
ru eling
air planes
Ġskat board
Ġyoung est
Ġcom bed
Ġcom ics
zz y
Ġfor ties
Ġfor got
ct uary
Ġpo ur
Ġpo ins
Ġpo sting
Ġpo verty
Ġj ay
Ġj our
Ġj apanese
Ġj azz
Ġher b
Ġher s
Ġher itage
Ġhor rible
Ġback ing
Ġback round
Ġback less
Ġback back
umb us
umb led
Ġfood stuffs
Ġli lac
ie ve
ie ving
Ġski iing
Ġhe n
Ġhe ats
Ġgiraff s
Ġgreen ish
Ġgreen house
Ġse es
Ġse ab
Ġse am
Ġse vent
Ġse lect
Ġse verely
Ġle ver
Ġle ak
Ġle eks
Ġle sbians
Ġle vitating
Ġmotor ist
ent a
ent ed
ent ric
ent hused
Ġbeach side
Ġpic s
Ġpic t
Ġover weight
Ġover loaded
Ġz ig
Ġz eb
Ġz ones
Ġz ips
Ġz ipp
Ġeat ables
Ġwe aved
Ġwe ighed
Ġwa gons
rel ict
Ġtoilet ry
Ġca red
Ġca ress
Ġca coph
tle ss
Ġdis ple
Ġdis abled
Ġdis array
Ġcomp ass
Ġcomp os
Ġcomp osed
Ġcomp ound
Ġcomp arison
Ġmotorc yle
ub lin
ine a
Ġmen d
Ġmen acing
ĠA er
ĠA st
ĠA sh
ĠA mb
ĠA RT
ĠA bra
ĠA lex
ĠA CROSS
Ġwind own
Ġal it
Ġal ive
Ġshe s
Ġshe ered
Ġsl ows
Ġsl athered
Ġsl ider
Ġsl icking
Ġsl iders
Ġsl ivered
ong ated
Ġas ia
Ġtheir s
Ġint act
Ġint ended
Ġsand les
Ġsand bags
Ġglass ed
Ġta iling
Ġta ping
Ġta pes
Ġta ps
Ġta iled
Ġta upe
Ġta wny
Ġtru dging
ull ing
Ġboat ers
Ġchair lif
Ġhand sh
Ġsc one
Ġsc ary
Ġsc run
Ġsc reaming
Ġsc anning
Ġsc antily
bo b
bo xes
Ġphoto shopped
ort ation
ort land
ort unity
Ġmo de
Ġmo cking
Ġmo sq
Ġve il
ast o
Ġund ers
Ġund ies
Ġbir ch
Ġyellow ish
Ġunder cl
Ġunder handed
Ġde g
Ġde w
Ġde ar
Ġde veloped
Ġde relict
cc or
Ġte as
Ġte aring
Ġte achers
Ġtre ss
Ġtre ks
Ġlit er
Ġsw ar
Ġsw ell
Ġsw ishing
Ġsw iping
Ġsw addled
Ġsp a
Ġsp ice
Ġsp ick
Ġsp ins
Ġsp elling
Ġsp here
Ġsp elled
Ġsp indly
Ġbrown ed
Ġbrown stone
ag en
Ġtruck load
Ġflo ra
ap el
ap ore
Ġfire pla
Ġfire pl
Ġfire hydrant
Ġcol og
Ġcol ander
Ġcol ours
Ġcol onial
Ġbun ting
Ġbun nies
Ġban king
Ġen clo
Ġen gra
Ġen for
ĠT om
ĠT ur
ĠT im
ĠT our
ĠT urn
ĠT OM
ĠT OU
ĠT ED
ĠT US
ĠT ok
ĠT ruck
ĠT een
ĠT OWN
ĠT rack
ĠT ank
ĠT aco
ĠT ransit
ĠT igers
ĠT riumph
ĠT aylor
Ġdi al
Ġdi als
Ġdi esel
Ġoff set
Ġoff erings
Ġcoun ty
Ġcow ork
Ġcour ses
Ġso ar
Ġso aker
Ġso ggy
qu a
qu erade
ore s
pla ying
Ġbr ind
Ġbr unch
Ġbr atwur
Ġbr unette
Ġbanan s
Ġshow case
ump led
Ġfen der
Se ated
Se ating
Se mi
Se asoned
ction ed
ly ph
Ġlot ions
if er
if ully
Ġrun n
Ġrun away
ĠW e
ĠW h
ĠW he
ĠW ars
ĠW ork
ĠW ED
ĠW omen
ĠW EAT
ĠW estern
ĠW atch
ĠW HERE
ĠW inter
ĠW illi
ĠW indows
ere s
IN A
IN ESS
ĠS O
ĠS am
ĠS ub
ĠS leep
ĠS chool
ĠS out
ĠS ET
ĠS ail
ĠS alt
ĠS UN
ĠS AY
ĠS PE
ĠS war
ĠS esame
ĠS igns
ĠS ETTING
ĠS mith
ĠS alvation
ĠS uper
Ġbi planes
Ġgo er
Ġdri er
Ġdri bbling
Ġdri zzle
Ġdri zzled
Ġapp ly
Ġapp rec
Ġpre c
Ġpre ac
Ġpre ced
Ġpre vious
Ġma che
Ġma uve
Ġhy br
Ġhy enas
Man ip
Man nequ
ang s
Ġpass ersby
Ġveget ated
Ġpie ced
Ġbird house
Ġsheep dog
Ġhead phone
Ġhead light
Ġhead rest
Ġhead shot
Ġche ss
Ġche ap
Ġche dd
Ġche vy
Ġche wed
Ġche etah
ped ition
Ġim med
Ġim mers
Ġim pr
Ġwomen s
Ġfe ces
Ġfe asting
the st
Ġday bed
ip se
ip urpose
Ġar ching
Ġar ctic
Ġref iger
Ġref ueled
Ġdirt bike
Ġsa un
Ġsa id
Ġsa ving
Ġsa iler
Ġsa wed
Ġbro iled
Ġbro thers
ace ful
Ġrest ara
Ġrest uarant
Ġrest urant
ĠF a
ĠF ro
ĠF all
ĠF il
ĠF ree
ĠF our
ĠF ac
ĠF RE
ĠF ire
ĠF ather
ĠF RA
ĠF IL
ĠF ront
ĠF OUR
ĠF irst
ĠF AC
ĠF ARM
ĠF ootball
kes pe
ick ed
Ġus b
ĠB ed
ĠB und
ĠB ull
ĠB ush
ĠB ears
ĠB uy
ĠB UT
ĠB ITE
ĠB rit
ĠB irds
ĠB UN
ĠB ern
ĠB oy
ĠB ILL
ĠB ORD
ĠB OOKS
ĠB oat
ĠB OOK
ĠB ohem
ĠO range
ĠO ranges
ark able
Ġplat ing
Ġground ed
Ġgraz ed
Ġtie ing
ĠC R
ĠC l
ĠC at
ĠC es
ĠC ab
ĠC oun
ĠC am
ĠC ell
ĠC ru
ĠC ABLE
ĠC AM
ĠC AP
ĠC AGE
ĠC RT
ĠC YCLE
ĠC orner
ĠC ont
ĠC ubs
ĠC GI
ĠC NN
ĠC PU
ĠC edar
Ġdr ill
Ġdr illing
Ġmet ered
Ġsun roof
Ġstation ery
HE S
HE AD
Ġha ze
Ġha phazard
Ġstuff s
Ġun w
Ġun ion
Ġun st
Ġun pl
Ġun att
Ġun covered
Ġun ison
Ġun happy
Ġun wrapped
Ġun painted
Ġun aware
Ġun kempt
Ġcl ue
Ġcl ipp
Ġcl imate
Ġcl icking
Ġcl inging
Ġcam cor
Ġcam els
Ġcam of
Ġpro ces
Ġpro ced
Ġpro ne
Ġpro ble
Ġslop ing
sing le
Ġbox er
Ġbox ers
Ġbox car
Ġbox cars
Ġcor k
Ġcor ch
Ġcor ks
Ġcor ded
Ġcor ned
Ġcor rected
ven s
Ġgu inea
Ġad jo
Ġad van
Ġad idas
rowd ed
are r
Ġlo u
Ġlo cking
Ġlo dged
Ġwine glasses
Ġem ail
Ġac orn
Ġac cept
Ġthem es
RE M
RE T
Ġkn own
Ġkn ive
Ġkn ows
Ġkn eep
Ġkn oll
Ġkn otted
Ġcamer aman
Ġsto len
Ġsto oping
Ġvari ation
ING S
Ġrem inisc
Ġrem arkable
Ġlong hor
Ġdoor step
Ġrid ges
Ġrefriger ation
th s
th at
ĠP D
ĠP U
ĠP er
ĠP ro
ĠP et
ĠP ap
ĠP ublic
ĠP ER
ĠP RA
ĠP ier
ĠP ost
ĠP laz
ĠP ole
ĠP anda
ĠP UL
ĠP UB
ĠP ANS
ĠP ROC
ĠP lease
ĠP ENG
ĠP onti
Ġcle verly
Ġtrick y
ries t
Ġser vers
Ġper using
Ġper haps
sh adow
Ġpast ram
Ġpast oral
Ġpap ay
Ġpink ish
Ġtrack ing
Ġme aning
Ġme ander
some ones
Ġcab ling
Ġwalk ign
Ġwalk ie
ans as
ans ive
form ation
Ġcur d
Ġcur io
Ġcur sive
Ġcur ios
Ġvideo s
Ġbre wing
Ġbre ath
Ġag ree
Ġag itated
ĠI D
ĠI F
ĠI phone
ĠI ron
ĠI BM
ĠI WTH
ĠI pod
Ġpit bull
Ġpain ed
Ġcabin s
pe cted
pe cially
ud i
ian ce
Ġbody board
Ġbody boarding
Ġmon tage
Ġhome y
Ġhome plate
Ġpe w
Ġpe gs
Ġpe ws
Ġpe cul
Ġpe can
Ġmeat y
Ġcan ister
Ġcan adian
Ġlin ole
Ġlady bug
Ġbar ny
Ġbar ley
Ġbar ns
Ġpol ish
Ġres ults
Ġres erv
Ġres pective
Ġlea ks
Ġlea ved
Ġfore closure
IT OR
Ġste ady
Ġshower head
Ġsleep ily
Ġjet ted
Ġinters ect
ĠTHE Y
Ġshel ve
Ġrunway s
Ġmouth ful
gra y
gra in
gra pes
Ġpur s
Ġpur posed
Ġpur plish
Ġrain co
ĠM C
ĠM P
ĠM a
ĠM il
ĠM ad
ĠM ay
ĠM IT
ĠM AR
ĠM OM
ĠM ON
ĠM IC
ĠM otor
ĠM ountain
ĠM US
ĠM obile
ĠM ACH
ĠM ont
ĠM ESS
Ġwhe ther
Ġmat t
oc racy
Ġsil k
Ġsil os
Ġrock ets
cl ipse
we aring
AN ING
Ġvehic ular
to ut
Ġpan es
Ġpan ning
iz abeth
Ġno zzle
Ġno ddles
Ġpost ure
Ġzoo keeper
ne cted
Ġsal uting
ĠL arge
ĠL AT
ĠL os
ĠL AD
ĠL UN
ĠL AKE
ĠL IF
ĠL INE
ĠL OOKS
ĠL atin
ĠL ouis
ĠL IMB
AT O
AT S
AT OR
Ġtub es
ĠON LY
ron a
ĠD C
ĠD J
ĠD r
ĠD en
ĠD ra
ĠD es
ĠD or
ĠD ell
ĠD ire
ĠD IG
ĠD AD
ĠD ew
ĠD od
ĠD ough
ĠD airy
ĠD UMP
ĠD rink
ĠD INING
ĠD uke
ĠD ublin
Ġam ish
Ġam ateur
Ġam ounts
Ġhair less
Ġgre ase
Ġgre asy
man icured
Ġpick led
ĠH D
ĠH a
ĠH er
ĠH at
ĠH ut
ĠH ome
ĠH ong
ĠH ort
ĠH og
ĠH AM
ĠH IM
ĠH ILL
ĠH OME
ĠH istoric
Ġpill s
Ġtri ke
Ġtri umph
Ġbran ched
Ġperform er
Ġex pect
Ġex ec
Ġex amples
Ġex ecutive
Ġex pedition
ĠG ood
ĠG room
ĠG ame
ĠG anes
ĠG AR
ĠG roup
ĠG od
ĠG rey
ĠG RAN
ĠG iant
ĠG oat
ĠG ROWING
ĠIN TER
ser v
Ġstri kes
Ġho g
Ġho ver
Ġho ist
ish a
ish ly
by e
Ġforest s
Ġgrey hound
ĠN e
ĠN ative
ĠN IC
ĠN YC
ĠN AVY
Ġcook books
Ġclean ly
Ġcomm on
Ġcomm em
Ġcomm odes
Ġshelf s
ER ING
Ġfem inine
Ġob ese
Ġlamp sh
Ġsqu ished
Ġsqu ints
Ġsqu arish
Ġmult ile
Ġmult icolor
Ġgr id
Ġgr il
Ġgr ates
Ġgr ung
Ġgr ater
Ġgr inder
Ġeng ulfed
LE T
Ġlay out
Ġfre she
oon s
Ġpath s
Ġapples auce
Ġpictures que
sp ortation
Ġfac et
Ġfac ades
Ġnot ice
ND ING
Ġtom b
Ġpen ne
Ġwork place
Ġwork out
AR K
AR ING
AR CH
RO N
RO NIC
Ġsub tit
Ġrol lers
Ġblanket ed
top ped
Ġpa wn
Ġpa ils
Ġpa ired
Ġpa used
Ġpa isley
Ġyard s
Ġsing er
Ġsing ular
Ġtv s
Ġcarri ers
Ġmar b
Ġmar garita
Ġmar gherita
Ġmar zip
ist an
Ġsho ved
Ġhotel s
Ġgar ban
Ġtr ue
Ġtr uly
Ġbut ts
Ġdraw bridge
Ġshort stop
Ġdinner ware
Ġfeat her
eep er
Ġtake away
ĠE arth
ĠE NTER
ĠE VERY
ĠE XTRA
Ġaf raid
Ġappl ying
Ġappl ied
ca uliflower
Ġspe ak
Ġspe ars
Ġspe ared
Ġland mar
Ġland mark
Ġey eball
Ġey ebrows
ming os
ject s
Ġwild flower
Ġfr ater
Ġfr illy
Ġfr antically
ĠST ONE
ĠST ILL
Ġdry s
Ġnew sc
Ġkind le
Ġleft overs
Ġneck ed
Ġneck ties
Ġarran ges
Ġsail board
Ġpad dled
Ġind ifferent
Ġpas enger
Ġequ ally
ĠCh amp
ĠR ome
ĠR ain
ĠR ice
ĠR em
ĠR ID
ĠR ode
ĠR ICE
ĠR ena
ĠR hode
Ġfo x
Ġfo als
Ġfo iled
Ġfly ers
Ġpedest als
mb one
mb les
mb rella
St ir
St one
St ation
St ore
St airs
Ġap r
Ġfoot age
Ġfoot long
Ġdu o
AL S
bb ed
bb led
Ġtarmac s
self ie
Ġqu ote
upp y
os cope
Ġbal ck
Ġwr ite
stru ctors
ram ic
Ġmess ily
Ġglo ved
out side
out door
Ġdev oid
Ġcream er
Ġright s
Ġbusiness men
Ġspoon ing
Ġhar ves
Ġhar ry
Ġhar vest
Ġdeser ved
Ġcover alls
Ġform ica
mas k
Ch ick
de o
Ġblen ded
ĠSt r
ĠSt ee
Ġear n
Ġear ring
ens ion
ens ely
Ġret ardant
sc ription
Ġget tign
Ġflag pole
Ġart ful
alm on
OR GE
vent h
ĠU N
ĠU mbrella
Ġtour s
Ġsoup s
Ġkne ck
Ġpool s
EN S
Ġcro quet
ET H
ual ity
og urt
Ġappro ached
ban ana
Ġcheck ers
Ġcheck out
IS SORS
mon s
Bo ston
Bo uquet
Ġpart icular
RA U
na uzer
ou ting
ou rage
ĠV er
ĠV AS
ĠV itam
ĠV ARIET
ĠV enice
Ġtur ret
Ġcra bs
Ġcra ggy
Ġsmo ggy
Ġreflection s
Ġdel ight
Ġprop er
Ġdisc o
ON ES
Sk i
Sk iing
Sk iier
act ors
co ck
co la
co ach
co uple
co ffee
Ġchop stick
fe male
fe eder
Ġmag enta
urf ers
ĠK N
ĠK ite
ĠK ris
ĠK ong
ĠK EY
ĠK orean
ĠK LM
ĠK ansas
Ġopp ortunity
Ġfish net
Clo cks
Clo uds
Ġevent ually
Ġcompet itor
Ġhard ware
Ġeg rets
Ġkick ed
Ġcr ink
Ġcr umpled
Ġneat h
Ġvis ion
Ġbottom s
Ġcirc led
Ġfash ions
Ġprod uc
Ġlawn chair
Ġflock ed
Ġroof s
Ġroof ed
Ġtype writ
Ġwinter y
Ġut ter
Ġanti qu
Ġfol k
Ġcla ms
Ġrider less
Ġent ourage
Ġacc ording
Ġport ray
Ġport hole
Ġport raits
Ġmas querade
Ġblow drying
Ġext end
Ġext ension
ĠTH ROWING
bs on
ps on
Ġinter face
Ġindo lent
Ġlid ded
hel l
Ġhapp ens
Ġhapp ening
Ġtw irl
Ġtw ine
Ġstr uggling
Ġstr ategy
Ġsmal lest
ĠMAN Y
Street lamps
ĠJ ones
ĠJ eep
ĠJ apan
ĠJ ohn
ĠJ eff
Ġdoll op
Ġdoll ars
Ġi in
Ġi ronic
Ġi wth
Ġsupp osed
Ġsupp lied
Ġnet ted
Ġnet work
Ġnet book
Ġstru ck
IC ING
IC ES
OU S
Ġdep ression
Ġsprink ler
Ġfur red
Ġfur thest
laz oned
Ġsweat ing
Ġsport y
Ġsport sc
OO L
OO SE
ib les
ib ious
ib ility
pl istic
Ġtoast s
Ġtoast ers
rop riate
Ġgood bye
Ġsculpt ed
IG ER
Ġliqu ids
Ġexp o
Ġexp ansive
Ġab uilding
Ġwar n
Ġwar ri
Ġwar ped
Ġstra ins
Ġstra ps
Ġpier ces
Ġpier ced
Ġjo ck
Ġjo king
Ġjo ining
Ġjo inted
Ġjo hns
Ġsheet ed
lies t
ath y
SE LF
SE CTION
Ġcap ital
Ġcap itol
gan ic
Ġje an
TH DAY
Ġmed als
Ġmed allion
Ġgroom s
Ġchar ity
Ġchar ged
Ġhall ways
Ġow ls
Ġbare back
Ġbare foo
Ġcub es
Ġcub ed
Ġfin ch
Ġcond om
ĠAT OP
Ġdoorway s
Ġshoe lace
Ġleaf ed
ivid ually
Sheep s
shirt ed
.. .
Ġeld ers
ĠPE AKING
Ġbutter nut
In structors
Ġpupp et
Ġfree zing
Ġtool box
Ġclimb ed
Ġsim ulator
Ġsim plistic
Ġpersonal ized
Ġeye ing
Ġduck ing
Surf ing
Ġ2 4
Ġ2 9
Ġcre sting
Ġcre ature
Ġcre sted
Ġcre scent
Ġcre atively
Ġcre atures
Ġsem ic
Ġinf lu
Ġstar ted
Ġstar tled
ster ious
Motor ized
Ġfast ening
Ġmicro sc
Ġ1 3
ĠY ak
ĠY ield
ĠY orks
Ġwaters ide
Ġgl ances
Ġgl iders
Ġgl isten
Ġgl impse
Ġcoll ide
Ġcorn field
Ġcorn bread
Ġpower ful
Ġpres umably
Ġobser vation
He ard
He avy
He avily
Ġparas urfer
bur g
bur y
Ġpor ter
Ġcas ing
Ġcas ting
Ġcas hews
Ġgent ly
Ġconf ident
Ġconf using
ĠBO X
Ġspeed ily
AD S
ĠAmer ica
Ġarch ways
Ġ3 1
Ġ3 2
Ġ3 5
Ġ3 50
Ġdig s
dd en
ĠRE AR
ĠRE ALLY
ĠRE TURN
ĠRE ADS
Ġlife less
Ġaut hentic
Ġmotion less
Ġbul ky
Ġbul dings
Ġfil ms
Ġfil ters
Ġfil tering
ĠWH O
ĠWH AT
Ġcere als
Ġang led
Ġang els
Ġfountain s
Ġrub bish
Ġindic ated
Ġindic ator
Ġindic ators
Ġfocus ing
Ġfocus es
Snow boards
Ġstee red
Do ck
wood en
Ġsad ly
Ġconvers e
Ġconvers ations
Ġprin ting
Ġprin ce
Ġtrolley s
Ġstage coach
US HING
Ġic on
Ġic eber
ront o
Ġdump ing
Ġdump lings
ĠTABLE S
UR RED
Ġlear ns
Ġentertain ing
Ġass emble
Ġwarm er
Ġwarm ed
Ġlab s
Ġlab rador
Ġskirt s
Ġattempt ed
FF IT
com m
Ġtin ted
Ġbra ve
Ġbra ckets
Ġple xig
Ġstir fry
Ġvol leying
On ly
Ġpop s
Ġpop ping
Ġpop py
Ġval ves
Ġprocess ed
ĠPIC NIC
Ġwings pan
Ġread ying
Ġshadow ed
Ġsaf ely
Ro ck
Ro ast
Ro ses
Ro deo
Ġav atar
Ġpri me
Ġpri zes
Ġcob alt
ĠAN OTHER
Ġintere st
ĠTRA Y
ĠTRA CK
Ġprote in
Ġprote cts
Ġprote ctor
Ġenjoy able
Co uches
ora do
Ġsus an
Ġsus picious
Ġmom s
Ġthan k
Ġsha w
Ġsha pped
Ġscar cely
ĠBAT H
Be er
Be et
Be hind
Ġband aged
Ġband anas
Ġdot ting
Ġrose mary
ĠBA S
Ġgri p
Ġgri ff
Ġgri my
Ġgri mac
Ġreach iing
ĠWI RES
Ġload er
Ġfab ulous
ĠPAR T
ĠPAR TY
ĠPAR ASA
Ġgrand stand
Ġgrand ma
Ġgrand mother
Ġmask ed
Ġdepic t
IGH TING
Ġel k
Ġel bows
Ġel ongated
Ġsle w
Ġsle ds
Ġfa iling
Ġfa ux
Ġtor to
Ġunus ually
AS H
Sh iny
Sh rimp
Sh adows
Ġlink s
ROUND ED
Ġillumin ating
VER TIS
Ġoper ation
Ġskin ning
Ġcare ful
Ġarri ved
ĠBen ch
Ġmusic ian
hand led
Ġsla bs
Ġlis ted
Ġthumb na
Ġdro oping
Ġbackyard s
ĠCH ICK
ĠCH INA
Ġproject s
ring es
labor ately
Ġrec ycling
Ġsoap y
ĠSN ACKS
aw k
Ġtalk ie
Ġhi kers
Ġge isha
Ġgoo fing
ĠCAR GO
Ġlob sters
Ġserv ices
Ġbarrel ing
Ġtrim ming
Air port
Don ut
Ġbats man
Ġappear ance
ĠGRA IN
ĠGRA FFIT
ĠEng ine
Car toon
Ġbill s
Ġbill ows
Ġlim o
Ġrecl ined
Ġkay aker
ific ation
ĠWAT ERS
Ġpens ive
Ġpens ively
ĠSNOW Y
rat ulated
Ġident ically
Ġident ifying
Ġident ification
Ġcher ub
Ġrece iver
Ġrece ived
Ġmonkey s
ĠUP S
Ġinspe cted
IV ES
IV ATE
port rait
Ġtux es
Ġmane qu
Ġbegin ner
Sc ooter
Sc ooters
Sc ene
sa ils
Ġany one
Ġany where
Ġany thing
Ġmov able
Ġdec ent
Ġdec ides
Ġdec rep
Ġdef ace
Ġdiv iding
Ġmeas ures
ANT S
Ġexam ined
Ġ5 5
Ġfat ty
Ġgreet s
Ġgreet ed
Ġatten dees
Ġrecor der
Ġring ed
Ġhelicop ters
BO Y
ST OP
ST REET
ST RU
Un ion
Un used
af y
ex posure
green ville
Ġes press
Ġes pecially
Ġbad ly
Ġmin ion
Ġmin isk
Ġrob otic
Ġsnugg le
INK ED
ĠCLO SED
close up
Ġexc elle
scra per
Ġfashion able
City scape
Open ed
Ġid ling
Ġid iot
Ġtro mbone
Ġpay s
Ġtrave led
ĠSH OP
ĠSH OT
ĠSIDE WAY
Ġwheelchair s
Ġexpress ions
Ġdam age
Ġdam ask
Ġstump y
Ġrabb its
Ġhear th
Ġcompan ies
ĠAf ghan
Ġcolle cted
ĠTEN T
IM MING
ipp et
sk is
sk ateboard
Ġstre er
Ġstre aks
Ġunlo ads
Ġemb lazoned
ROW AVE
Ġsubur b
Ġsubur bs
Ġkettle s
Mo ving
pris ed
Ġbump ers
Ġhip sters
Ġcaution ary
Ġfloat ation
Ġretrie ves
Ġextra vag
Comm uters
Par as
Par ts
Par asa
mel on
Ġ6 0
Ġ6 5
Ġcloud ed
Ġjunk y
Ġvisit or
Ġautom ated
Ġautom atic
Toilet s
Bl urred
rid den
ĠTh rough
ĠRO CK
ĠRO CKS
ĠRO OF
Ġble ed
Ġble ak
ern ational
Ġfit ting
Ġcock atoo
Ġru ins
Ġjam s
ĠSUR ROUNDED
Ġgour d
Ġgour ds
ĠBIR THDAY
Ġkno cking
Ġcontra sting
ĠNE CK
Ġbloom s
Ġbloom ed
ĠTRAIN S
ĠTRAIN ING
Laptop s
CT IVE
CT ICING
Tour ist
Ġaler ts
Ġsol ider
Ġwon tons
Ġpon dering
Ġinform ational
Ġhun ter
Ġhun ts
Ġhun ching
Ġgall ops
Ġreve aled
Ġcong ratulated
Ġwallp apered
Ġtemp ting
ĠTR UN
ĠTR ICKS
ĠFOOD S
ĠBL T
ĠLe gos
Ġbelong s
Ġinteract s
ĠAn d
ĠAn geles
Ġcent re
Ġrod ents
Ġtreat ment
Ġsour dough
ĠCo ast
ĠCAT CHER
Ġfriz be
Ġoccup ants
BOARD ER
Ġmajor ity
ĠSURF ACE
AIR PLANE
Cl usters
Cl othing
Fem ales
Le aves
Le afy
Ġsled ding
Ġcrow ed
Ġrele ase
Ġjeep s
Ġmarsh mallow
Ġoutfield er
Ġ19 30
Ġdescri ptions
Ġdemonstr ates
Ex p
Tra ve
Tra ms
Tra ditional
Ġbrow se
Ġbrow ses
Ġbrow ser
Ġped ist
Ġped als
Ġped aling
Ġmer maid
Ġhom er
Ġrel ief
Ġki osk
amed ics
Ġrim med
Ġblind ers
Ġran ks
ĠAP RON
Ġbrid led
Ġappetiz ing
Ġbron co
ĠBR USH
Ġprom otes
Ġprom otional
ĠPO LE
ĠPO SE
Ġresid ents
Ġresid ences
ĠDES ER
ĠDES IGN
Ġamer ica
Ġwrest les
Con nor
Fire fight
Wh ole
Ġer ror
Ġovers ize
Ġovers hadow
Ġbor ne
Ġdrain ing
Ġgown s
Ġboun t
Ġboun ce
Ġboun ces
Ġboun cy
Photo s
Photo shopped
Ġexpression less
BE AUTIFUL
De ad
pie ces
Ġsat chel
Ġinstru cts
Ġanim as
Ġlun ge
olog y
olog ical
olog na
Ġsnap s
ĠAm ish
play ers
ĠWay land
ĠSL ICES
Ġmac ro
ĠFR IES
ĠBEN CHES
Ġgarnish ment
Ġgarnish ments
Ġesc ape
Ġembra ces
New sp
Or ganic
ien cy
Ġtul ip
Ġcraw ls
Ġskull s
Ġgrow ling
Ġasc end
Ġmoon light
ĠSE A
ĠSE E
ĠChe ese
Ġcord oned
ĠPres ents
ĠPres idio
estri ans
ĠMar iners
ĠMOU SE
Ġcommun al
Ġpropell ors
Ġtechn ical
Ġtechn iques
Ġwonder ing
Ġscrub by
Ġsuper hero
Br ush
Des ert
Te ams
Water melon
Ġtar get
Ġtar ts
Ġsund ries
Ġsigh n
Ġpal let
Ġpant y
Ġpep eroni
Ġmiss les
Ġmiss iles
Ġdalm ation
alo upe
Ġnes tles
Ġrese mbles
Ġsear ches
Ġspark les
Ġspark lers
Ġbrand ed
ĠPar is
ĠPar ty
Ġmechan ic
Ġfora ges
Ġcrest s
Ġarchitect urally
ĠCOMP ET
ĠSKATEBOARD S
ĠSKATEBOARD ER
Ġgener al
Ġgener ators
Bre aded
Cle ar
Int ersection
Past ries
Side walk
Tw p
Tw elve
Up ward
war ts
Ġsquee ze
Ġwoo ding
Ġfu eling
Ġdun king
Ġga u
Ġlam inate
Ġrig ging
Ġforce fully
Ġpreser ver
Ġpreser ves
ĠBe agle
Ġemer ging
ĠSTU NT
Chicken s
ĠiP ads
Ġhandleb ar
ĠPLAY ERS
Ġneedle point
Ġtroph ies
Ġlength wise
Ar t
Ar my
Mult icolored
Part ial
Wild life
post er
Ġtack le
Ġomelet te
Ġsan itiz
Ġsan ctuary
Ġsan ctioned
Ġsid eline
Ġpeop e
Ġhook ah
Ġstrain ing
Ġeight een
Ġvar ieg
Ġvent uring
Ġjud ged
Ġswirl s
Ġcolum ned
ĠTA HT
ĠTE ETH
ĠSW IMMING
ĠSh ow
ĠBar c
ĠBar ack
ĠBar bie
ĠPh one
ĠPh ilad
Ġpatrol s
Ġcann on
ĠDE AD
ĠDR IV
ĠDR IVING
ĠHIGH WAY
Ġpleas ure
Ġrecre ation
Fl ip
Fl oral
Pie ce
Teen age
ĠSe at
ĠSe venth
Ġburn s
Ġwi ped
Ġwi imote
Ġdang led
Ġmanual s
Ġflash light
Ġless ons
ĠSAND Y
ĠCol lege
Ġunb rellas
Ġknick knacks
Ġbarb ie
Ġbarb ershop
Ġamaz on
ĠHOT EL
Ġstyl us
RAW LERS
Ġcertain ly
Ġinvol ves
EG LASSES
Gra pes
Gra pefruit
Umb rella
Ġ9 5
Ġiv ory
Ġtusk ed
Ġcant aloupe
Ġmy sterious
Ġmur dered
Ġstate ment
Ġmanic ure
Ġven der
Ġflan king
Ġenvel opes
ĠSC ISSORS
Ġappe aling
ĠCAN AD
ĠCOL ORED
ĠPA CK
Ġarmchair s
ORT S
Ġutil ities
Ġutil izes
Ġjew els
Ġillustr ated
Ġcollect ibles
Ġgiraf es
Jet liner
Mother s
Sp otted
for ced
Ġpud dles
Ġcul ture
Ġcul minating
Ġfis herman
Ġhoo ding
Ġhoo la
Ġgor geous
Ġgla res
Ġlas er
Ġsnoo zes
Ġsnowmobile s
ksw agen
Ġash ore
Ġhandra ils
Ġspraw ls
ĠSk iier
Ġbrocc olini
ĠOLD ER
ĠCON VERS
ĠCON TRO
Ġclip board
Ġsteal th
Ġnovel ty
Ġexerc ises
ĠMOTORCYCLE S
Ġ201 1
Ġ201 3
Electronic s
Ġantenna e
ĠFLOOR S
Ġacrobat ics
AG ON
Bot tle
Pot atoes
Pot ato
Pack ed
dri ving
dri ven
surf er
surf ers
Ġu kule
inter ior
Ġslo gan
Ġbru ises
Ġpeb ble
Ġfet ch
Ġfet ching
etti a
Ġskew er
Ġere ct
Ġbound ed
Ġbound ary
Ġdisg u
Ġdisg ust
ĠFE W
ĠFE ET
ĠCar go
Ġuncom fort
Ġclim ber
Ġaddress ing
ĠPlay ers
ĠPlay station
ĠPlay Station
ĠMcDon alds
ĠHAND S
ĠEl izabeth
Ġexplo re
Ġexplo res
Ġabund ant
Ġadjust able
ĠPOS ITION
Ġdangerous ly
Ġeffect s
Ġmanufact uring
Ath let
Bas ket
Can oes
Rain y
Wind ows
giraff e
link ed
snow boarders
Ġamp le
Ġtast efully
Ġsom ber
Ġsom melier
Ġinn oc
Ġmal let
Ġding ing
Ġghost ly
Ġni bbles
Ġnecess ities
Ġwhis tle
Ġske wered
Ġkim onos
Ġgrace ful
Ġsnowsh oeing
Ġbust ling
Ġsignpost s
Ġoverh anging
Ġzomb ies
Ġconven ience
Ġconven ient
Ġconven iently
ĠAl ley
Ġscall ops
Ġscri bbled
Ġspider man
Ġsponge bob
ĠSA YING
ĠBl vd
ĠOn ly
Ġclump s
Ġcontin ental
Ġperipher als
Ġmex ico
ĠMich ael
Ġpanoram a
ĠHigh way
ĠGi bson
Ġmilks hake
ĠEN JO
ĠRAM S
Stud ent
Ġfootp rints
Ġcrock ery
Boat ers
ĠVol kswagen
ĠVEG ETABLE
Ġturb ines
Ġturb ulent
Ġsmokes t
Ġjoy ous
Compet itive
Ġassist ance
Ġwound ed
Ġparasailer s
ĠAPP EARS
Ġzoom ing
ĠCABIN ET
ĠCABIN ETS
Ġjalapen o
Aut o
Aut omobile
Abo ve
Bag s
Bag gage
Down hill
Down town
Over head
Odd ly
Rail road
Sw im
Ser ving
Sleep y
Tooth brushes
Ġast roturf
Ġsut i
Ġwid ow
Ġwid th
lee ve
lee ks
Ġgel ato
Ġgel atin
Ġshield s
Ġchunk y
Ġbattle ship
Ġsno oping
Ġtender ly
Ġbuoy s
Ġjous ting
Ġjous ter
Ġarts y
ĠOak land
ĠCa ucasian
ĠCon vention
ĠCELL PHONE
Ġsunbat he
Ġsunbat hing
ĠPhill y
Ġhighlight ed
ĠMA LE
ĠMot el
ĠLa ptop
ĠHY R
ĠHor se
ĠHol iday
ĠGu ide
ĠGu inness
ĠGreen wich
ĠGrand father
ĠEX ACT
Ġlandsc aped
ĠSTRAW BERRIES
Ġterra ce
Ġaccord ian
Ġjoint ly
Advert isement
Ġorganiz er
Ġinstit ution
ĠREST RAU
Ġbrim med
URN ED
Ġprior ity
Ġgoog les
Ġgoog ly
Ġinvestig ates
ĠSUIT CASE
Ġadmire s
ĠSWING ING
ĠPhoto graph
ĠPhoto shop
Ġcylind ers
Ġannoun cing
Ġpebb les
Ġrepresent ative
BL URRED
BUS Y
Cr ates
Eng ine
Eng lish
Fam ous
Fam ilies
Grand father
Port rait
Spe cial
Shel f
Shel ves
Tran sportation
WH ite
WH ITE
ben ches
wh ile
Ġti ara
Ġod ds
Ġsed u
Ġsed an
Ġwint ers
Ġwint ry
Ġcopy right
Ġinser ted
Ġfoo ted
Ġhig her
Ġhig hest
Ġsta ying
onne cted
Ġmandar in
Ġmandar ins
laim ing
Ġneg ative
Ġneg atives
Ġtho rough
Ġtho ught
Ġskim ming
Ġev ents
Ġparag l
Ġparag liding
Ġsmir k
Ġchoo sing
Ġupd ating
Ġcloses t
Ġsurg ery
Ġruff le
Ġsele cting
Ġsele ctor
Ġdisapp ointed
Ġdisapp roving
Ġdisemb ark
Ġdisemb arking
ĠAM ONG
Ġspl its
Ġspl attered
Ġener get
Ġener gy
ĠTo ronto
ĠTw ins
ĠSing apore
ĠSER VING
Ġhydr ation
Ġarc ade
ĠFer ris
ĠBLE NDER
ĠBLE ACHER
ĠPAL M
ĠIs land
ĠInt ernational
ĠMas ai
ĠHy de
Ġobsc ured
Ġfreest anding
Ġfreest yle
Ġtrink et
Ġtrink ets
ĠED GE
ĠEY E
ĠEY EGLASSES
ĠRail road
ĠREM OTE
ĠREM OD
ĠRES ID
Ġwreck age
Ġcongratul ating
Ġcongratul ations
Ġcitiz en
Ġcitiz ens
Ġdomin ates
Ġcommunic ate
ĠRAIL S
ĠRAIL ROAD
ĠCOLOR FUL
Ġoutcro pping
ĠAtl anta
ĠAtl antic
ĠCLOU DY
ĠCLOU DS
Ġmanufacture rs
ĠCHECK ING
ĠCHECK ERED
ĠENCLOS ED
ĠENCLOS URE
ĠBICYCLE S
ĠCROWD ED
ĠAPPLIAN CES
Af rican
Cong ratul
Del icious
Day time
Dire ctional
Ent rance
Fre ight
Fis hermen
Gold en
Hol stein
HIC LE
Mar ble
Main tenance
Neat ly
Rust ic
SM ALL
Sal ad
Sur prised
Sty lized
Tax i
Vend ors
Wat ching
Wed ge
Waff le
bl urred
fla kes
hi king
kit chen
mic rowave
osit ion
tw p
Ġide a
Ġtas ks
Ġtart ar
Ġsugg est
Ġbellow ing
Ġpred ators
Ġci abatt
Ġcors age
Ġinse ct
Ġantle rs
Ġfold ers
Ġmim ic
Ġdwar fed
Ġthous ands
Ġska eboard
Ġreco very
Ġcosmet ics
Ġrom antic
Ġtraff icked
Ġtramp oline
Ġves pa
Ġvirt ual
Ġvict ory
Ġvigorous ly
Ġken nel
Ġshamp oo
Ġgrave yard
Ġcater pill
Ġflot ation
Ġrivers ide
Ġsurvey s
stain ed
Ġsew er
Ġween ies
Ġcaut ious
Ġcalen dar
Ġconve x
Ġconce aled
Ġcompon ent
Ġcompris ed
Ġumbe rellas
Ġmotorcy les
ĠAB OUT
ĠAD VERTIS
Ġintrig ued
Ġscare crow
Ġmout ain
Ġdecl ine
Ġswit ching
Ġsprig s
Ġenc ircling
Ġenh ances
ĠTar get
ĠTOW ELS
ĠTELL ING
ĠSim pson
ĠSIZ E
Ġapplic ation
Ġfear less
Ġhitch hiking
Ġbroch ures
ĠBRE AK
ĠBud d
ĠBOT TLE
ĠBanan as
ĠBROC COL
ĠOre o
ĠCas tle
ĠCAL F
ĠCUR TAIN
ĠCAG ES
ĠCorpor ate
Ġunz ipped
Ġunic orn
Ġclin ic
Ġprohib itory
Ġhatch back
ĠPR IVATE
ĠPRO PP
ĠPILL OWS
Ġclement ine
Ġallig ator
Ġreser ve
Ġattract s
ĠMN A
ĠLE ANING
ĠDep ot
ĠDalm atian
ĠDUR ING
Ġamph ibious
ĠHil ton
ĠGra s
Ġsquad ron
Ġmultit asking
Ġdistin ct
Ġtrump et
ĠEle ven
ĠEAT EN
ĠSTEP S
ĠChild ren
Ġfoi lage
Star bucks
Ġquant ity
Ġartif act
ĠUR N
ĠVE HICLE
ĠValent ines
Ġdelic ous
Ġdeplo yed
Ġjewe lery
Ġcalz one
Bushel s
oeuv res
Ġassoc iated
Ġvolunte er
Ġcrucif ix
Ġinsign ia
Sculpt ures
Ġdefin itely
Ġdefend ers
Ġtroop er
ĠCOMM UTER
Ġbarbec uing
Ġtechnic ians
ĠNEW SP
Clown s
ĠELECT RONIC
ĠTELE VIS
ĠDECOR ATED
Ġunbut toned
Ġninet een
ĠVEGG IES
ĠREFLE CTIVE
ĠDani els
Ġfasc inating
ĠScott ish
Ġdeterm ined
Protest ers
Ġabsol utely
Ġpamph let
ĠDOUGHN UT
Ab andoned
Aler t
Asp aragus
Amer ican
Bey ond
Cit rus
Dam aged
Emp loyees
Fe et
Fle et
Ge ese
Gri zzly
Ing redients
Lad ies
Mush rooms
Ob jects
OFF ICE
Por celain
Pig s
Pick up
Pano ramic
Roll s
Rhin os
Stain less
Somet imes
SOME ONE
Tort illa
Tag ged
Und erside
Wor king
bet ween
fred o
fram e
hous es
iy aki
langu age
spe ed
shel ves
Ġig loo
Ġign ore
Ġidy llic
Ġalo ft
Ġaver age
Ġaux iliary
innes ota
Ġopa que
Ġsage brush
Ġsif ter
Ġsust enance
Ġsixt een
Ġsomb rero
Ġwad dling
Ġwren ches
Ġpes on
Ġprick ly
Ġpalle ts
Ġpelle ts
animal s
Ġcil antro
Ġcrick et
erpris e
Ġinvis ible
Ġinapp ropriate
Ġincle ment
roso ft
Ġanno yed
Ġfid dling
Ġfirl d
Ġfuse lage
Ġdum mies
Ġdran k
Ġgild ed
Ġgana che
Ġlugg ages
Ġloll ip
omers et
Ġstilet to
Ġsteth oscope
Ġstrang ely
chiev ous
Ġsitti ing
Ġnect arine
Ġneighbor ing
elph ia
Ġwhizz es
Ġatmo sphere
Ġbewild ered
Ġreub en
Ġrepla ced
Ġrena issance
Ġcousc ous
Ġeffic iency
Ġvist a
Ġviny l
Ġvod ka
Ġlacross e
Ġcham ber
Ġcathol ic
Ġupgra ded
Ġuplif ted
Ġcarav an
Ġforgot ten
Ġpoins ettia
Ġjour nal
Ġzipp ered
Ġcacoph ony
Ġcompos ting
ĠAmb ulance
ĠAbra ham
Ġchairlif ts
Ġhandsh ake
Ġscrun ched
Ġmode m
Ġundercl othes
Ġspick et
Ġfirepla ces
Ġfirepl ug
Ġcolog ne
Ġenclo sing
Ġenfor cement
ĠTOM ATO
ĠTED DY
ĠTUS KS
ĠTok yo
Ġbratwur st
ĠWED DING
ĠWEAT HER
ĠWatch men
ĠWilli ams
ĠSail ors
ĠSAY S
Ġpreac her
Ġpreced ed
Ġhybr id
Manip ulated
Mannequ ins
Ġchedd ar
Ġimmed iate
Ġimmers ed
Ġrefiger ator
Ġrestara unt
ĠFac ebook
ĠFRA ME
ĠFIL LED
ĠFAC ING
kespe are
ĠBrit ain
ĠBern ard
ĠBORD ER
ĠBohem ian
ĠCont inental
Ġhaphazard ly
Ġunpl ugged
Ġclipp ings
Ġcamcor der
Ġcamof lauge
Ġproces sing
Ġproced ure
Ġadjo ining
Ġadvan ced
Ġkneep ads
Ġreminisc ent
Ġlonghor ns
ĠPER CHED
ĠPRA CTICING
ĠPlaz a
ĠPUL LED
ĠPUB LIC
ĠPROC ESS
ĠPENG UIN
ĠPonti ac
Ġpastram i
Ġcurios ity
Ġpecul iar
Ġlinole um
Ġbarny ard
Ġreserv oir
Ġintersect s
Ġrainco ats
ĠMON ITOR
ĠMIC ROWAVE
ĠMotor cycles
ĠMESS Y
ĠLAD IES
ĠLUN CH
ĠDIG ITAL
ĠDod gers
ĠDough nut
ĠHog warts
Ġexec uting
ĠGAR AGE
ĠGod zilla
ĠGRAN ITE
ĠINTER SECTION
ĠNIC ELY
Ġgrung y
Ġsubtit les
Ġmarzip an
Ġgarban zo
Ġlandmar ks
Ġfrater nity
Ġnewsc ast
ĠRID ERS
ĠRode o
ĠRena issance
ĠVAS ES
Ġproduc ing
Ġtypewrit er
Ġportray s
Ġindolent ly
Ġbarefoo ted
Ġinflu enced
ĠYorks hire
Ġplexig lass
Ġgrimac ing
ĠPARASA ILING
Ġdecrep it
Ġespress o
Ġminisk irt
Ġexcelle nt
ĠSIDEWAY S
Parasa iling
Firefight ers
Ġvarieg ated
ĠPhilad elphia
ĠCONTRO L
Ġukule le
Ġuncomfort able
ĠENJO YING
ĠVEGETABLE S
Automobile s
ĠBLEACHER S
Ġciabatt a
Ġcaterpill ar
ĠPROPP ED
