{"<s>":0,"<pad>":1,"</s>":2,"<unk>":3,"<mask>":4,"<CTRL:bicycle>":5,"<CTRL:vehicle>":6,"<CTRL:clock>":7,"<CTRL:indoor>":8,"<CTRL:cup>":9,"<CTRL:kitchen>":10,"<CTRL:sink>":11,"<CTRL:appliance>":12,"<CTRL:vase>":13,"<CTRL:car>":14,"<CTRL:motorcycle>":15,"<CTRL:person>":16,"<CTRL:bench>":17,"<CTRL:outdoor>":18,"<CTRL:airplane>":19,"<CTRL:bottle>":20,"<CTRL:toilet>":21,"<CTRL:furniture>":22,"<CTRL:potted_plant>":23,"<CTRL:toothbrush>":24,"<CTRL:refrigerator>":25,"<CTRL:oven>":26,"<CTRL:apple>":27,"<CTRL:food>":28,"<CTRL:banana>":29,"<CTRL:surfboard>":30,"<CTRL:sports>":31,"<CTRL:bowl>":32,"<CTRL:spoon>":33,"<CTRL:traffic_light>":34,"<CTRL:cat>":35,"<CTRL:animal>":36,"<CTRL:cow>":37,"<CTRL:handbag>":38,"<CTRL:accessory>":39,"<CTRL:umbrella>":40,"<CTRL:book>":41,"<CTRL:skateboard>":42,"<CTRL:horse>":43,"<CTRL:cake>":44,"<CTRL:donut>":45,"<CTRL:chair>":46,"<CTRL:cell_phone>":47,"<CTRL:electronic>":48,"<CTRL:laptop>":49,"<CTRL:mouse>":50,"<CTRL:tv>":51,"<CTRL:dog>":52,"<CTRL:knife>":53,"<CTRL:orange>":54,"<CTRL:microwave>":55,"<CTRL:backpack>":56,"<CTRL:bus>":57,"<CTRL:dining_table>":58,"<CTRL:truck>":59,"<CTRL:bird>":60,"<CTRL:giraffe>":61,"<CTRL:suitcase>":62,"<CTRL:boat>":63,"<CTRL:skis>":64,"<CTRL:fire_hydrant>":65,"<CTRL:toaster>":66,"<CTRL:wine_glass>":67,"<CTRL:sheep>":68,"<CTRL:remote>":69,"<CTRL:scissors>":70,"<CTRL:tie>":71,"<CTRL:kite>":72,"<CTRL:broccoli>":73,"<CTRL:stop_sign>":74,"<CTRL:teddy_bear>":75,"<CTRL:fork>":76,"<CTRL:keyboard>":77,"<CTRL:elephant>":78,"<CTRL:carrot>":79,"<CTRL:parking_meter>":80,"<CTRL:snowboard>":81,"<CTRL:pizza>":82,"<CTRL:baseball_glove>":83,"<CTRL:frisbee>":84,"<CTRL:train>":85,"<CTRL:couch>":86,"<CTRL:zebra>":87,"<CTRL:hair_drier>":88,"<CTRL:bed>":89,"<CTRL:sandwich>":90,"<CTRL:baseball_bat>":91,"<CTRL:sports_ball>":92,"<CTRL:hot_dog>":93,"<CTRL:tennis_racket>":94,"<CTRL:bear>":95,"!":96,"\"":97,"#":98,"$":99,"%":100,"&":101,"'":102,"(":103,")":104,"*":105,"+":106,",":107,"-":108,".":109,"/":110,"0":111,"1":112,"2":113,"3":114,"4":115,"5":116,"6":117,"7":118,"8":119,"9":120,":":121,";":122,"<":123,"=":124,">":125,"?":126,"@":127,"A":128,"B":129,"C":130,"D":131,"E":132,"F":133,"G":134,"H":135,"I":136,"J":137,"K":138,"L":139,"M":140,"N":141,"O":142,"P":143,"Q":144,"R":145,"S":146,"T":147,"U":148,"V":149,"W":150,"X":151,"Y":152,"Z":153,"[":154,"\\":155,"]":156,"^":157,"_":158,"`":159,"a":160,"b":161,"c":162,"d":163,"e":164,"f":165,"g":166,"h":167,"i":168,"j":169,"k":170,"l":171,"m":172,"n":173,"o":174,"p":175,"q":176,"r":177,"s":178,"t":179,"u":180,"v":181,"w":182,"x":183,"y":184,"z":185,"{":186,"|":187,"}":188,"~":189,"¡":190,"¢":191,"£":192,"¤":193,"¥":194,"¦":195,"§":196,"¨":197,"©":198,"ª":199,"«":200,"¬":201,"®":202,"¯":203,"°":204,"±":205,"²":206,"³":207,"´":208,"µ":209,"¶":210,"·":211,"¸":212,"¹":213,"º":214,"»":215,"¼":216,"½":217,"¾":218,"¿":219,"À":220,"Á":221,"Â":222,"Ã":223,"Ä":224,"Å":225,"Æ":226,"Ç":227,"È":228,"É":229,"Ê":230,"Ë":231,"Ì":232,"Í":233,"Î":234,"Ï":235,"Ð":236,"Ñ":237,"Ò":238,"Ó":239,"Ô":240,"Õ":241,"Ö":242,"×":243,"Ø":244,"Ù":245,"Ú":246,"Û":247,"Ü":248,"Ý":249,"Þ":250,"ß":251,"à":252,"á":253,"â":254,"ã":255,"ä":256,"å":257,"æ":258,"ç":259,"è":260,"é":261,"ê":262,"ë":263,"ì":264,"í":265,"î":266,"ï":267,"ð":268,"ñ":269,"ò":270,"ó":271,"ô":272,"õ":273,"ö":274,"÷":275,"ø":276,"ù":277,"ú":278,"û":279,"ü":280,"ý":281,"þ":282,"ÿ":283,"Ā":284,"ā":285,"Ă":286,"ă":287,"Ą":288,"ą":289,"Ć":290,"ć":291,"Ĉ":292,"ĉ":293,"Ċ":294,"ċ":295,"Č":296,"č":297,"Ď":298,"ď":299,"Đ":300,"đ":301,"Ē":302,"ē":303,"Ĕ":304,"ĕ":305,"Ė":306,"ė":307,"Ę":308,"ę":309,"Ě":310,"ě":311,"Ĝ":312,"ĝ":313,"Ğ":314,"ğ":315,"Ġ":316,"ġ":317,"Ģ":318,"ģ":319,"Ĥ":320,"ĥ":321,"Ħ":322,"ħ":323,"Ĩ":324,"ĩ":325,"Ī":326,"ī":327,"Ĭ":328,"ĭ":329,"Į":330,"į":331,"İ":332,"ı":333,"Ĳ":334,"ĳ":335,"Ĵ":336,"ĵ":337,"Ķ":338,"ķ":339,"ĸ":340,"Ĺ":341,"ĺ":342,"Ļ":343,"ļ":344,"Ľ":345,"ľ":346,"Ŀ":347,"ŀ":348,"Ł":349,"ł":350,"Ń":351,"Ġa":352,"in":353,"Ġt":354,"Ġo":355,"Ġs":356,"ing":357,"Ġb":358,"it":359,"Ġw":360,"he":361,"Ġp":362,"an":363,"re":364,"Ġc":365,"le":366,"er":367,"Ġon":368,"at":369,"Ġin":370,"ar":371,"Ġof":372,"ro":373,"is":374,"Ġthe":375,"Ġan":376,"Ġf":377,"Ġm":378,"Ġwit":379,"Ġwith":380,"Ġh":381,"Ġand":382,"Ġd":383,"al":384,"Ġg":385,"en":386,"Ġl":387,"om":388,"Ġst":389,"Ġto":390,"ra":391,"es":392,"ding":393,"on":394,"ck":395,"Ġis":396,"ed":397,"ow":398,"or":399,"et":400,"un":401,"as":402,"ĠĊ":403,"ir":404,"Ġman":405,"la":406,"Ġn":407,"op":408,"ting":409,"ch":410,"all":411,"Ġsit":412,"id":413,"oo":414,"up":415,"il":416,"ot":417,"Ġne":418,"el":419,"ut":420,"ur":421,"Ġwh":422,"ig":423,"Ġare":424,"ol":425,"ers":426,"ic":427,"Ġstan":428,"ge":429,"wo":430,"Ġth":431,"Ġsitting":432,"Ġat":433,"us":434,"ard":435,"king":436,"ab":437,"her":438,"ite":439,"Ġbe":440,"ri":441,"Ġsk":442,"Ġre":443,"eop":444,"ide":445,"eople":446,"Ġco":447,"Ġe":448,"ying":449,"eb":450,"Ġro":451,"Ġtra":452,"ad":453,"Ġstanding":454,"oard":455,"Ġv":456,"Ġk":457,"able":458,"Ġdo":459,"Ġpeople":460,"Ġwom":461,"The":462,"lo":463,"ss":464,"xt":465,"Ġit":466,"Ġpla":467,"Ġwhite":468,"ile":469,"Ġnext":470,"ff":471,"ome":472,"Ġpl":473,"Ġhol":474,"Ġwoman":475,"und":476,"reet":477,"Ġtable":478,"ver":479,"Ġthat":480,"Ġfro":481,"Ġstreet":482,"Two":483,"Ġbo":484,"ood":485,"Ġfi":486,"ve":487,"Ġsh":488,"Ġpar":489,"ce":490,"Ġholding":491,"Ġla":492,"erson":493,"own":494,"Ġgra":495,"ate":496,"nt":497,"Ġgro":498,"Ġy":499,"Ġperson":500,"Ġsm":501,"Ġch":502,"Ġbat":503,"ant":504,"arge":505,"oun":506,"am":507,"Ġwat":508,"um":509,"and":510,"Ġdown":511,"Ġcat":512,"Ġlarge":513,"Ġup":514,"che":515,"ion":516,"Ġsome":517,"Ġclo":518,"Ġtop":519,"Ġpi":520,"Ġout":521,"igh":522,"ul":523,"ach":524,"Ġsn":525,"Ġfl":526,"Ġhis":527,"Ġcar":528,"se":529,"Ġnear":530,"Ġdog":531,"eld":532,"ke":533,"ign":534,"Ġsnow":535,"nis":536,"ack":537,"Ġten":538,"lack":539,"Ġgroup":540,"Ġfield":541,"Ġri":542,"Ġtrain":543,"Ġwal":544,"ree":545,"Ġfront":546,"Ġpark":547,"Ġtennis":548,"ure":549,"Ġbus":550,"room":551,"Ġra":552,"Ġsmall":553,"Ġsign":554,"ug":555,"Ġsur":556,"Ġbas":557,"ind":558,"Ġblack":559,"Ġroom":560,"ay":561,"st":562,"Ġplate":563,"ell":564,"im":565,"row":566,"ight":567,"Ġby":568,"Ġwater":569,"Ġloo":570,"Ġph":571,"Ġgrass":572,"ain":573,"Ġbu":574,"Ġair":575,"Ġside":576,"Ġkit":577,"one":578,"round":579,"oung":580,"ue":581,"Ġbath":582,"Ġhas":583,"Ġbl":584,"ving":585,"Ġr":586,"Ġred":587,"Ġsurf":588,"Ġriding":589,"board":590,"Ġbuil":591,"ass":592,"ph":593,"An":594,"side":595,"ru":596,"ee":597,"eball":598,"Ġbuilding":599,"Ġplay":600,"ink":601,"Ġbed":602,"air":603,"ter":604,"Ġskat":605,"ds":606,"Ġtwo":607,"Ġyoung":608,"Ġbaseball":609,"red":610,"Ġwhile":611,"pt":612,"Ġplaying":613,"reen":614,"Ġbathroom":615,"Ġcom":616,"Ġskateb":617,"Ġwalking":618,"yc":619,"zz":620,"Ġfor":621,"ct":622,"Ġpo":623,"age":624,"Ġj":625,"Ġher":626,"Ġhor":627,"Ġgi":628,"Ġot":629,"ycle":630,"aring":631,"chen":632,"Ġpizz":633,"Ġback":634,"Ġother":635,"umb":636,"Ġfood":637,"Ġkitchen":638,"Ġblue":639,"raff":640,"Ġskateboard":641,"Ġmot":642,"Ġli":643,"Ġele":644,"Ġwood":645,"Ġboy":646,"irt":647,"ie":648,"Ġparked":649,"Ġball":650,"Ġpizza":651,"Th":652,"ture":653,"Ġlooking":654,"Ġski":655,"Ġhe":656,"ugh":657,"Ġgiraff":658,"Ġgreen":659,"get":660,"irl":661,"Ġse":662,"Ġle":663,"Ġmotor":664,"ent":665,"Ġbeach":666,"ity":667,"Ġpic":668,"Ġover":669,"Ġz":670,"Ġeat":671,"ran":672,"Ġwe":673,"Ġben":674,"ilet":675,"phant":676,"Ġclock":677,"Ġbear":678,"Ġroad":679,"pp":680,"Ġwa":681,"rel":682,"Ġtoilet":683,"ane":684,"Ġca":685,"Ġgirl":686,"ame":687,"tle":688,"Ġcon":689,"Ġdes":690,"Ġelephant":691,"Ġpicture":692,"ild":693,"Ġdis":694,"Ġcomp":695,"uple":696,"veral":697,"Ġcouple":698,"Ġsits":699,"Ġumb":700,"cks":701,"Ġumbrel":702,"Ġcity":703,"lass":704,"Ġmotorc":705,"ous":706,"ub":707,"Ġtow":708,"ill":709,"ine":710,"Ġplayer":711,"Ġmen":712,"ris":713,"Ġwearing":714,"dy":715,"ĠA":716,"Ġflying":717,"ld":718,"Ġboard":719,"Ġwind":720,"Ġal":721,"Ġmotorcycle":722,"ep":723,"ptop":724,"tain":725,"Ġgame":726,"ebra":727,"ice":728,"Ġshe":729,"Ġlaptop":730,"Ġsl":731,"Ġfrom":732,"ong":733,"ks":734,"Ġas":735,"Ġtheir":736,"led":737,"Ġarea":738,"Ġcomput":739,"Ġint":740,"Ġchild":741,"Ġzebra":742,"Ġbench":743,"Ġwindow":744,"Ġsand":745,"Ġlaying":746,"Ġglass":747,"Ġsink":748,"pen":749,"rough":750,"Ġairp":751,"Ġta":752,"risb":753,"Ġstop":754,"Ġtru":755,"ase":756,"Ġold":757,"ull":758,"Ġhorse":759,"Ġboat":760,"Ġthrough":761,"Ġchair":762,"Ġwall":763,"Ġhand":764,"Ġsc":765,"Ġaround":766,"Ġlight":767,"Ġcake":768,"rown":769,"risbee":770,"oto":771,"Ġeating":772,"Ġwooden":773,"Ġphone":774,"Ġoutside":775,"bo":776,"Ġphoto":777,"uit":778,"ellow":779,"ort":780,"Ġone":781,"Ġcomputer":782,"Ġmo":783,"Ġve":784,"ast":785,"Ġopen":786,"Ġund":787,"There":788,"Ġbir":789,"Ġyellow":790,"Ġdesk":791,"Ġunder":792,"Ġde":793,"cc":794,"Ġte":795,"way":796,"ery":797,"Ġtre":798,"Ġlit":799,"Ġsw":800,"Ġsp":801,"Ġliving":802,"Ġgiraffe":803,"Ġbrown":804,"ross":805,"ag":806,"Ġtruck":807,"Three":808,"Ġflo":809,"ap":810,"Ġfire":811,"les":812,"ation":813,"Ġclose":814,"Ġcol":815,"Ġbun":816,"Ġban":817,"Ġsurfboard":818,"Ġen":819,"Ġumbrella":820,"Ġtrees":821,"'s":822,"Ġbow":823,"ady":824,"ĠT":825,"Ġdi":826,"Ġoff":827,"Ġsuit":828,"Ġtree":829,"Ġcoun":830,"hind":831,"Ġcow":832,"Ġbehind":833,"ground":834,"Ġcell":835,"ves":836,"Ġcour":837,"Ġso":838,"qu":839,"Ġits":840,"ore":841,"pla":842,"ses":843,"Ġbr":844,"Ġbanan":845,"Ġbowl":846,"Ġeach":847,"Ġshow":848,"Ġsky":849,"Ġvery":850,"ump":851,"ets":852,"uch":853,"Ġfen":854,"Se":855,"Ġcut":856,"eat":857,"Ġrack":858,"Ġcourt":859,"Ġtoget":860,"Ġtogether":861,"ction":862,"ly":863,"Ġlot":864,"ors":865,"Ġflow":866,"ich":867,"Ġoran":868,"if":869,"Ġbackground":870,"Ġinto":871,"Ġkite":872,"Ġstands":873,"Ġlittle":874,"Several":875,"Ġrun":876,"Ġsandw":877,"ts":878,"vered":879,"Ġabo":880,"iew":881,"Ġairpl":882,"rick":883,"ĠW":884,"ere":885,"IN":886,"ĠS":887,"Ġmoun":888,"Ġcovered":889,"Ġbi":890,"Ġfrisbee":891,"Ġbunch":892,"hing":893,"alk":894,"dle":895,"People":896,"ry":897,"Ġgo":898,"Ġdri":899,"Ġinside":900,"Ġview":901,"Ġdispla":902,"Ġapp":903,"Ġpre":904,"irro":905,"Ġskis":906,"Ġbig":907,"Ġhot":908,"Ġshirt":909,"dr":910,"Ġmirro":911,"Ġma":912,"Ġcouch":913,"illed":914,"ches":915,"walk":916,"Ġhy":917,"Man":918,"Ġswing":919,"ang":920,"ress":921,"orm":922,"Ġmirror":923,"Ġpass":924,"Ġveget":925,"Ġfence":926,"Ġcounter":927,"do":928,"drant":929,"Ġhydrant":930,"Ġstand":931,"ching":932,"Ġpie":933,"Ġfloor":934,"Ġbird":935,"cean":936,"eddy":937,"Ġsheep":938,"Ġhead":939,"Ġdisplay":940,"Ġocean":941,"other":942,"Ġvegetable":943,"Ġsandwich":944,"Ġmid":945,"Ġairplane":946,"uff":947,"ner":948,"ment":949,"Ġmountain":950,"imal":951,"Ġanother":952,"Ġfilled":953,"etting":954,"Ġteddy":955,"iling":956,"Ġhill":957,"ffere":958,"Ġplane":959,"fferent":960,"Ġche":961,"ped":962,"Ġsidewalk":963,"two":964,"ies":965,"Ġim":966,"Ġwomen":967,"ouse":968,"mp":969,"Ġanimal":970,"Ġfe":971,"ruit":972,"Ġhit":973,"Ġjump":974,"Ġdifferent":975,"the":976,"Ġday":977,"ook":978,"ip":979,"Ġar":980,"Ġref":981,"Ġracket":982,"Ġorange":983,"Ġdirt":984,"Ġmany":985,"Ġsa":986,"ffic":987,"Ġtower":988,"Ġvase":989,"Ġgrassy":990,"Ġtracks":991,"Ġwave":992,"ted":993,"Ġtraffic":994,"Ġflowers":995,"Ġfruit":996,"Ġbro":997,"This":998,"ace":999,"Ġrest":1000,"Ġparking":1001,"Ġbeing":1002,"Ġalong":1003,"Ġvegetables":1004,"ĠF":1005,"our":1006,"kes":1007,"Ġbab":1008,"ick":1009,"Ġgiraffes":1010,"Ġhorses":1011,"Ġus":1012,"ĠB":1013,"ĠO":1014,"ark":1015,"uring":1016,"Ġplat":1017,"Ġground":1018,"Ġhang":1019,"Ġgraz":1020,"Ġbot":1021,"Ġtie":1022,"Ġdress":1023,"ugg":1024,"Ġfull":1025,"Ġbaby":1026,"ari":1027,"Ġimage":1028,"Ġcars":1029,"Ġready":1030,"ĠC":1031,"te":1032,"Ġdr":1033,"Ġmet":1034,"Ġsnowboard":1035,"hes":1036,"Ġsun":1037,"Ġstation":1038,"ey":1039,"Some":1040,"ac":1041,"ated":1042,"Ġzebras":1043,"ren":1044,"Ġbes":1045,"HE":1046,"Ġha":1047,"Ġseveral":1048,"Ġstuff":1049,"Ġun":1050,"Ġcl":1051,"Ġcam":1052,"Ġmiddle":1053,"rying":1054,"Ġpro":1055,"ult":1056,"Ġslop":1057,"Ġelephants":1058,"oli":1059,"Ġbananas":1060,"ms":1061,"Ġcup":1062,"Ġtaking":1063,"Ġhat":1064,"Ġtall":1065,"Ġholds":1066,"Ġcross":1067,"sing":1068,"Ġsigns":1069,"ush":1070,"Ġbox":1071,"Ġbeside":1072,"ning":1073,"ade":1074,"Ġskiing":1075,"ccoli":1076,"Ġcor":1077,"ven":1078,"Ġwho":1079,"Ġgu":1080,"ess":1081,"Ġad":1082,"rowd":1083,"are":1084,"Ġprep":1085,"Ġlo":1086,"vel":1087,"Ġwor":1088,"der":1089,"ator":1090,"Ġwine":1091,"Ġem":1092,"ched":1093,"Ġslope":1094,"Ġac":1095,"ler":1096,"Ġcrowd":1097,"eng":1098,"Ġstuffed":1099,"Ġthem":1100,"RE":1101,"Ġbike":1102,"Ġabove":1103,"Ġkn":1104,"Ġcamer":1105,"Ġsto":1106,"Ġbroccoli":1107,"uts":1108,"iting":1109,"Ġpiece":1110,"Ġsnowy":1111,"Ġvari":1112,"rol":1113,"Ġdoing":1114,"Ġdriving":1115,"cor":1116,"Ġacross":1117,"Ġcamera":1118,"uggage":1119,"Ġduring":1120,"Ġtele":1121,"ust":1122,"Ġkey":1123,"Ġgrazing":1124,"rig":1125,"ING":1126,"Ġhanging":1127,"Ġthree":1128,"there":1129,"Ġrem":1130,"las":1131,"Ġlong":1132,"Ġdoor":1133,"Ġcows":1134,"Ġcont":1135,"Ġskate":1136,"riger":1137,"Ġrid":1138,"pty":1139,"Ġluggage":1140,"Ġrefriger":1141,"th":1142,"ak":1143,"Ġpasseng":1144,"urn":1145,"ĠP":1146,"Ġtal":1147,"Ġbag":1148,"Ġcle":1149,"Ġtrick":1150,"Ġguy":1151,"Ġdon":1152,"ries":1153,"vis":1154,"Ġkid":1155,"Ġser":1156,"Ġper":1157,"Ġglasses":1158,"Ġcolor":1159,"Ġempty":1160,"Ġbic":1161,"sh":1162,"ese":1163,"Ġbuildings":1164,"Ġdoub":1165,"Ġgoing":1166,"Ġdecor":1167,"ii":1168,"Ġpast":1169,"Ġpap":1170,"Ġrefrigerator":1171,"vision":1172,"Ġwatching":1173,"Ġpole":1174,"Ġpink":1175,"Ġtrack":1176,"Ġme":1177,"some":1178,"Ġcab":1179,"Ġtelevision":1180,"Ġkeyboard":1181,"Ġumbrellas":1182,"ful":1183,"Ġwalk":1184,"ans":1185,"Ġlooks":1186,"Ġcorner":1187,"Ġpair":1188,"ideo":1189,"Ġstove":1190,"form":1191,"Ġcur":1192,"Ġdin":1193,"Ġvideo":1194,"Ġdouble":1195,"Ġbicycle":1196,"Ġbre":1197,"Ġcutting":1198,"Ġhigh":1199,"Ġsmiling":1200,"Ġposing":1201,"Ġgetting":1202,"Ġag":1203,"Ġpot":1204,"Ġchildren":1205,"Ġsuitc":1206,"ccer":1207,"Ġbottle":1208,"ĠI":1209,"arding":1210,"Ġkites":1211,"Ġset":1212,"Ġtalking":1213,"Ġremot":1214,"Ġcontrol":1215,"ping":1216,"Ġoven":1217,"Ġpit":1218,"Ġswinging":1219,"Ġpat":1220,"Ġpain":1221,"Ġchairs":1222,"ĠĠĊ":1223,"Ġsoccer":1224,"Ġjumping":1225,"Ġthrow":1226,"Ġcontain":1227,"Ġboats":1228,"ces":1229,"Ġite":1230,"Ġhim":1231,"idge":1232,"Ġcabin":1233,"Ġtravel":1234,"ft":1235,"Ġdogs":1236,"ire":1237,"Ġusing":1238,"oth":1239,"ainst":1240,"Ġagainst":1241,"Ġnight":1242,"leep":1243,"pe":1244,"ten":1245,"ud":1246,"Ġairport":1247,"ian":1248,"Ġbody":1249,"aur":1250,"Ġanimals":1251,"omet":1252,"Ġpaper":1253,"aurant":1254,"ket":1255,"oes":1256,"Ġmon":1257,"Ġherd":1258,"ffee":1259,"ive":1260,"Ġhome":1261,"Ġrac":1262,"Ġrestaurant":1263,"Ġpe":1264,"Ġmeat":1265,"Ġcoffee":1266,"gs":1267,"Ġcolorful":1268,"omething":1269,"Ġbirds":1270,"clo":1271,"Ġcheese":1272,"Ġcan":1273,"Ġhouse":1274,"est":1275,"Ġcarrying":1276,"Ġlin":1277,"Ġbanana":1278,"ĠFrisbee":1279,"ored":1280,"Ġlady":1281,"uth":1282,"Ġdrink":1283,"Ġsomething":1284,"Ġbrick":1285,"Ġwaiting":1286,"Ġall":1287,"cher":1288,"Ġbar":1289,"Ġrail":1290,"Ġdeck":1291,"Ġplates":1292,"ced":1293,"Ġpol":1294,"Ġbedroom":1295,"Ġboo":1296,"Ġres":1297,"Ġor":1298,"iss":1299,"Ġremote":1300,"Ġitems":1301,"Ġlea":1302,"Ġlights":1303,"Ġfore":1304,"Ġplayers":1305,"Ġface":1306,"Ġtoy":1307,"IT":1308,"Ġriver":1309,"Ġpull":1310,"alf":1311,"ool":1312,"ple":1313,"clos":1314,"Ġste":1315,"Ġtray":1316,"Ġshower":1317,"ection":1318,"Ġbears":1319,"Ġmotorcycles":1320,"Ġabout":1321,"Ġsleep":1322,"Ġdressed":1323,"Ġplant":1324,"Ġoutdo":1325,"Ġhel":1326,"ial":1327,"Ġclou":1328,"Ġjet":1329,"Ġinters":1330,"Ġpassenger":1331,"ars":1332,"Ġskier":1333,"Ġenclos":1334,"ĠTHE":1335,"Ġvarious":1336,"Ġatt":1337,"Ġramp":1338,"Ġshel":1339,"Ġrunway":1340,"Ġtile":1341,"ooking":1342,"Ġrunning":1343,"Ġdough":1344,"Ġmouth":1345,"ave":1346,"ases":1347,"Ġrow":1348,"Ġcarro":1349,"Ġtoward":1350,"Ġline":1351,"Ġintersection":1352,"Ġsurfing":1353,"gra":1354,"ones":1355,"Ġhands":1356,"Ġmic":1357,"ty":1358,"Ġpur":1359,"Ġrain":1360,"Ġtraveling":1361,"Ġbusy":1362,"ĠWii":1363,"Ġmonit":1364,"Ġlike":1365,"quet":1366,"Ġrides":1367,"hic":1368,"ĠM":1369,"ife":1370,"Ġnumb":1371,"Ġbook":1372,"arm":1373,"Ġlook":1374,"Ġlying":1375,"Ġdoughn":1376,"Ġwhe":1377,"Ġstore":1378,"Ġskateboarder":1379,"Ġmat":1380,"oc":1381,"Ġsil":1382,"Ġmetal":1383,"Ġrock":1384,"Ġscreen":1385,"Four":1386,"Ġmale":1387,"Ġpreparing":1388,"cl":1389,"Ġpile":1390,"Ġmade":1391,"Ġsuitcase":1392,"Ġslic":1393,"we":1394,"Ġsurfer":1395,"Ġseat":1396,"br":1397,"Ġhalf":1398,"phone":1399,"Ġphotogra":1400,"AN":1401,"raw":1402,"Ġenclosure":1403,"Ġnumber":1404,"Ġslice":1405,"Ġvehic":1406,"Ġce":1407,"Ġdark":1408,"to":1409,"uce":1410,"Ġpan":1411,"ges":1412,"ather":1413,"Ġshown":1414,"Ġknife":1415,"ĠIS":1416,"iz":1417,"Ġno":1418,"ale":1419,"Ġpost":1420,"Ġzoo":1421,"issors":1422,"Ġthis":1423,"Ġbatter":1424,"Ġjack":1425,"Ġtooth":1426,"ading":1427,"Ġshowing":1428,"Ġsleeping":1429,"ne":1430,"Ġsal":1431,"ĠL":1432,"Ġway":1433,"AT":1434,"ved":1435,"oman":1436,"Ġsilver":1437,"Ġsurround":1438,"ny":1439,"Ġtopped":1440,"Ġcolored":1441,"Ġbright":1442,"Many":1443,"Ġtub":1444,"Ġdonuts":1445,"Ġmicrow":1446,"Ġlined":1447,"Ġbet":1448,"art":1449,"Ġwalks":1450,"Ġmeal":1451,"ating":1452,"ĠON":1453,"Ġdecker":1454,"anes":1455,"Ġscissors":1456,"eath":1457,"ron":1458,"Ġbridge":1459,"lic":1460,"elf":1461,"Ġracquet":1462,"Ġty":1463,"Ġdock":1464,"Ġmark":1465,"Ġcarrots":1466,"ĠD":1467,"Ġam":1468,"Ġhair":1469,"iform":1470,"Ġ\"":1471,"aning":1472,"ond":1473,"ween":1474,"Ġbread":1475,"Ġmicrowave":1476,"Ġbetween":1477,"Ġdecorated":1478,"Ġcabinets":1479,"gg":1480,"Ġgre":1481,"Ġfew":1482,"Ġuniform":1483,"Ġpulling":1484,"man":1485,"Ġpick":1486,"ling":1487,"Ġjacket":1488,"ĠH":1489,"Ġscen":1490,"Ġkids":1491,"Ġmouse":1492,"Ġgray":1493,"Ġsurrounded":1494,"Ġpill":1495,"ance":1496,"Ġoutdoor":1497,"Ġphotograph":1498,"Ġlake":1499,"ash":1500,"ime":1501,"ached":1502,"ily":1503,"Ġdish":1504,"Ġthrowing":1505,"Ġbooks":1506,"Ġhave":1507,"Ġtri":1508,"ows":1509,"Ġdisplayed":1510,"Ġcontroller":1511,"Ġwaves":1512,"Ġstick":1513,"Ġgirls":1514,"Ġpurple":1515,"Ġlots":1516,"Ġcrossing":1517,"Ġcount":1518,"Ġbran":1519,"Ġincl":1520,"Ġperform":1521,"Ġsalad":1522,"Ġshop":1523,"Ġbuses":1524,"Woman":1525,"Ġcand":1526,"Ġfour":1527,"Ġdining":1528,"pes":1529,"Ġex":1530,"Ġhelm":1531,"Ġblan":1532,"Ġolder":1533,"Ġcloudy":1534,"Ġmonitor":1535,"ĠG":1536,"atoes":1537,"Ġpainted":1538,"ĠIN":1539,"Ġstat":1540,"Ġboys":1541,"Ġadult":1542,"ect":1543,"ser":1544,"Ġfork":1545,"day":1546,"ken":1547,"Ġstri":1548,"old":1549,"Ġonto":1550,"Ġho":1551,"ish":1552,"Ġresting":1553,"Ġattached":1554,"int":1555,"Ġstopped":1556,"Ġoffice":1557,"Ġcats":1558,"Ġmoving":1559,"ĠOF":1560,"by":1561,"pped":1562,"Ġskiers":1563,"ble":1564,"Ġcoming":1565,"ocol":1566,"inking":1567,"Ġforest":1568,"ssort":1569,"Ġmarket":1570,"Ġfla":1571,"Ġgrey":1572,"ocolate":1573,"hday":1574,"ĠN":1575,"irthday":1576,"ublic":1577,"Ġscene":1578,"Ġed":1579,"Ġcook":1580,"Ġrocks":1581,"Ġleaning":1582,"Ġwindows":1583,"Ġdrinking":1584,"Ġclean":1585,"Ġsetting":1586,"Ġcomm":1587,"Ġshelf":1588,"ER":1589,"Ġfem":1590,"Ġob":1591,"Ġhitting":1592,"Ġtables":1593,"ary":1594,"Ġseen":1595,"Ġoranges":1596,"Ġlamp":1597,"Ġsurfboards":1598,"Ġtopping":1599,"Ġelect":1600,"Ġsqu":1601,"Ġbirthday":1602,"Ġmult":1603,"Ġmaking":1604,"Sm":1605,"Ġpublic":1606,"Ġgr":1607,"Ġbeen":1608,"Ġeng":1609,"LE":1610,"jo":1611,"Ġlay":1612,"aching":1613,"Ġmountains":1614,"ings":1615,"Ġfre":1616,"Ġtowel":1617,"Ġmeter":1618,"ear":1619,"ushing":1620,"Ġwatch":1621,"Ġwalls":1622,"Ġfruits":1623,"Ġworking":1624,"oarding":1625,"Ġchocolate":1626,"Ġenjo":1627,"ti":1628,"Ġclear":1629,"Young":1630,"ats":1631,"Ġedge":1632,"Ġskateboarding":1633,"Ġsunny":1634,"Ġtowards":1635,"oon":1636,"Ġstone":1637,"Ġbasket":1638,"iture":1639,"Ġfurn":1640,"Ġride":1641,"Ġbikes":1642,"Ġpath":1643,"ric":1644,"Ġfries":1645,"Ġapples":1646,"ents":1647,"Ġdist":1648,"ĠTV":1649,"Ġflower":1650,"Ġfurniture":1651,"eth":1652,"Ġconc":1653,"Ġpictures":1654,"Ġfemale":1655,"sp":1656,"Ġfac":1657,"Ġsmile":1658,"Ġnot":1659,"Ġcatch":1660,"astic":1661,"ety":1662,"ND":1663,"Ġshot":1664,"Ġcatcher":1665,"Ġtom":1666,"Ġpen":1667,"Ġwork":1668,"ream":1669,"Ġplaced":1670,"AR":1671,"tered":1672,"Ġpitch":1673,"RO":1674,"oot":1675,"Ġbel":1676,"Ġteeth":1677,"Someone":1678,"Ġhelmet":1679,"Ġsub":1680,"Ġpolice":1681,"Small":1682,"Ġplastic":1683,"Ġsnowboarder":1684,"Ġleaves":1685,"Ġclot":1686,"Ġrol":1687,"Ġcountry":1688,"Ġtrying":1689,"Ġstack":1690,"Ġcellphone":1691,"Ġshows":1692,"Ġtoothbr":1693,"Ġblanket":1694,"Ġstatue":1695,"top":1696,"Ġturn":1697,"Ġpa":1698,"ally":1699,"ITH":1700,"Black":1701,"neath":1702,"hed":1703,"ĠWITH":1704,"Ġassort":1705,"less":1706,"Ġyard":1707,"Ġunderneath":1708,"len":1709,"Ġvan":1710,"Ġcart":1711,"Ġshap":1712,"Ġothers":1713,"Ġhaving":1714,"Large":1715,"Ġapple":1716,"Ġplatform":1717,"Ġsing":1718,"Ġcase":1719,"lection":1720,"Ġwet":1721,"Ġcooking":1722,"Ġur":1723,"Ġtv":1724,"Ġtime":1725,"Ġpack":1726,"Ġnice":1727,"amily":1728,"Ġcarri":1729,"Ġtoppings":1730,"THE":1731,"Ġmar":1732,"Ġsomeone":1733,"inal":1734,"rete":1735,"ist":1736,"Ġbeer":1737,"dern":1738,"Ġdonut":1739,"low":1740,"Ġmil":1741,"Ġsho":1742,"Ġhotel":1743,"Ġconcrete":1744,"Ġbranch":1745,"bor":1746,"hered":1747,"Ġgar":1748,"Ġenjoying":1749,"Ġtr":1750,"Ġbut":1751,"Ġdraw":1752,"Ġdire":1753,"Ġpieces":1754,"Ġshort":1755,"Ġdinner":1756,"ger":1757,"Ġfri":1758,"Ġbase":1759,"Ġdoughnut":1760,"Ġslices":1761,"Ġdistance":1762,"Ġvehicle":1763,"sit":1764,"Ġput":1765,"eeding":1766,"Ġlaptops":1767,"Ġfresh":1768,"Ġpepp":1769,"ix":1770,"unk":1771,"Ġlap":1772,"icken":1773,"Ġfeat":1774,"Ġfamily":1775,"Ġwatches":1776,"Ġengine":1777,"eep":1778,"Ġtake":1779,"Ġsauce":1780,"ĠE":1781,"Ġaf":1782,"road":1783,"Ġflies":1784,"Ġappl":1785,"ares":1786,"Ġpitcher":1787,"vers":1788,"Ġthey":1789,"edest":1790,"Ġsof":1791,"Ġarm":1792,"ca":1793,"wn":1794,"Ġjust":1795,"Ġspe":1796,"Ġsee":1797,"roup":1798,"Ġland":1799,"Ġpizzas":1800,"Ġcomputers":1801,"Ġperforming":1802,"Ġapplian":1803,"ered":1804,"Ġsty":1805,"Ġvariety":1806,"ized":1807,"Ġrice":1808,"iple":1809,"Ġperched":1810,"sed":1811,"Ġey":1812,"Ġmodern":1813,"Ġsingle":1814,"aut":1815,"Ġeaten":1816,"ming":1817,"ins":1818,"Ġtrains":1819,"que":1820,"tub":1821,"Ġwell":1822,"Ġchicken":1823,"Ġtran":1824,"Ġreading":1825,"Ġshore":1826,"Ġwoods":1827,"ject":1828,"Ġwild":1829,"Ġfr":1830,"ides":1831,"ures":1832,"ĠST":1833,"Ġcontaining":1834,"Ġplants":1835,"Ġtricks":1836,"light":1837,"Ġwas":1838,"Ġdry":1839,"Ġnew":1840,"Group":1841,"Ġwire":1842,"athered":1843,"Ġkind":1844,"Ġleft":1845,"ley":1846,"Ġgear":1847,"Ġvases":1848,"Ġtrucks":1849,"Ġneck":1850,"Ġbathtub":1851,"Ġswim":1852,"Ġarran":1853,"Ġsail":1854,"THERE":1855,"Ġafter":1856,"Ġpad":1857,"ions":1858,"Ġsurface":1859,"Ġtown":1860,"Ġcurtain":1861,"Ġtiled":1862,"ied":1863,"Ġfeeding":1864,"Ġphones":1865,"Ġtakes":1866,"Ġhotdo":1867,"ional":1868,"Ġbenches":1869,"ĠAND":1870,"Ġboards":1871,"Ġbrushing":1872,"Ġpassing":1873,"Ġsofa":1874,"Ġfenced":1875,"iti":1876,"Ġind":1877,"Ġguys":1878,"Ġappliances":1879,"ines":1880,"Ġpas":1881,"anc":1882,"chool":1883,"Ġequ":1884,"ĠCh":1885,"Ġclut":1886,"One":1887,"uding":1888,"Ġpul":1889,"ely":1890,"Ġrailroad":1891,"pack":1892,"Ġgathered":1893,"Ġincluding":1894,"ĠR":1895,"Ġfo":1896,"Ġfly":1897,"Ġalone":1898,"Ġpassengers":1899,"autif":1900,"Ġpedest":1901,"Ġstair":1902,"Ġdoughnuts":1903,"OM":1904,"mb":1905,"Ġbottles":1906,"Ġdrinks":1907,"Ġpulled":1908,"Ġbags":1909,"Ġpasture":1910,"St":1911,"place":1912,"Ġmatch":1913,"intage":1914,"cial":1915,"Ġschool":1916,"Ġbrush":1917,"Ġbelow":1918,"Ġcarriage":1919,"Ġap":1920,"Ġfoot":1921,"Ġdu":1922,"Ġstall":1923,"Ġgraff":1924,"Ġteam":1925,"Ġcute":1926,"three":1927,"Ġserved":1928,"Ġtoothbrush":1929,"autiful":1930,"iding":1931,"Ġtan":1932,"enter":1933,"Ġend":1934,"Ġsteel":1935,"armac":1936,"ronic":1937,"AL":1938,"Ġbackpack":1939,"Ġdesser":1940,"Ġcandles":1941,"Ġfridge":1942,"Ġplays":1943,"this":1944,"Ġbreak":1945,"bb":1946,"Ġtarmac":1947,"Ġwii":1948,"head":1949,"Ġcurb":1950,"Ġ.":1951,"self":1952,"Ġcenter":1953,"Ġtrail":1954,"ball":1955,"Ġqu":1956,"upp":1957,"Ġpillows":1958,"Ġtrunk":1959,"Ġdirty":1960,"Ġwheel":1961,"Ġtypes":1962,"Ġamong":1963,"Ġgraffiti":1964,"os":1965,"Ġbal":1966,"Ġwr":1967,"Ġnearby":1968,"Ġpoles":1969,"Ġposes":1970,"Ġtaken":1971,"ged":1972,"ini":1973,"Ġshoes":1974,"stru":1975,"Ġpainting":1976,"ber":1977,"ram":1978,"urch":1979,"ips":1980,"Ġelectronic":1981,"Ġmess":1982,"ages":1983,"Ġfeet":1984,"land":1985,"uches":1986,"Ġplace":1987,"Ġpoin":1988,"Ġsuitcases":1989,"Ġglo":1990,"Ġatop":1991,"Ġsandy":1992,"Ġfireplace":1993,"Ġpret":1994,"its":1995,"Ġcatching":1996,"Ġbowls":1997,"Ġlays":1998,"uge":1999,"ward":2000,"iness":2001,"inten":2002,"Ġwed":2003,"Ġbeautiful":2004,"ames":2005,"Ġboxes":2006,"Ġcrowded":2007,"Ġserve":2008,"aking":2009,"out":2010,"Ġhay":2011,"iches":2012,"ads":2013,"Ġstriped":2014,"intendo":2015,"Ġbushes":2016,"Ġbeds":2017,"Ġstyle":2018,"Ġlow":2019,"Ġwhere":2020,"fess":2021,"Ġshaped":2022,"Ġstaring":2023,"Ġround":2024,"Ġchurch":2025,"Ġdev":2026,"Ġobject":2027,"iv":2028,"Ġblo":2029,"Ġwra":2030,"Ġcream":2031,"Ġright":2032,"rist":2033,"Ġsmiles":2034,"Ġpretty":2035,"fessional":2036,"ident":2037,"Ġreaching":2038,"Ġbusiness":2039,"Ġspoon":2040,"Ġhuge":2041,"Ġsandwiches":2042,"Ġairplanes":2043,"Ġhar":2044,"Ġplanes":2045,"ular":2046,"Ġlet":2047,"Ġdeser":2048,"Ġsinks":2049,"Ġvehicles":2050,"dge":2051,"hite":2052,"ato":2053,"ise":2054,"unch":2055,"Ġwhich":2056,"elling":2057,"ipment":2058,"Ġloc":2059,"Ġdirection":2060,"Ġcover":2061,"Ġform":2062,"Ġcontainer":2063,"Ġpolar":2064,"Ġsquare":2065,"Ġtomatoes":2066,"Ġputting":2067,"Ġvintage":2068,"Ġdesign":2069,"Ġcabinet":2070,"Ġequipment":2071,"mas":2072,"anding":2073,"Ġpedestri":2074,"io":2075,"ious":2076,"Ġlegs":2077,"Ġserving":2078,"Ch":2079,"de":2080,"Ġaway":2081,"Ġblen":2082,"Ġpose":2083,"Ġoffic":2084,"ĠSt":2085,"Ġlush":2086,"Ġear":2087,"Ġskateboards":2088,"Ġswings":2089,"Ġprepares":2090,"Ġwin":2091,"ens":2092,"boarding":2093,"Person":2094,"ercial":2095,"Ġgold":2096,"Ġret":2097,"Ġtrash":2098,"Ġoutf":2099,"Ġflat":2100,"wing":2101,"ural":2102,"arden":2103,"Ġboth":2104,"Ġwedding":2105,"fast":2106,"sc":2107,"Ġget":2108,"Ġsticking":2109,"Ġflag":2110,"set":2111,"lasses":2112,"Ġart":2113,"Ġcooked":2114,"ristmas":2115,"alm":2116,"Ġgarden":2117,"ioned":2118,"Ġfoods":2119,"aked":2120,"Ġsliced":2121,"Ġcluttered":2122,"OR":2123,"vent":2124,"Ġump":2125,"itary":2126,"urry":2127,"Ġdishes":2128,"ĠU":2129,"Ġtour":2130,"ical":2131,"Ġhold":2132,"Ġrug":2133,"Ġprofessional":2134,"Ġcement":2135,"Ġclothes":2136,"OP":2137,"Ġsame":2138,"let":2139,"ycl":2140,"Ġsoup":2141,"Ġkne":2142,"ates":2143,"oll":2144,"Ġmother":2145,"pping":2146,"artment":2147,"Ġcommercial":2148,"Ġstacked":2149,"LA":2150,"Ġpool":2151,"Ġoverl":2152,"ĠARE":2153,"Ġmounted":2154,"Ġjumps":2155,"Ġpotatoes":2156,"EN":2157,"people":2158,"iny":2159,"Ġcro":2160,"Ġfall":2161,"Ġspace":2162,"ET":2163,"OW":2164,"ium":2165,"lin":2166,"Ġthere":2167,"Ġgames":2168,"Ġstain":2169,"aded":2170,"Ġdrives":2171,"Ġbicycles":2172,"Ġumpire":2173,"glasses":2174,"ual":2175,"ists":2176,"Ġroo":2177,"ared":2178,"og":2179,"Ġappro":2180,"Ġfacing":2181,"Ġsubway":2182,"Ġbreakfast":2183,"ban":2184,"ng":2185,"Ġfarm":2186,"eling":2187,"Ġswimming":2188,"struction":2189,"kets":2190,"Ġice":2191,"Ġham":2192,"Ġlone":2193,"Ġcheck":2194,"Ġurinal":2195,"Ġhotdog":2196,"Ġdessert":2197,"ES":2198,"IS":2199,"ded":2200,"Ġbur":2201,"iler":2202,"Ġdocked":2203,"nic":2204,"sian":2205,"Ġpow":2206,"Ġblender":2207,"mon":2208,"Ġcoat":2209,"Ġboarding":2210,"ults":2211,"Ġseated":2212,"Bo":2213,"Ġter":2214,"ret":2215,"Ġonions":2216,"ige":2217,"vert":2218,"Ġpart":2219,"Ġsnowboarding":2220,"Ġskating":2221,"Ġeats":2222,"Ġshorts":2223,"RA":2224,"ia":2225,"iraff":2226,"ned":2227,"Ġstep":2228,"uter":2229,"Ġwooded":2230,"Ġclocks":2231,"Ġrocky":2232,"Ġroll":2233,"na":2234,"ns":2235,"ou":2236,"ĠV":2237,"Ġtur":2238,"Ġcra":2239,"ants":2240,"Ġfloating":2241,"Ġfrien":2242,"CK":2243,"OT":2244,"ears":2245,"Ġsmo":2246,"Ġsurfers":2247,"Ġreflection":2248,"Ġsunglasses":2249,"Ġmultiple":2250,"Men":2251,"Ġfram":2252,"Ġdel":2253,"Ġparty":2254,"rench":2255,"Ġprop":2256,"Ġpillow":2257,"ĠNintendo":2258,"Ġassorted":2259,"Ġmilitary":2260,"fore":2261,"Ġtied":2262,"ative":2263,"Ġstraw":2264,"ils":2265,"Ġkitten":2266,"Ġdisc":2267,"Ġarranged":2268,"DING":2269,"ON":2270,"Sk":2271,"made":2272,"Ġsay":2273,"arrow":2274,"Ġdoes":2275,"Ġsignal":2276,"Ġmod":2277,"ations":2278,"Ġrestroom":2279,"Ġadvert":2280,"Ġoutdoors":2281,"icks":2282,"sting":2283,"Ġgate":2284,"ract":2285,"ushes":2286,"Ġledge":2287,"Ġclouds":2288,"Ġstairs":2289,"act":2290,"phones":2291,"dler":2292,"Ġceiling":2293,"Ġfun":2294,"Ġmus":2295,"Ġlad":2296,"Ġlunch":2297,"Ġbefore":2298,"Ġcouches":2299,"Ġeyes":2300,"ddler":2301,"pet":2302,"xing":2303,"Ġdoors":2304,"Ġcups":2305,"Ġhighway":2306,"Ġpepper":2307,"av":2308,"az":2309,"co":2310,"mer":2311,"Ġcir":2312,"Ġchop":2313,"Ġclosed":2314,"Ġrace":2315,"Ġpicnic":2316,"Ġbroken":2317,"Ġmessy":2318,"Ġpointing":2319,"fe":2320,"Ġgather":2321,"Ġgiant":2322,"ĠChristmas":2323,"Ġmag":2324,"rain":2325,"urf":2326,"Ġskies":2327,"Ġgraze":2328,"ired":2329,"ĠK":2330,"Ġopp":2331,"ators":2332,"Ġfish":2333,"Ġmust":2334,"ĠAsian":2335,"Ġrackets":2336,"Ġarms":2337,"Ġhimself":2338,"Ġdesert":2339,"Clo":2340,"Ġmach":2341,"eds":2342,"Ġcost":2343,"Ġevent":2344,"Ġleather":2345,"Ġcompet":2346,"Ġforeground":2347,"Ġdrawn":2348,"ancy":2349,"Cat":2350,"ake":2351,"iff":2352,"tom":2353,"Ġhard":2354,"Ġtoddler":2355,"Ġnarrow":2356,"Ġatte":2357,"Ġeg":2358,"Ġtrailer":2359,"Ġkick":2360,"Ġsteam":2361,"Ġmonitors":2362,"Ġtransit":2363,"so":2364,"Ġpond":2365,"Ġcr":2366,"ung":2367,"Ġneat":2368,"Ġvis":2369,"Ġcattle":2370,"Ġcarpet":2371,"Ġbottom":2372,"Ġoverlooking":2373,"Ġcirc":2374,"Ġcard":2375,"Ġcage":2376,"Ġfash":2377,"aseball":2378,"Ġspr":2379,"Ġprod":2380,"aches":2381,"read":2382,"Ġnap":2383,"icing":2384,"Ġlawn":2385,"Ġflock":2386,"Ġappears":2387,"Ġadults":2388,"Ġharbor":2389,"Ġstainless":2390,"Ġroof":2391,"Ġcostum":2392,"Ġfancy":2393,"Ġmix":2394,"Ġmini":2395,"Ġthings":2396,"Ġplain":2397,"Ġbeneath":2398,"uching":2399,"Ġmake":2400,"Ġmakes":2401,"Ġorn":2402,"Ġtype":2403,"Ġinclud":2404,"Ġassortment":2405,"uc":2406,"Ġfig":2407,"Ġhous":2408,"Ġlanding":2409,"els":2410,"adow":2411,"cture":2412,"Ġsea":2413,"Ġfloors":2414,"Ġlog":2415,"cakes":2416,"Ġwinter":2417,"IR":2418,"ier":2419,"Ġut":2420,"Ġanti":2421,"Ġfol":2422,"Ġrela":2423,"Ġket":2424,"Ġchain":2425,"cted":2426,"Ġsays":2427,"Vari":2428,"Zebra":2429,"per":2430,"Ġcla":2431,"ony":2432,"very":2433,"Ġphotos":2434,"Ġrider":2435,"Ġglove":2436,"Ġdevice":2437,"Red":2438,"Ġent":2439,"Ġacc":2440,"Ġport":2441,"Ġmas":2442,"cked":2443,"Ġblow":2444,"Ġoverhead":2445,"Ġcolors":2446,"Ġeggs":2447,"ost":2448,"Ġwide":2449,"Ġbever":2450,"Ġext":2451,"key":2452,"ĠTH":2453,"Ġrests":2454,"Ġcloth":2455,"Ġtowels":2456,"bs":2457,"ps":2458,"Ġinter":2459,"oni":2460,"Ġreads":2461,"Ġparti":2462,"Ġheld":2463,"Ġcloseup":2464,"Ġtoys":2465,"Ġelectric":2466,"Ġoutfit":2467,"liner":2468,"Ġpartially":2469,"Ġlies":2470,"Ġshelves":2471,"White":2472,"Ġbite":2473,"Ġindo":2474,"Ġmush":2475,"Ġlid":2476,"Ġboarder":2477,"Ġdrive":2478,"Ġchef":2479,"Ġcontrollers":2480,"Giraff":2481,"Ġaction":2482,"Ġsill":2483,"hel":2484,"cket":2485,"Ġshade":2486,"Ġconstruction":2487,"Ġvegg":2488,"Ġhapp":2489,"many":2490,"Ġsteps":2491,"Five":2492,"Ġfight":2493,"ray":2494,"ons":2495,"Ġmachine":2496,"Ġmushroom":2497,"Baseball":2498,"iers":2499,"Ġtw":2500,"Ġstr":2501,"Ġsmal":2502,"Ġenter":2503,"ĠMAN":2504,"Ġgrill":2505,"Street":2506,"idential":2507,"Ġlett":2508,"Ġantique":2509,"ĠJ":2510,"Ġdoll":2511,"ican":2512,"Ġdecorative":2513,"Ġpasta":2514,"Ġshoul":2515,"Ġfeatures":2516,"Ġapartment":2517,"Ġi":2518,"Ġsupp":2519,"lage":2520,"Ġnet":2521,"Ġtoilets":2522,"Ġuse":2523,"Ġwalkway":2524,"Ġracing":2525,"Ġkneeling":2526,"Ġmodel":2527,"ible":2528,"Ġstru":2529,"Ġstret":2530,"Ġship":2531,"Ġchips":2532,"Ġteen":2533,"Ġpots":2534,"Ġpeppers":2535,"Various":2536,"Ġsmaller":2537,"IC":2538,"OU":2539,"cting":2540,"ork":2541,"ooter":2542,"Ġgiving":2543,"Ġsuits":2544,"Ġpulls":2545,"Ġcele":2546,"Ġsides":2547,"Ġpee":2548,"Ġmug":2549,"Ġdep":2550,"ory":2551,"Ġdesktop":2552,"agull":2553,"Ġpaw":2554,"Ġsprink":2555,"Ġhouses":2556,"ef":2557,"ives":2558,"issing":2559,"Ġfrench":2560,"Ġgets":2561,"ird":2562,"Ġnood":2563,"Ġwhat":2564,"Ġbeard":2565,"Ġposit":2566,"Ġcakes":2567,"Ġscooter":2568,"Ġsale":2569,"Ġpastry":2570,"Ġkinds":2571,"She":2572,"Ġpr":2573,"Ġpants":2574,"Ġfur":2575,"Ġmud":2576,"laz":2577,"ots":2578,"Ġsweat":2579,"Ġsport":2580,"Ġloaded":2581,"Ġpapers":2582,"ED":2583,"OO":2584,"go":2585,"ib":2586,"pl":2587,"Ġbull":2588,"Ġwets":2589,"olored":2590,"ulpt":2591,"Ġrailing":2592,"Ġju":2593,"Ġhillside":2594,"Ġprepared":2595,"Ġtomato":2596,"Ġwetsuit":2597,"ike":2598,"Ġpetting":2599,"ising":2600,"Ġstill":2601,"Ġtoast":2602,"imb":2603,"Ġcontains":2604,"Ġhole":2605,"Ġcommuter":2606,"Ġclothing":2607,"Ġapproaching":2608,"Ġfriends":2609,"Close":2610,"ĠTHAT":2611,"Girl":2612,"Pl":2613,"house":2614,"uck":2615,"ital":2616,"rop":2617,"Ġgood":2618,"Ġrust":2619,"Ġfeed":2620,"Ġpastries":2621,"Ġleading":2622,"Ġcarrot":2623,"Ġurban":2624,"be":2625,"Ġsiz":2626,"Ġstreets":2627,"Ġbuilt":2628,"Ġsculpt":2629,"Ġtea":2630,"Ġsod":2631,"Ġhats":2632,"Child":2633,"Ġbaked":2634,"Ġopened":2635,"Ġsunset":2636,"Ġbarn":2637,"Ġresidential":2638,"Ġbrightly":2639,"TING":2640,"Ġisland":2641,"allow":2642,"Ġbush":2643,"Ġwaits":2644,"Ġused":2645,"Ġnose":2646,"Ġturned":2647,"Ġgarage":2648,"Ġwriting":2649,"Ġfighter":2650,"IG":2651,"Old":2652,"par":2653,"Ġties":2654,"eller":2655,"Ġupside":2656,"Ġcomf":2657,"ape":2658,"Ġrefle":2659,"Ġsaus":2660,"Ġpatio":2661,"Ġcontainers":2662,"Ġmulti":2663,"Ġsmoke":2664,"Ġmustard":2665,"me":2666,"Ġsy":2667,"Ġself":2668,"Ġpans":2669,"Ġpract":2670,"chup":2671,"Ġcourse":2672,"Ġsailing":2673,"Ġalongside":2674,"Ġsnowboards":2675,"ALL":2676,"Ġblock":2677,"Ġketchup":2678,"Ġstructure":2679,"ining":2680,"itten":2681,"ering":2682,"Ġliqu":2683,"Ġleash":2684,"Ġbik":2685,"Ġriders":2686,"Ġthrows":2687,"Ġexp":2688,"Ġmilk":2689,"Ġpaddle":2690,"Ġfashioned":2691,"KING":2692,"yard":2693,"Ġab":2694,"Ġwar":2695,"erial":2696,"Ġstra":2697,"aster":2698,"Ġlaugh":2699,"Ġpier":2700,"Ġjo":2701,"Ġsheet":2702,"ully":2703,"boat":2704,"Ġuses":2705,"Ġdecorations":2706,"Ġmushrooms":2707,"gon":2708,"lies":2709,"ath":2710,"Ġstun":2711,"Ġtouching":2712,"Ġblurry":2713,"Ġseagull":2714,"Ġleans":2715,"acon":2716,"Ġrainy":2717,"Ġbranches":2718,"Ġvanity":2719,"Ġpropeller":2720,"Ġlettuce":2721,"Ġsoda":2722,"SE":2723,"Ġpave":2724,"erly":2725,"Ġlamb":2726,"ighting":2727,"Ġcap":2728,"Ġmound":2729,"Ġuniforms":2730,"Ġwrapped":2731,"Boy":2732,"Ġveggies":2733,"Ġnoodles":2734,"cra":2735,"gan":2736,"ield":2737,"Ġclass":2738,"aper":2739,"Ġplatter":2740,"Ġpacked":2741,"Ġpedestrians":2742,"Ġincludes":2743,"Ġpavement":2744,"bile":2745,"bage":2746,"Ġbacon":2747,"ange":2748,"Ġdeep":2749,"Ġstad":2750,"Ġbeans":2751,"Ġbeige":2752,"Ġegg":2753,"Ġje":2754,"Ġsheets":2755,"ĠTO":2756,"Ġdresser":2757,"ultiple":2758,"lowing":2759,"Ġdirections":2760,"scape":2761,"TH":2762,"em":2763,"ature":2764,"Ġmit":2765,"Ġmed":2766,"als":2767,"Ġstream":2768,"Ġholder":2769,"Ġgroom":2770,"Ġchar":2771,"Ġheads":2772,"Ġremotes":2773,"Ġofficer":2774,"Ġreturn":2775,"Ġstrawber":2776,"Ġpepperoni":2777,"Ġstadium":2778,"YING":2779,"Ġsort":2780,"ition":2781,"Ġwithout":2782,"Ġhall":2783,"unding":2784,"Ġfrosting":2785,"Ġlift":2786,"Ġalso":2787,"ooked":2788,"Ġpatter":2789,"Ġurinals":2790,"Ġterm":2791,"Ġow":2792,"Ġbare":2793,"Ġcub":2794,"Ġfin":2795,"oned":2796,"Ġname":2797,"Ġroadway":2798,"Ġsliding":2799,"Ġpurse":2800,"Ġducks":2801,"Ġrelaxing":2802,"Ġterminal":2803,"Ġsized":2804,"ices":2805,"Ġshallow":2806,"Ġlaid":2807,"Ġblond":2808,"Ġcond":2809,"ĠAT":2810,"Ġitself":2811,"Ġpasses":2812,"REET":2813,"Ġdoorway":2814,"Ġbookshel":2815,"Ġshopping":2816,"Ġflags":2817,"Ġshoe":2818,"Ġfalling":2819,"Ġbeverage":2820,"uy":2821,"Ġpalm":2822,"Ġsteep":2823,"otor":2824,"Ġfive":2825,"Ġbaskets":2826,"Ġmeters":2827,"Ġloading":2828,"Ġleaf":2829,"Ġcandle":2830,"ivid":2831,"Ġornate":2832,"IL":2833,"hill":2834,"lue":2835,"Ġtiny":2836,"Ġonly":2837,"ute":2838,"Ġrear":2839,"Ġparade":2840,"Ġpipe":2841,"Ġcapt":2842,"Ġhandle":2843,"Ġmost":2844,"Ġfaces":2845,"ĠSTREET":2846,"Ġframe":2847,"Ġsupplies":2848,"Sheep":2849,"Ad":2850,"Looking":2851,"izz":2852,"ware":2853,"ina":2854,"Ġtong":2855,"Ġbucket":2856,"boards":2857,"shirt":2858,"Ġlines":2859,"Ġfried":2860,"Ġformation":2861,"Ġpedestrian":2862,"yclist":2863,"Ġvisible":2864,"craft":2865,"AB":2866,"Cars":2867,"Ġaw":2868,"Ġhood":2869,"ence":2870,"Ġflight":2871,"Ġruns":2872,"Ġperforms":2873,"Ġrolling":2874,"Ġfeaturing":2875,"Ġcostume":2876,"Ġindoor":2877,"Ġshoulder":2878,"Ġsausage":2879,"..":2880,"ID":2881,"Ġeld":2882,"ishing":2883,"Ġgas":2884,"Ġglaz":2885,"cker":2886,"ooks":2887,"Ġsmart":2888,"Ġsnack":2889,"Ġairliner":2890,"cts":2891,"Ġleg":2892,"Ġsoft":2893,"ĠPE":2894,"Ġbutter":2895,"Ġtransp":2896,"Ġcurtains":2897,"Ġcovering":2898,"Ġproduce":2899,"Ġcelebr":2900,"Ġjuice":2901,"ividual":2902,"Ġtongue":2903,"Ele":2904,"In":2905,"OL":2906,"Ġpupp":2907,"Ġfree":2908,"Ġtool":2909,"usk":2910,"Ġgrowing":2911,"Ġsomeones":2912,"Ġripe":2913,"Ġaircraft":2914,"Ġcons":2915,"Ġtail":2916,"boy":2917,"Ġspect":2918,"aged":2919,"Ġdisplaying":2920,"Ġclimb":2921,"Ġattire":2922,"Ġwritten":2923,"OPLE":2924,"Ġhappy":2925,"line":2926,"Ġtab":2927,"Ġsim":2928,"Ġbell":2929,"Ġpet":2930,"Ġfir":2931,"Ġdra":2932,"Ġstud":2933,"Ġsticks":2934,"Ġpersonal":2935,"sted":2936,"Ġbending":2937,"Ġwait":2938,"Ġcollection":2939,"Ġremo":2940,"Ġeye":2941,"Ġduck":2942,"Ġelectronics":2943,"GE":2944,"Surf":2945,"WO":2946,"ail":2947,"case":2948,"fully":2949,"lish":2950,"ness":2951,"Ġ2":2952,"Ġcre":2953,"Ġhow":2954,"Ġpersons":2955,"several":2956,"Ġtent":2957,"Ġrural":2958,"Ġsem":2959,"Ġleap":2960,"ĠSIT":2961,"Ġgoats":2962,"Ġwhole":2963,"akers":2964,"Ġcurled":2965,"Ġpiled":2966,"Ġposted":2967,"yclists":2968,"Ġnapk":2969,"CH":2970,"bed":2971,"dling":2972,"ior":2973,"Ġinf":2974,"Ġstar":2975,"rial":2976,"Ġvest":2977,"Ġflip":2978,"ster":2979,"ctor":2980,"Ġskateboarders":2981,"Ġhere":2982,"Ġwagon":2983,"Ġbank":2984,"Ġitem":2985,"Ġpickup":2986,"Ġindividual":2987,"Ġattemp":2988,"Ġmitt":2989,"Multiple":2990,"Motor":2991,"lit":2992,"Ġol":2993,"ished":2994,"Ġfast":2995,"allen":2996,"Ġguit":2997,"omot":2998,"Ġtoaster":2999,"oral":3000,"gement":3001,"ount":3002,"Ġsection":3003,"Ġmicro":3004,"Ġtank":3005,"Ġneatly":3006,"Ġutens":3007,"Ġsculpture":3008,"Ġjeans":3009,"Guy":3010,"Hor":3011,"View":3012,"We":3013,"iet":3014,"ipped":3015,"Ġ1":3016,"ĠY":3017,"Ġing":3018,"Ġselling":3019,"Ġmop":3020,"Ġmuff":3021,"Ġmissing":3022,"Ġda":3023,"Ġloung":3024,"Ġrope":3025,"Ġwaters":3026,"Ġtax":3027,"Ġarrangement":3028,"Ġlocomot":3029,"Ġladies":3030,"Ġkicking":3031,"Ġsweater":3032,"Ġspectators":3033,"eum":3034,"ients":3035,"Ġtrol":3036,"Ġpine":3037,"Ġpushing":3038,"Ġfallen":3039,"Ġgl":3040,"cking":3041,"ids":3042,"icture":3043,"Ġgreens":3044,"Ġsepar":3045,"Ġcoll":3046,"Ġbride":3047,"Ġimages":3048,"Ġcorn":3049,"ustrial":3050,"Ġpotted":3051,"Ġorgan":3052,"Ġcounters":3053,"Ġlandscape":3054,"isement":3055,"Ġpower":3056,"Ġdeli":3057,"Ġelderly":3058,"Ġsemi":3059,"ĠSITTING":3060,"Ġattempting":3061,"Ġlocomotive":3062,"Dog":3063,"ues":3064,"van":3065,"ater":3066,"rounding":3067,"Ġreaches":3068,"Ġsurrounding":3069,"redients":3070,"Ġhors":3071,"Ġlemon":3072,"ĠSK":3073,"Ġpres":3074,"Ġadj":3075,"Ġenclosed":3076,"Ġtiles":3077,"ATE":3078,"Ġexh":3079,"Ġobser":3080,"ROOM":3081,"Ġgarbage":3082,"Ġsports":3083,"Children":3084,"Ġlaughing":3085,"He":3086,"SS":3087,"bow":3088,"cycle":3089,"cess":3090,"four":3091,"ised":3092,"Ġfar":3093,"end":3094,"Ġcovers":3095,"Ġparas":3096,"raffic":3097,"Ġspread":3098,"Ġgoes":3099,"ERS":3100,"ROU":3101,"Ġmarble":3102,"Ġnewsp":3103,"ĠStreet":3104,"Ġadvertisement":3105,"Ġsprinkles":3106,"Ġbookshelf":3107,"izza":3108,"Ġtabby":3109,"Com":3110,"UT":3111,"bur":3112,"now":3113,"Ġpor":3114,"Ġcas":3115,"Ġfing":3116,"Ġgent":3117,"eback":3118,"Ġshru":3119,"Ġgravel":3120,"umer":3121,"Ġcatches":3122,"Ġfloral":3123,"Ġjets":3124,"Ġconf":3125,"Ġpictured":3126,"ways":3127,"Ġspot":3128,"Ġbunches":3129,"Ġheadphones":3130,"ĠBO":3131,"Ġtelephone":3132,"Ġtalks":3133,"Ġpaint":3134,"Ġlamps":3135,"Ġindustrial":3136,"osite":3137,"Ġmagn":3138,"Zebras":3139,"Giraffes":3140,"Ġliquid":3141,"Ġglazed":3142,"Ġingredients":3143,"Cows":3144,"Ġcal":3145,"Ġroses":3146,"ountain":3147,"Ġdownhill":3148,"Ġcarries":3149,"ured":3150,"Ġballs":3151,"Ġalm":3152,"Ġasleep":3153,"Ġstoplight":3154,"Ġmirrors":3155,"Ġphotograp":3156,"Ġstickers":3157,"Ġpaved":3158,"Ġspeed":3159,"Ġwires":3160,"Ġopposite":3161,"Ġfirst":3162,"Ġutensils":3163,"Ġhorseback":3164,"\".":3165,"AD":3166,"Traffic":3167,"ging":3168,"Ġbent":3169,"Ġinst":3170,"Ġfoc":3171,"asing":3172,"Ġsiting":3173,"abit":3174,"Ġfrosted":3175,"amp":3176,"Ġrange":3177,"Ġballoon":3178,"ĠAmer":3179,"Ġarch":3180,"Ġhangs":3181,"Ġcrosswalk":3182,"ITE":3183,"Ġhelping":3184,"Ġmatching":3185,"cake":3186,"Ġhotdogs":3187,"Ġmuseum":3188,"Ġaccess":3189,"ĠPEOPLE":3190,"Ġpuppy":3191,"Ġgentle":3192,"Green":3193,"ton":3194,"time":3195,"Ġif":3196,"Ġcer":3197,"Ġden":3198,"usted":3199,"Ġflown":3200,"Ġcargo":3201,"risbe":3202,"Ġmoves":3203,"uffy":3204,"Ġhaired":3205,"ĠPLA":3206,"Ġmeadow":3207,"Ġpotato":3208,"Ġtoothbrushes":3209,"Ġrolls":3210,"Ġselfie":3211,"It":3212,"Ġ3":3213,"here":3214,"rot":3215,"Ġhabit":3216,"Ġdig":3217,"Ġstuck":3218,"orter":3219,"Ġeven":3220,"Ġdisplays":3221,"Ġcupcakes":3222,"Ġtrays":3223,"Ġhelmets":3224,"ARD":3225,"ancing":3226,"Ġfoil":3227,"Ġofficers":3228,"Ġtransport":3229,"Ġclimbing":3230,"Ġguitar":3231,"Picture":3232,"dd":3233,"ique":3234,"nel":3235,"ĠRE":3236,"Ġwing":3237,"Ġrep":3238,"Ġevery":3239,"iled":3240,"aming":3241,"umin":3242,"andoned":3243,"Ġlife":3244,"rance":3245,"Ġweather":3246,"Ġcones":3247,"Ġcowboy":3248,"ĠBE":3249,"Ġquiet":3250,"Ġobjects":3251,"Ġcompetition":3252,"Ġmixed":3253,"Ġnewspaper":3254,"ĠAmerican":3255,"Ġhabitat":3256,"app":3257,"Ġaut":3258,"Ġsold":3259,"ittle":3260,"Ġcycle":3261,"Ġfan":3262,"Ġchil":3263,"nished":3264,"ightly":3265,"Ġforward":3266,"Ġmotion":3267,"range":3268,"Ġcountertop":3269,"Ġchest":3270,"thy":3271,"Ġbooth":3272,"Ġstring":3273,"Ġrusty":3274,"Ġfeeder":3275,"Ġpracticing":3276,"Elephant":3277,"Ġalmost":3278,"URE":3279,"Ġbul":3280,"Ġcalf":3281,"Ġfil":3282,"Ġfake":3283,"Ġdim":3284,"icious":3285,"Ġthin":3286,"Ġtrav":3287,"Ġtops":3288,"Ġsniff":3289,"stand":3290,"Ġherself":3291,"ĠWH":3292,"Ġhills":3293,"Ġsnowboarders":3294,"Ġmeet":3295,"Ġrows":3296,"Ġblankets":3297,"Ġseems":3298,"Ġhambur":3299,"Ġfigur":3300,"Ġposition":3301,"Ġabandoned":3302,"Ġstunt":3303,"Ġhallway":3304,"ABLE":3305,"Ġmicrophone":3306,"NT":3307,"cing":3308,"tress":3309,"uzz":3310,"Ġcere":3311,"Ġonl":3312,"Ġang":3313,"Ġfountain":3314,"Ġlar":3315,"Ġtoss":3316,"Ġthrown":3317,"ades":3318,"Ġshiny":3319,"Ġbatting":3320,"Ġrub":3321,"Ġmotorb":3322,"boats":3323,"Ġmore":3324,"Ġdead":3325,"Ġhits":3326,"Ġwords":3327,"Ġcleaning":3328,"Ġshape":3329,"lower":3330,"Ġindic":3331,"Ġwheels":3332,"Ġcheckered":3333,"Ġmagaz":3334,"Ġtools":3335,"Ġfocus":3336,"Ġtravelling":3337,"Snow":3338,"gress":3339,"Ġicing":3340,"Ġonion":3341,"Ġstee":3342,"Ġstool":3343,"Ġgrapes":3344,"Ġribb":3345,"Ġpouring":3346,"Ġshirts":3347,"Ġsavan":3348,"Ġcupboards":3349,"Ġcookies":3350,"Ġbasketball":3351,"spital":3352,"avy":3353,"Ġminiature":3354,"Ġfollowing":3355,"Ġcondim":3356,"Ġexhib":3357,"Bus":3358,"Do":3359,"Ve":3360,"car":3361,"vy":3362,"wood":3363,"Ġaud":3364,"Ġsad":3365,"Ġbit":3366,"ises":3367,"Ġhum":3368,"Ġdusk":3369,"Ġlighting":3370,"chair":3371,"ider":3372,"Ġthick":3373,"ables":3374,"Ġrad":3375,"Ġposed":3376,"Ġconne":3377,"Ġconvers":3378,"Ġhomemade":3379,"Ġrainbow":3380,"Ġpickle":3381,"Ġbalc":3382,"Ġcardboard":3383,"Ġprin":3384,"Ġsize":3385,"Ġolives":3386,"Ġtrolley":3387,"Pizza":3388,"ew":3389,"mpt":3390,"oe":3391,"town":3392,"ux":3393,"Ġahead":3394,"inese":3395,"Ġsu":3396,"attered":3397,"isting":3398,"Ġstage":3399,"ories":3400,"olf":3401,"Ġyou":3402,"Ġjar":3403,"Ġwears":3404,"Ġopening":3405,"Ġpatch":3406,"Ġtravels":3407,"Ġsleeps":3408,"Ġmattress":3409,"brary":3410,"Ġturning":3411,"Ġawa":3412,"Ġonlook":3413,"Ġsteeple":3414,"Ġsavanna":3415,"'t":3416,"Brown":3417,"TURE":3418,"US":3419,"outh":3420,"was":3421,"Ġic":3422,"Ġbri":3423,"ited":3424,"Ġpin":3425,"ront":3426,"Ġdump":3427,"ord":3428,"opy":3429,"Ġbeg":3430,"eboard":3431,"Ġsec":3432,"aste":3433,"Ġcold":3434,"ĠTABLE":3435,"Ġshirtless":3436,"ĠIT":3437,"ANDING":3438,"Ġdelicious":3439,"Ġclay":3440,"Ġpaws":3441,"Ġstrawberries":3442,"Motorcycle":3443,"Assort":3444,"Blue":3445,"EL":3446,"UR":3447,"gage":3448,"ience":3449,"ok":3450,"py":3451,"rit":3452,"Ġill":3453,"Ġtire":3454,"Ġsug":3455,"Ġcalm":3456,"erry":3457,"erries":3458,"roccoli":3459,"Ġfishing":3460,"ckey":3461,"irds":3462,"ility":3463,"Ġpara":3464,"amic":3465,"inds":3466,"Ġbacks":3467,"Ġlear":3468,"Ġcomple":3469,"Ġmobile":3470,"Ġcollage":3471,"Ġbrushes":3472,"Ġgoat":3473,"Ġgrazes":3474,"Ġunmade":3475,"Ġprogress":3476,"Ġcontrols":3477,"Ġpicking":3478,"olded":3479,"Ġhospital":3480,"Ġburger":3481,"Ġadvertising":3482,"Ġentertain":3483,"Ġcomforter":3484,"athroom":3485,"Ġblonde":3486,"Adult":3487,"Ġnapkin":3488,"Ġlounging":3489,"Ġcollar":3490,"Ġlarger":3491,"Ġexhibit":3492,"washer":3493,"men":3494,"nd":3495,"od":3496,"zer":3497,"zen":3498,"Ġass":3499,"Ġson":3500,"Ġwarm":3501,"Ġgolf":3502,"Ġlab":3503,"Ġskirt":3504,"Ġbou":3505,"anta":3506,"Ġfluffy":3507,"Ġsurfs":3508,"Ġlif":3509,"Ġspin":3510,"Ġspray":3511,"Ġchees":3512,"Ġcliff":3513,"Ġslopes":3514,"Ġresort":3515,"Ġdishwasher":3516,"lowers":3517,"Ġapron":3518,"Ġlocated":3519,"Ġgathering":3520,"Ġattempt":3521,"Ġblowing":3522,"THIS":3523,"Ġceramic":3524,"FF":3525,"To":3526,"com":3527,"Ġtin":3528,"Ġtries":3529,"Ġsix":3530,"Ġbra":3531,"Ġple":3532,"Ġcran":3533,"Ġhugg":3534,"Ġstir":3535,"icolored":3536,"Ġvol":3537,"Ġplaid":3538,"Ġlibrary":3539,"ental":3540,"ĠWOM":3541,"Ġchewing":3542,"Ġbaggage":3543,"Ġtyping":3544,"Ġgreat":3545,"Ġmuddy":3546,"Ġowner":3547,"Ġmagnets":3548,"Ġchili":3549,"Ġhamburger":3550,"Ġribbon":3551,"Ġbalcony":3552,"Little":3553,"On":3554,"right":3555,"Ġtun":3556,"ither":3557,"Ġpop":3558,"Ġpige":3559,"anan":3560,"Ġfans":3561,"Ġfrisbe":3562,"Ġlane":3563,"Ġneon":3564,"ersey":3565,"Ġbeef":3566,"Ġeither":3567,"Ġval":3568,"Ġfixt":3569,"Ġshut":3570,"Ġdowntown":3571,"Ġwinds":3572,"Ġarrow":3573,"Ġprocess":3574,"aker":3575,"ĠPIC":3576,"Ġpancakes":3577,"ĠDO":3578,"Ġdryer":3579,"Ġsailboat":3580,"Ġteams":3581,"Ġdesserts":3582,"Ġformal":3583,"Ġdesigned":3584,"Ġgolden":3585,"Ġcircular":3586,"Ġentrance":3587,"Ġexten":3588,"Ġdriveway":3589,"Ġmostly":3590,"Ġtaxi":3591,"Ġorganized":3592,"Bathroom":3593,"ka":3594,"my":3595,"Ġwings":3596,"Ġpony":3597,"Ġcru":3598,"arp":3599,"Ġfurry":3600,"Ġstares":3601,"use":3602,"Ġread":3603,"Ġshadow":3604,"Ġbusses":3605,"Ġbuff":3606,"Ġjersey":3607,"Ġheading":3608,"ĠAir":3609,"asty":3610,"Ġbunk":3611,"Ġdriver":3612,"Ġsaf":3613,"Ġprepare":3614,"Ġhose":3615,"Ġmulticolored":3616,"Ġmarina":3617,"Ġwashing":3618,"Ġgloves":3619,"Ġteenag":3620,"Ġstraight":3621,"ĠWHITE":3622,"Ġonlookers":3623,".\"":3624,"AM":3625,"Ro":3626,"Yellow":3627,"aks":3628,"colored":3629,"ders":3630,"Ġav":3631,"Ġown":3632,"Ġpri":3633,"Ġgaz":3634,"omen":3635,"ette":3636,"unks":3637,"ops":3638,"Ġcob":3639,"Ġrusted":3640,"ĠAN":3641,"Ġintere":3642,"ague":3643,"ĠTRA":3644,"Ġcuts":3645,"Ġflooring":3646,"Ġprote":3647,"Ġboots":3648,"Ġamount":3649,"Ġcandy":3650,"Ġenjoy":3651,"ival":3652,"Ġchecking":3653,"Ġtwin":3654,"plane":3655,"IDE":3656,"Ġsimple":3657,"Ġcondiments":3658,"Ġbouquet":3659,"ĠPICTURE":3660,"Banan":3661,"Co":3662,"EAR":3663,"Kit":3664,"med":3665,"ora":3666,"where":3667,"Ġaerial":3668,"Ġsus":3669,"Ġsets":3670,"Ġbaking":3671,"Ġmom":3672,"Ġmain":3673,"icely":3674,"Ġthan":3675,"rimp":3676,"Ġears":3677,"Ġtractor":3678,"Ġsha":3679,"Ġgroc":3680,"Ġflood":3681,"Ġwatering":3682,"ruck":3683,"umbo":3684,"ught":3685,"Ġlevel":3686,"Ġasian":3687,"Ġscar":3688,"ĠBAT":3689,"Ġpropped":3690,"arent":3691,"Ġcontents":3692,"ĠPL":3693,"Ġpitching":3694,"Ġcanopy":3695,"Ġscreens":3696,"ondon":3697,"Ġsquat":3698,"Ġfreshly":3699,"Ġdevices":3700,"Ġcrust":3701,"Ġinterior":3702,"Ġsyst":3703,"Ġleaping":3704,"Ġmoped":3705,"Ġaccessories":3706,"Ġmagazine":3707,"Ġaudience":3708,"Ġsugar":3709,"Ġentertainment":3710,"Be":3711,"Birds":3712,"LO":3713,"met":3714,"ral":3715,"Ġband":3716,"Ġbiting":3717,"ano":3718,"Ġcush":3719,"Ġdot":3720,"ennis":3721,"Ġnat":3722,"elves":3723,"Ġrose":3724,"Ġtablet":3725,"Ġsharing":3726,"Ġshining":3727,"Ġupon":3728,"Ġsne":3729,"Ġcomb":3730,"Ġhorns":3731,"Ġheart":3732,"Ġalley":3733,"ĠBA":3734,"Ġsteak":3735,"Ġgrilled":3736,"Ġworkers":3737,"Ġdrawers":3738,"ĠSTANDING":3739,"Skiers":3740,"Horses":3741,"Ġgentleman":3742,"ĠPLAYING":3743,"Ġevening":3744,"Ġcereal":3745,"Al":3746,"Broccoli":3747,"CE":3748,"Train":3749,"TWO":3750,"pass":3751,"white":3752,"Ġodd":3753,"Ġwand":3754,"ateboard":3755,"Ġthems":3756,"Ġfolded":3757,"Ġgri":3758,"Ġgran":3759,"Ġstorm":3760,"Ġnumer":3761,"Ġnicely":3762,"Ġreach":3763,"Ġshaking":3764,"Ġshrimp":3765,"Ġcarts":3766,"Ġcomes":3767,"Ġjumbo":3768,"Ġskiis":3769,"ently":3770,"pper":3771,"Ġcafe":3772,"Ġslightly":3773,"Ġscattered":3774,"Ġlighthouse":3775,"ĠWI":3776,"Ġunique":3777,"Ġload":3778,"Ġword":3779,"ustom":3780,"Ġseats":3781,"gged":3782,"wards":3783,"Giraffe":3784,"Ġiron":3785,"Ġspinach":3786,"Ġhugging":3787,"ĠWOMAN":3788,"res":3789,"Ġcustom":3790,"Ġfab":3791,"Ġhung":3792,"althy":3793,"Ġstory":3794,"Ġmans":3795,"hers":3796,"Ġcoach":3797,"Ġplayed":3798,"ctive":3799,"Ġlean":3800,"Ġmove":3801,"quets":3802,"Ġskyline":3803,"angu":3804,"ĠPAR":3805,"Ġcanoe":3806,"Ġrails":3807,"Ġtoothp":3808,"Ġsilverware":3809,"Ġpickles":3810,"Ġgrand":3811,"Ġworker":3812,"bbing":3813,"Ġamongst":3814,"Ġframed":3815,"Ġchopped":3816,"Ġcircle":3817,"Ġmask":3818,"Ġdepic":3819,"IGH":3820,"Ġfinger":3821,"Ġconnected":3822,"Ġnatural":3823,"Ġthemselves":3824,"Col":3825,"Food":3826,"Women":3827,"gy":3828,"hou":3829,"ole":3830,"tor":3831,"Ġel":3832,"Ġsle":3833,"Ġcig":3834,"Ġcool":3835,"att":3836,"Ġfa":3837,"Ġhiding":3838,"Ġdust":3839,"Ġtor":3840,"Ġnuts":3841,"Ġnintendo":3842,"ope":3843,"icle":3844,"rib":3845,"These":3846,"Ġchasing":3847,"Ġpoint":3848,"Ġoverc":3849,"anger":3850,"Ġsunlight":3851,"Ġunus":3852,"vely":3853,"Ġworks":3854,"Ġnightstand":3855,"Ġorder":3856,"Ġleaving":3857,"Ġforeign":3858,"ggy":3859,"Ġstatues":3860,"Ġfreight":3861,"Ġbelt":3862,"Ġshorel":3863,"ĠChinese":3864,"Ġquil":3865,"Ġbalancing":3866,"Ġdesigns":3867,"Ġturkey":3868,"Ġprodu":3869,"Ġbearded":3870,"Closeup":3871,"Ġmuffin":3872,"Elephants":3873,"Ġvolley":3874,"Ġsystem":3875,"AS":3876,"KE":3877,"Sh":3878,"dered":3879,"ze":3880,"Ġtus":3881,"Ġbak":3882,"Ġfather":3883,"ened":3884,"Ġlink":3885,"Ġlangu":3886,"raying":3887,"ided":3888,"Ġstance":3889,"Ġgrabbing":3890,"Ġcloset":3891,"Ġpiano":3892,"ption":3893,"Ġdisk":3894,"Ġcourtyard":3895,"Ġgogg":3896,"icker":3897,"Ġprot":3898,"Ġthemed":3899,"Ġracquets":3900,"Ġstrip":3901,"decker":3902,"Skateboard":3903,"Ġfunny":3904,"covered":3905,"OOD":3906,"Ġconsisting":3907,"Ġadjus":3908,"ROUND":3909,"Ġmotorbike":3910,"Ġillumin":3911,"Ġsuspen":3912,"Ġfabric":3913,"Ġshoreline":3914,"Ġgoggles":3915,"VER":3916,"gant":3917,"ifferent":3918,"ters":3919,"vated":3920,"Ġoper":3921,"Ġbin":3922,"asting":3923,"Ġneed":3924,"ried":3925,"Ġskin":3926,"Ġvend":3927,"ighbor":3928,"stri":3929,"Ġgives":3930,"Ġlicking":3931,"Ġwear":3932,"Ġcare":3933,"Ġdispen":3934,"Ġmotorcyclist":3935,"Ġtag":3936,"Ġcellphones":3937,"iflower":3938,"Ġarri":3939,"ĠBen":3940,"Ġcrossed":3941,"Ġador":3942,"Ġseries":3943,"Ġbars":3944,"Ġrailway":3945,"Ġmaterial":3946,"ĠLondon":3947,"ooters":3948,"Ġfootball":3949,"Ġfriend":3950,"Ġmusic":3951,"Ġladder":3952,"ucumb":3953,"Ġstretching":3954,"Ġsizes":3955,"Ġwarning":3956,"Ġjockey":3957,"Ġsnacks":3958,"Ġporch":3959,"Ġmeeting":3960,"Ġfixtures":3961,"Bananas":3962,"Ġgrocery":3963,"Ġflooded":3964,"Ġscarf":3965,"Ġgranite":3966,"ĠWII":3967,"Ġtusks":3968,"Ġbakery":3969,"drop":3970,"hand":3971,"ls":3972,"work":3973,"zy":3974,"Ġtasty":3975,"Ġsla":3976,"Ġbugg":3977,"Ġpump":3978,"Ġcases":3979,"Ġcucumb":3980,"Ġins":3981,"Ġlis":3982,"ests":3983,"Ġsite":3984,"illa":3985,"Ġthumb":3986,"Ġreally":3987,"vey":3988,"uliflower":3989,"Ġraft":3990,"Ġkitty":3991,"oney":3992,"Ġoverpass":3993,"Ġdesks":3994,"Ġbuns":3995,"Ġunc":3996,"ĠPH":3997,"ĠHOL":3998,"Ġsailboats":3999,"Ġhardwood":4000,"Ġfigure":4001,"Ġseagulls":4002,"Ġlambs":4003,"Ġpattern":4004,"Ġsoftball":4005,"Ġfreezer":4006,"Ġdimly":4007,"Ġvalley":4008,"HROOM":4009,"Pair":4010,"hood":4011,"za":4012,"Ġwre":4013,"Ġwicker":4014,"erness":4015,"Ġfair":4016,"Ġmay":4017,"Ġdro":4018,"rage":4019,"Ġreg":4020,"Ġplaza":4021,"Ġplan":4022,"Ġshades":4023,"Ġparach":4024,"Ġyouth":4025,"anda":4026,"ells":4027,"Ġbackyard":4028,"Ġleague":4029,"Ġstops":4030,"Ġspraying":4031,"ĠCH":4032,"Ġbesides":4033,"Ġproject":4034,"Ġcupcake":4035,"aret":4036,"Ġlogs":4037,"Ġcookie":4038,"Ġobst":4039,"Ġcountryside":4040,"istic":4041,"Ġtrunks":4042,"Ġoppon":4043,"Ġchefs":4044,"Ġpeeking":4045,"Ġseparate":4046,"Ġcastle":4047,"Ġsniffing":4048,"Ġsavannah":4049,"Ġinteresting":4050,"Ġtoothpaste":4051,"Ġovercast":4052,"ighborhood":4053,"IE":4054,"ring":4055,"xes":4056,"ĠThe":4057,"ĠHE":4058,"Ġact":4059,"Ġbund":4060,"Ġhooked":4061,"labor":4062,"illage":4063,"Ġrec":4064,"Ġvillage":4065,"Ġfixing":4066,"Ġparrot":4067,"amond":4068,"Ġraised":4069,"Ġwaterf":4070,"Ġsideways":4071,"Ġbackdrop":4072,"Ġelegant":4073,"Ġheavy":4074,"Ġhealthy":4075,"Ġseas":4076,"Ġscooters":4077,"Ġspac":4078,"Ġdiamond":4079,"Ġsoap":4080,"ĠSN":4081,"Ġheaded":4082,"uffed":4083,"Ġunf":4084,"uddle":4085,"Ġpean":4086,"toon":4087,"Ġposter":4088,"Ġgrin":4089,"Ġnoteb":4090,"Ġwilderness":4091,"Ġpaddling":4092,"Ġpeeled":4093,"Plate":4094,"Ġdigital":4095,"Ġsuite":4096,"Ġtunnel":4097,"ĠDOG":4098,"Ġcigaret":4099,"Ġquilt":4100,"Ġobstac":4101,"aw":4102,"black":4103,"ixt":4104,"iving":4105,"Ġ,":4106,"Ġtalk":4107,"Ġcall":4108,"Ġfry":4109,"Ġhi":4110,"alt":4111,"Ġge":4112,"Ġgoo":4113,"Ġloun":4114,"Ġstrol":4115,"lay":4116,"oping":4117,"ably":4118,"rier":4119,"Ġroast":4120,"ument":4121,"acks":4122,"Ġbathing":4123,"Ġjung":4124,"Ġwading":4125,"Ġconvey":4126,"Ġsplas":4127,"eren":4128,"ĠFRO":4129,"ĠCAR":4130,"ĠCOU":4131,"Ġhaul":4132,"Ġguard":4133,"Ġlob":4134,"Ġserv":4135,"ĠInd":4136,"Ġbarrel":4137,"Ġwhen":4138,"Ġsilhou":4139,"AND":4140,"Ġamid":4141,"Ġtrim":4142,"Ġpackage":4143,"Ġcostumes":4144,"Ġfurnished":4145,"OOKING":4146,"Ġcomfort":4147,"Ġpatterned":4148,"Ġleafy":4149,"Surfer":4150,"Ġobserving":4151,"Ġphotographer":4152,"Ġballoons":4153,"Snowboard":4154,"Ġconversation":4155,"Ġsecond":4156,"Ġattempts":4157,"Ġsneakers":4158,"Ġlisten":4159,"ĠHOLDING":4160,"Ġlounge":4161,"Ġjungle":4162,"AP":4163,"Air":4164,"CHE":4165,"Don":4166,"Her":4167,"ipping":4168,"sely":4169,"ta":4170,"Ġtrough":4171,"resh":4172,"Ġcone":4173,"isc":4174,"Ġfill":4175,"Ġfest":4176,"Ġneighborhood":4177,"ebo":4178,"Ġbats":4179,"Ġcauliflower":4180,"Ġdesc":4181,"Ġslow":4182,"Ġappear":4183,"Ġmales":4184,"angular":4185,"Ġdaytime":4186,"Ġcrosses":4187,"Ġstorage":4188,"Ġdecoration":4189,"Ġpolka":4190,"cloth":4191,"gging":4192,"ĠGRA":4193,"Ġpoliceman":4194,"Ġdirect":4195,"ĠEng":4196,"LACK":4197,"Ġterrain":4198,"Ġrepair":4199,"Ġawaiting":4200,"Ġbuffet":4201,"Ġsafety":4202,"Ġcobble":4203,"Color":4204,"Ġopponent":4205,"Car":4206,"Kids":4207,"Six":4208,"Tennis":4209,"dled":4210,"eled":4211,"fts":4212,"obile":4213,"tie":4214,"Ġ4":4215,"Ġtee":4216,"Ġbill":4217,"Ġant":4218,"Ġmes":4219,"Ġmass":4220,"Ġmixt":4221,"ending":4222,"Ġlim":4223,"rait":4224,"urning":4225,"Ġarena":4226,"olice":4227,"Ġath":4228,"Ġbean":4229,"Ġrecl":4230,"Ġkay":4231,"Ġtablecloth":4232,"umn":4233,"Ġupright":4234,"uld":4235,"Ġwaterway":4236,"Ġcaught":4237,"Ġtowing":4238,"Ġlighted":4239,"Ġcellular":4240,"ift":4241,"ific":4242,"ĠWAT":4243,"Ġgoal":4244,"ipe":4245,"Ġarray":4246,"Ġdressing":4247,"ugged":4248,"Ġprov":4249,"lers":4250,"Ġknives":4251,"Ġdoubles":4252,"Ġpeace":4253,"Ġbarbed":4254,"Ġphotographs":4255,"Ġshops":4256,"Ġnote":4257,"Ġpens":4258,"Ġturns":4259,"Ġclutter":4260,"Ġfoggy":4261,"Ġpedestal":4262,"Ġornam":4263,"Ġbikini":4264,"Ġclassroom":4265,"Ġshrubb":4266,"ĠBOARD":4267,"Ġfigurine":4268,"coming":4269,"ĠBATHROOM":4270,"Ġfauc":4271,"Ġdispenser":4272,"laborate":4273,"ĠSNOW":4274,"Ġpeanut":4275,"Ġgrinding":4276,"Ġmixture":4277,"ACH":4278,"Stop":4279,"like":4280,"ough":4281,"rat":4282,"Ġident":4283,"Ġberries":4284,"Ġwo":4285,"Ġparent":4286,"Ġcher":4287,"Ġcrib":4288,"unches":4289,"idy":4290,"oored":4291,"Ġbeak":4292,"Ġrece":4293,"Ġclosely":4294,"Ġblinds":4295,"Ġcompartment":4296,"Ġtape":4297,"Ġdried":4298,"Ġsaying":4299,"ĠFL":4300,"ĠBig":4301,"Ġclus":4302,"Ġkeys":4303,"Ġpairs":4304,"Ġmonkey":4305,"Ġmeats":4306,"Ġjetliner":4307,"ATING":4308,"Ġflav":4309,"Ġbutt":4310,"ĠUP":4311,"ĠUS":4312,"Ġtourists":4313,"Ġpowdered":4314,"Ġbeverages":4315,"IGN":4316,"Ġreflecting":4317,"Ġinfant":4318,"ERSON":4319,"Ġconferen":4320,"Ġtransportation":4321,"Ġlearning":4322,"Kitchen":4323,"Ġsquatting":4324,"Skateboarder":4325,"Ġinspe":4326,"Ġobstacle":4327,"Colorful":4328,"EP":4329,"Fruit":4330,"IV":4331,"Ph":4332,"UN":4333,"ales":4334,"bag":4335,"port":4336,"uro":4337,"ucks":4338,"Ġtux":4339,"Ġocc":4340,"Ġsuch":4341,"Ġbay":4342,"ities":4343,"Ġwill":4344,"Ġpanda":4345,"Ġfighting":4346,"Ġmall":4347,"Ġdet":4348,"orting":4349,"Ġmane":4350,"Ġrect":4351,"Ġcoast":4352,"Ġkissing":4353,"Ġfrozen":4354,"Ġcartoon":4355,"Ġbasin":4356,"Ġgrassland":4357,"Ġherding":4358,"pple":4359,"Ġware":4360,"agle":4361,"apan":4362,"ĠSM":4363,"ĠBLACK":4364,"Ġhangar":4365,"REE":4366,"Ġboog":4367,"Ġposts":4368,"Ġjackets":4369,"Ġspeakers":4370,"Ġapart":4371,"Ġwrapper":4372,"OTO":4373,"Ġchained":4374,"Ġindoors":4375,"Ġentering":4376,"Ġteenage":4377,"Ġreflected":4378,"Ġcelebrating":4379,"Ġbegin":4380,"Assorted":4381,"Ġcrane":4382,"Ġwindsurf":4383,"Ġproducts":4384,"Ġlanguage":4385,"Ġvendor":4386,"Ġbuggy":4387,"Ġshrubbery":4388,"Ġconference":4389,"Different":4390,"Sc":4391,"arel":4392,"een":4393,"ker":4394,"ode":4395,"sa":4396,"ws":4397,"Ġtatt":4398,"Ġtasting":4399,"ances":4400,"Ġcop":4401,"Ġcree":4402,"Ġcast":4403,"Ġcans":4404,"Ġcud":4405,"Ġany":4406,"Ġfed":4407,"Ġstrange":4408,"orn":4409,"icop":4410,"Ġroaming":4411,"Ġkeep":4412,"stone":4413,"Ġblood":4414,"Ġpod":4415,"Ġposs":4416,"Ġpocket":4417,"Ġjars":4418,"Ġelevated":4419,"Ġgreenery":4420,"Ġwaff":4421,"Ġmov":4422,"Ġdec":4423,"Ġdef":4424,"Ġdiv":4425,"vest":4426,"ĠWAL":4427,"Ġdrivers":4428,"Ġpress":4429,"Ġheadboard":4430,"Ġworn":4431,"Ġdonkey":4432,"Ġmeas":4433,"Ġcurved":4434,"ude":4435,"ANT":4436,"ĠLOT":4437,"Ġsticker":4438,"Ġexam":4439,"lights":4440,"Ġreturning":4441,"Ġtourist":4442,"Ġutility":4443,"Ġpositioned":4444,"Ġbikers":4445,"Ġstrawberry":4446,"Ġcubicle":4447,"Ġpineapp":4448,"Ġdelivery":4449,"Ġlemons":4450,"Comp":4451,"Ġarchite":4452,"Ġhuman":4453,"Ġbrief":4454,"Ġcomplete":4455,"Ġpigeons":4456,"Ġcushion":4457,"Ġuncooked":4458,"ĠPHOTO":4459,"Ġparachute":4460,"Ġconveyor":4461,"Ġfaucet":4462,"Ġboogie":4463,"Ġtattoo":4464,"Hot":4465,"Pedest":4466,"dit":4467,"ient":4468,"vi":4469,"Ġ5":4470,"inished":4471,"Ġtight":4472,"Ġtiss":4473,"Ġfat":4474,"Ġmel":4475,"Ġmap":4476,"Ġdug":4477,"alled":4478,"Ġgreet":4479,"Ġnow":4480,"urred":4481,"igating":4482,"ics":4483,"Ġthird":4484,"Ġatten":4485,"riental":4486,"Ġrecor":4487,"Ġelaborate":4488,"Ġrot":4489,"Ġplugged":4490,"vering":4491,"Ġchand":4492,"ama":4493,"sticks":4494,"Ġairbor":4495,"Ġring":4496,"ughter":4497,"Ġwere":4498,"Ġweird":4499,"Ġboarders":4500,"Ġstopping":4501,"ĠTWO":4502,"dless":4503,"Ġbigger":4504,"Ġknit":4505,"Ġbagel":4506,"Ġcanal":4507,"Ġplanter":4508,"Ġhelicop":4509,"ĠHOR":4510,"Ġscenic":4511,"Stuffed":4512,"Ġstalls":4513,"Ġmessage":4514,"Ġknees":4515,"Ġcrouching":4516,"Ġapproaches":4517,"Boats":4518,"Ġsmoking":4519,"Ġinclude":4520,"Ġportrait":4521,"Ġowl":4522,"Ġstudents":4523,"Ġtossing":4524,"Veget":4525,"ritish":4526,"Ġfrisbees":4527,"Couple":4528,"IGHT":4529,"Ġslee":4530,"Ġilluminated":4531,"Ġthumbs":4532,"Ġcigarette":4533,"Ġlistening":4534,"apanese":4535,"Pedestri":4536,"BO":4537,"ILE":4538,"Lots":4539,"Out":4540,"ST":4541,"Un":4542,"af":4543,"den":4544,"ex":4545,"father":4546,"flowers":4547,"green":4548,"truck":4549,"val":4550,"view":4551,"Ġes":4552,"Ġado":4553,"Ġbad":4554,"Ġpig":4555,"erman":4556,"Ġinstruction":4557,"Ġanch":4558,"Ġmin":4559,"Ġhal":4560,"Ġtoo":4561,"Ġnav":4562,"ooth":4563,"Ġthing":4564,"Ġrob":4565,"Ġplains":4566,"Ġgrown":4567,"amb":4568,"Ġsnugg":4569,"Ġcarn":4570,"asseng":4571,"tering":4572,"Ġskater":4573,"Ġselection":4574,"uble":4575,"Ġslide":4576,"Ġtags":4577,"Ġtext":4578,"Ġtreats":4579,"INK":4580,"ĠSOM":4581,"ĠSanta":4582,"Ġmaj":4583,"Ġvegetation":4584,"ĠCan":4585,"ĠCLO":4586,"Ġpeel":4587,"close":4588,"Ġbookcase":4589,"Ġslicing":4590,"ĠLOOKING":4591,"Ġtube":4592,"Ġtrio":4593,"Ġexc":4594,"Ġdrawing":4595,"Ġdrawer":4596,"Ġarmy":4597,"ĠSTOP":4598,"Ġpads":4599,"ĠRo":4600,"Ġpoints":4601,"Ġharness":4602,"Ġoutfits":4603,"scra":4604,"Ġfarmer":4605,"Ġfashion":4606,"Ġmashed":4607,"Ġelectrical":4608,"Ġrustic":4609,"Ġcaption":4610,"Ġpresent":4611,"Ġradio":4612,"Motorcycles":4613,"Ġcruise":4614,"Ġteenager":4615,"Ġhauling":4616,"urope":4617,"ditional":4618,"Ġairborne":4619,"City":4620,"Fresh":4621,"Open":4622,"Passeng":4623,"Sign":4624,"Very":4625,"dles":4626,"hol":4627,"ively":4628,"life":4629,"rup":4630,"tal":4631,"uched":4632,"Ġid":4633,"ined":4634,"Ġtro":4635,"Ġpay":4636,"Ġpane":4637,"ert":4638,"Ġhanding":4639,"ower":4640,"Ġnur":4641,"ution":4642,"aby":4643,"Ġrelish":4644,"Ġtrave":4645,"Ġplaces":4646,"Ġsharp":4647,"Ġgrab":4648,"Ġcarry":4649,"Ġblu":4650,"Ġyounger":4651,"Ġforks":4652,"Ġbackwards":4653,"Ġlie":4654,"That":4655,"Ġroadside":4656,"Ġwaving":4657,"Ġdest":4658,"ĠApple":4659,"Ġswe":4660,"ational":4661,"Ġdip":4662,"Ġrunner":4663,"ĠSH":4664,"ĠSIDE":4665,"ĠSIGN":4666,"ĠCOM":4667,"Ġrefrigerators":4668,"ĠPERSON":4669,"Ġserves":4670,"Ġkeyboards":4671,"Ġlining":4672,"Ġbarbe":4673,"Ġrowing":4674,"Ġpathway":4675,"Ġcatchers":4676,"Ġsails":4677,"Ġstaircase":4678,"Ġdual":4679,"Ġwheelchair":4680,"Ġspoons":4681,"ĠKIT":4682,"Ġsilly":4683,"Ġdepot":4684,"Ġprint":4685,"Ġexpress":4686,"Ġstrapped":4687,"Ġclassic":4688,"Ġmuffins":4689,"Ġdaughter":4690,"ĠSKATE":4691,"FFE":4692,"Ġextended":4693,"ĠPARK":4694,"Ġunusual":4695,"Ġsuspended":4696,"Ġunfinished":4697,"Ġservice":4698,"Herd":4699,"Ġtuxed":4700,"Ġrectangular":4701,"Computer":4702,"Ġhelicopter":4703,"Long":4704,"NIS":4705,"Police":4706,"emb":4707,"hat":4708,"osed":4709,"ĠZ":4710,"ĠĠĠĊ":4711,"Ġtry":4712,"Ġtidy":4713,"Ġsum":4714,"Ġpug":4715,"Ġputs":4716,"Ġcome":4717,"atter":4718,"rots":4719,"Ġwithin":4720,"Ġdam":4721,"Ġgun":4722,"Ġstom":4723,"Ġstable":4724,"Ġstump":4725,"Ġnaked":4726,"elier":4727,"ico":4728,"Ġeas":4729,"Ġhistor":4730,"nishing":4731,"Ġtents":4732,"Ġrabb":4733,"phalt":4734,"Ġhear":4735,"Ġleads":4736,"Ġcompan":4737,"Ġmotorcyclists":4738,"ills":4739,"ĠAf":4740,"ĠAIR":4741,"Ġscale":4742,"Ġopens":4743,"Ġspro":4744,"Ġspeeding":4745,"Ġsplit":4746,"Ġcolle":4747,"ĠTEN":4748,"Ġskyscra":4749,"ĠWIN":4750,"Ġmidair":4751,"Ġhitter":4752,"Ġbabies":4753,"ĠBritish":4754,"Ġcamp":4755,"Ġlodge":4756,"Ġremain":4757,"someone":4758,"Ġbreaking":4759,"Ġhelp":4760,"Ġstores":4761,"Ġrocking":4762,"nequ":4763,"Ġstripes":4764,"Ġroller":4765,"Ġbutton":4766,"ĠEATING":4767,"ĠEurope":4768,"Ġspecial":4769,"Ġspeaking":4770,"Ġwasher":4771,"Ġbackpacks":4772,"Ġbalance":4773,"Ġdeserted":4774,"ĠUn":4775,"OWN":4776,"Ġcrack":4777,"ONE":4778,"Skier":4779,"Ġsignals":4780,"Ġcompeting":4781,"Cattle":4782,"Ġstretched":4783,"Ġcelery":4784,"Plates":4785,"Ġsyrup":4786,"Ġmedium":4787,"Ġindividuals":4788,"Ġparasa":4789,"Ġparasol":4790,"Ġshrubs":4791,"Ġcheesy":4792,"Ġshuttle":4793,"Ġpriv":4794,"ĠPLATE":4795,"Ġelse":4796,"Ġadorned":4797,"Ġspacious":4798,"Ġnotebook":4799,"ĠIndian":4800,"Snowboarder":4801,"Ġpodium":4802,"ĠWALKING":4803,"IM":4804,"La":4805,"Luggage":4806,"Sand":4807,"UE":4808,"Wood":4809,"aves":4810,"ipp":4811,"lat":4812,"sk":4813,"suit":4814,"ĠZebra":4815,"Ġtrop":4816,"Ġox":4817,"hedr":4818,"Ġcooks":4819,"Ġones":4820,"Ġfrying":4821,"Ġfoli":4822,"Ġfact":4823,"Ġmoored":4824,"Ġstre":4825,"Ġton":4826,"Ġwhipped":4827,"ushed":4828,"Ġshred":4829,"Ġshag":4830,"Ġupward":4831,"Ġblurred":4832,"Ġrings":4833,"Ġmenu":4834,"ĠAirl":4835,"ĠAROUND":4836,"Ġasphalt":4837,"Ġdeer":4838,"Ġtech":4839,"eaten":4840,"ĠFI":4841,"ĠBUS":4842,"Ġunlo":4843,"Ġlove":4844,"Ġemb":4845,"Ġknee":4846,"shield":4847,"pect":4848,"Ġcloudless":4849,"Ġattent":4850,"Ġshelving":4851,"ĠDe":4852,"Ġsquash":4853,"ROW":4854,"Ġsubur":4855,"THER":4856,"Ġmarried":4857,"Ġartistic":4858,"Ġfollow":4859,"Ġkettle":4860,"Ġhappily":4861,"ĠJapanese":4862,"Ġsprinkled":4863,"Ġpractice":4864,"Ġstunts":4865,"Surfers":4866,"Ġstarting":4867,"Ġseparated":4868,"Ġphotographed":4869,"Ġsoldiers":4870,"Ġfigurines":4871,"Ġindicating":4872,"All":4873,"Ġdepicting":4874,"strich":4875,"ĠGRASS":4876,"Pedestrians":4877,"Ġblueb":4878,"Ġstomach":4879,"Ġfoliage":4880,"Ġshaggy":4881,"AY":4882,"At":4883,"AIN":4884,"Mo":4885,"Male":4886,"Pro":4887,"Vintage":4888,"cue":4889,"fash":4890,"ik":4891,"ikes":4892,"no":4893,"ose":4894,"pris":4895,"ĠROOM":4896,"ination":4897,"Ġbump":4898,"Ġbamb":4899,"Ġwash":4900,"Ġcoo":4901,"Ġmural":4902,"Ġhind":4903,"Ġhip":4904,"Ġdone":4905,"Ġdash":4906,"Ġtouches":4907,"Ġmannequ":4908,"Ġnames":4909,"otic":4910,"rie":4911,"Ġreal":4912,"Ġshines":4913,"Ġgravy":4914,"andal":4915,"Ġpipes":4916,"str":4917,"elly":4918,"Ġbends":4919,"Ġcaution":4920,"Ġwindshield":4921,"Ġhandic":4922,"Ġscrat":4923,"Ġtex":4924,"Ġfloat":4925,"Ġhilly":4926,"ĠFrench":4927,"ĠBU":4928,"Ġfully":4929,"Ġdrying":4930,"Ġcolorfully":4931,"Ġmem":4932,"Ġmemb":4933,"Ġcurious":4934,"Ġdiner":4935,"Ġnumbers":4936,"Ġlayer":4937,"rican":4938,"Ġbald":4939,"Ġwrap":4940,"deled":4941,"Ġwinding":4942,"Ġretrie":4943,"Ġcrouches":4944,"ractive":4945,"Ġcrates":4946,"Ġcarpeted":4947,"Ġextra":4948,"Ġfurnishing":4949,"ibly":4950,"Ġtoasted":4951,"Comm":4952,"Ġinstalled":4953,"Vehic":4954,"Ġcustomers":4955,"Ġgrandfather":4956,"Ġdusty":4957,"Ġadjusting":4958,"ĠHER":4959,"Ġwaterfall":4960,"Ġstroller":4961,"Ġdirectly":4962,"ĠEnglish":4963,"Ġidentical":4964,"Ġmaneu":4965,"Ġwarehouse":4966,"Ġpossibly":4967,"ĠCanad":4968,"Ġexcited":4969,"Ġrabbit":4970,"hedral":4971,"fashioned":4972,"Ġbamboo":4973,"Ġfurnishings":4974,"50":4975,"AGE":4976,"Baby":4977,"Flowers":4978,"ION":4979,"Light":4980,"Orange":4981,"Par":4982,"Teddy":4983,"VE":4984,"count":4985,"des":4986,"gers":4987,"ha":4988,"mel":4989,"off":4990,"pan":4991,"rum":4992,"ym":4993,"Ġ6":4994,"Ġaff":4995,"iner":4996,"Ġtil":4997,"Ġtick":4998,"Ġpeng":4999,"Ġpork":5000,"Ġcass":5001,"Ġinvest":5002,"ishes":5003,"Ġfle":5004,"Ġferry":5005,"Ġmuch":5006,"Ġmoney":5007,"Ġhug":5008,"Ġges":5009,"Ġglowing":5010,"rable":5011,"lain":5012,"Ġneeds":5013,"urt":5014,"Ġwhit":5015,"Ġthru":5016,"Ġke":5017,"Ġplush":5018,"Ġchristmas":5019,"ummy":5020,"Ġcloud":5021,"ulated":5022,"Ġracks":5023,"Ġbedsp":5024,"Ġjunk":5025,"Ġhorned":5026,"Ġheard":5027,"pples":5028,"Ġconso":5029,"Ġtowed":5030,"Ġalco":5031,"Ġslides":5032,"Ġenvi":5033,"Ġbowling":5034,"ĠSHE":5035,"ments":5036,"Ġsau":5037,"Ġstationary":5038,"acting":5039,"venue":5040,"Ġperch":5041,"Ġbicyclists":5042,"Ġmonument":5043,"Ġbarrier":5044,"ITY":5045,"wear":5046,"ronment":5047,"ĠHIS":5048,"ĠGiraff":5049,"ĠGROU":5050,"Ġcleaned":5051,"ARGE":5052,"Ġcarriages":5053,"Ġwildlife":5054,"Ġpaintings":5055,"berries":5056,"Ġstained":5057,"OTOR":5058,"Ġchopsticks":5059,"Ġvisit":5060,"Ġcircus":5061,"Ġbiker":5062,"Horse":5063,"Ġfingers":5064,"Ġautom":5065,"Toilet":5066,"Ġwandering":5067,"Ġleaned":5068,"Ġcooling":5069,"Ġoperating":5070,"Ġskinny":5071,"Ġgeese":5072,"Ġlobby":5073,"Ġcobblestone":5074,"Ġantel":5075,"Ġcluster":5076,"Ġpineapple":5077,"Ġchandelier":5078,"ĠTENNIS":5079,"Ġtropical":5080,"Ġfactory":5081,"Ġtexting":5082,"Ġgesture":5083,"Ġenvironment":5084,"ĠGROUP":5085,"Bl":5086,"Big":5087,"IZ":5088,"Living":5089,"PLE":5090,"Sun":5091,"Tow":5092,"aff":5093,"bee":5094,"ock":5095,"pers":5096,"rid":5097,"ula":5098,"ually":5099,"woman":5100,"ĠTh":5101,"ĠRO":5102,"Ġtying":5103,"Ġtug":5104,"Ġoriental":5105,"Ġostrich":5106,"Ġble":5107,"itive":5108,"ern":5109,"Ġfit":5110,"Ġmous":5111,"alks":5112,"Ġgaming":5113,"Ġgym":5114,"Ġlimb":5115,"Ġtouch":5116,"eter":5117,"Ġna":5118,"allic":5119,"utes":5120,"ically":5121,"Ġskil":5122,"Ġcock":5123,"Ġrough":5124,"Ġrode":5125,"Ġvandal":5126,"Ġfix":5127,"Ġships":5128,"Ġparts":5129,"celain":5130,"amas":5131,"Ġcathedral":5132,"Ġsomewhere":5133,"Ġnearly":5134,"nish":5135,"Ġraw":5136,"Ġsignage":5137,"imate":5138,"Ġru":5139,"tery":5140,"Ġjam":5141,"Ġjelly":5142,"Ġled":5143,"ranges":5144,"Ġweeds":5145,"Ġbend":5146,"Ġroads":5147,"Ġwake":5148,"Ġcomplet":5149,"Ġboardwalk":5150,"Ġdemon":5151,"ĠTOP":5152,"Ġcutter":5153,"ĠSUR":5154,"Ġgour":5155,"Ġviewing":5156,"Ġviewed":5157,"Ġmacar":5158,"Ġmountainside":5159,"ĠFOR":5160,"ĠBIR":5161,"Ġhanger":5162,"Ġdresses":5163,"Ġmetro":5164,"Ġmetallic":5165,"Ġcupboard":5166,"Ġlocked":5167,"Ġkno":5168,"Ġcontra":5169,"Ġpeering":5170,"Ġdecked":5171,"Ġstepping":5172,"Ġhelps":5173,"ĠMOTOR":5174,"Ġseating":5175,"ĠDOWN":5176,"Ġtrip":5177,"ĠGerman":5178,"ĠNE":5179,"ĠNEAR":5180,"ERY":5181,"Smiling":5182,"Ġnotes":5183,"Ġshots":5184,"Ġpenc":5185,"Ġstacks":5186,"Ġpaj":5187,"Ġdirecting":5188,"Ġequipped":5189,"Ġbalances":5190,"Ġbloom":5191,"vention":5192,"OWER":5193,"Ġfarmers":5194,"ONG":5195,"acters":5196,"Ġfolding":5197,"Ġveggie":5198,"Ġstrings":5199,"Ġsculptures":5200,"Ġliquor":5201,"Ġfinished":5202,"Ġleaps":5203,"Ġspotted":5204,"ĠRED":5205,"Ġiced":5206,"ĠTRAIN":5207,"Ġslab":5208,"ĠFRONT":5209,"Ġsilhouette":5210,"CHEN":5211,"Ġfestival":5212,"Ġathlet":5213,"Ġprovide":5214,"Ġwindsurfing":5215,"Vegetables":5216,"Ġcarnival":5217,"Ġtuxedo":5218,"Laptop":5219,"Sandw":5220,"Ġshredded":5221,"ĠAirlines":5222,"country":5223,"Ġpengu":5224,"Ġbedspread":5225,"Ġconsole":5226,"AKE":5227,"CT":5228,"HING":5229,"Lady":5230,"Sil":5231,"Tour":5232,"UL":5233,"foot":5234,"front":5235,"gen":5236,"hin":5237,"park":5238,"ye":5239,"yle":5240,"young":5241,"Ġaler":5242,"Ġsol":5243,"inger":5244,"Ġwon":5245,"Ġwip":5246,"Ġpon":5247,"Ġpage":5248,"Ġpuddle":5249,"erole":5250,"ately":5251,"Ġinform":5252,"rome":5253,"Ġfile":5254,"Ġhun":5255,"Ġhad":5256,"alle":5257,"Ġgall":5258,"Ġgad":5259,"law":5260,"Ġnuzz":5261,"iday":5262,"Ġnecks":5263,"elle":5264,"used":5265,"Ġreve":5266,"Ġcoles":5267,"Ġever":5268,"Ġroman":5269,"Ġrobe":5270,"Ġvac":5271,"Ġyog":5272,"Ġoutst":5273,"Ġcarous":5274,"Ġgrouped":5275,"zzly":5276,"Ġjug":5277,"Ġzone":5278,"Ġtoiletries":5279,"Ġcong":5280,"Ġshed":5281,"Ġtagged":5282,"Ġwallp":5283,"Ġsco":5284,"Ġscru":5285,"box":5286,"Ġtemp":5287,"Ġswung":5288,"agon":5289,"agus":5290,"Ġfiretruck":5291,"ĠTR":5292,"Ġdipping":5293,"ĠSU":5294,"Ġchecks":5295,"Ġsauc":5296,"ĠFOOD":5297,"ĠBL":5298,"ĠBY":5299,"ĠOUT":5300,"ĠCITY":5301,"Ġclub":5302,"Ġprepar":5303,"Ġperches":5304,"Ġcurve":5305,"ĠItal":5306,"Ġramps":5307,"ocad":5308,"ĠLe":5309,"ĠLARGE":5310,"rong":5311,"ĠNew":5312,"Ġcommode":5313,"Ġengines":5314,"Ġbelong":5315,"Ġtakeoff":5316,"Ġsofas":5317,"Ġspeaker":5318,"Ġblocked":5319,"Ġlocal":5320,"Ġcroche":5321,"Ġcraft":5322,"CKS":5323,"Ġinteract":5324,"Ġinteracting":5325,"Ġstretches":5326,"Ġgoods":5327,"Boys":5328,"ILDING":5329,"Ġcelebration":5330,"Ġstudio":5331,"Ġnapkins":5332,"ĠSKI":5333,"Ġeverywhere":5334,"ĠBEACH":5335,"Ġautumn":5336,"Ġrubber":5337,"Ġstools":5338,"Ġprinter":5339,"Assortment":5340,"Ġlifting":5341,"Road":5342,"Ġavocad":5343,"Ġprotective":5344,"Ġnumerous":5345,"Ġprotest":5346,"Ġcucumbers":5347,"Ġcomfortably":5348,"iscuit":5349,"Ġmesh":5350,"ĠWATER":5351,"Ġbuttons":5352,"Ġcreek":5353,"Ġmovie":5354,"Ġmeasuring":5355,"Ġexamining":5356,"ILET":5357,"Ġadorable":5358,"Ġsweet":5359,"ĠKITCHEN":5360,"latable":5361,"Ġsuburban":5362,"Ġdashboard":5363,"ĠBUILDING":5364,"Ġcasserole":5365,"Ġkept":5366,"Ġskillet":5367,"Ġvandalized":5368,"Ġmacaroni":5369,"Ġpajamas":5370,"Ġgadget":5371,"Ġcoleslaw":5372,"Ġcarousel":5373,"Apples":5374,"Bic":5375,"Bird":5376,"Crowd":5377,"Em":5378,"Half":5379,"Oranges":5380,"Play":5381,"So":5382,"bing":5383,"dress":5384,"five":5385,"fect":5386,"lane":5387,"osing":5388,"person":5389,"pipe":5390,"rus":5391,"vil":5392,"ĠAn":5393,"Ġtim":5394,"Ġsup":5395,"Ġbiscuit":5396,"rew":5397,"Ġcot":5398,"Ġcent":5399,"Ġincoming":5400,"arn":5401,"Ġmill":5402,"Ġhud":5403,"Ġdancing":5404,"omebo":5405,"Ġstare":5406,"Ġstart":5407,"ased":5408,"ashing":5409,"lace":5410,"Ġnest":5411,"ury":5412,"urple":5413,"icip":5414,"Ġemp":5415,"Ġrod":5416,"Ġtram":5417,"Ġkicks":5418,"Ġstreetlight":5419,"Ġshaded":5420,"Ġshake":5421,"Ġchina":5422,"Ġchamp":5423,"Ġwatched":5424,"Ġrams":5425,"Ġrasp":5426,"Ġsurpris":5427,"Animal":5428,"Ġskates":5429,"Ġpoised":5430,"Ġskiier":5431,"Ġlens":5432,"Ġhandbag":5433,"Ġtreat":5434,"Ġspar":5435,"Ġspots":5436,"aging":5437,"agne":5438,"Ġfloats":5439,"aped":5440,"Ġbanner":5441,"Ġsour":5442,"ĠStop":5443,"Ġpreten":5444,"Ġmaker":5445,"Ġmidst":5446,"these":5447,"ĠBALL":5448,"ĠCo":5449,"ĠCAT":5450,"acent":5451,"achers":5452,"Ġunri":5453,"Ġunable":5454,"ushi":5455,"Ġcords":5456,"Ġclearing":5457,"Ġbicyclist":5458,"Ġsetup":5459,"Ġstew":5460,"Ġattractive":5461,"Ġpiles":5462,"ANE":5463,"Ġmarked":5464,"Ġfemales":5465,"Ġshapes":5466,"Ġfriz":5467,"Ġpitchers":5468,"Ġappliance":5469,"Ġfog":5470,"structed":5471,"Ġpointed":5472,"Ġcrouched":5473,"lined":5474,"Ġpowered":5475,"Ġcras":5476,"Ġdiscus":5477,"avily":5478,"Ġchopping":5479,"Ġcubs":5480,"Ġremodeled":5481,"Ġinflatable":5482,"Ġadjacent":5483,"Ġporcelain":5484,"ĠBOY":5485,"uminum":5486,"appy":5487,"Ġbullet":5488,"Ġangry":5489,"Ġbites":5490,"Ġbegins":5491,"Ġassemb":5492,"Ġteenagers":5493,"AME":5494,"Ġslowly":5495,"Ġoccup":5496,"ĠSMALL":5497,"Ġdugout":5498,"ĠHORSE":5499,"Ġsleek":5500,"BOARD":5501,"Ġanchored":5502,"Ġmajor":5503,"Passengers":5504,"Wooden":5505,"ĠDecker":5506,"Modern":5507,"ĠSURF":5508,"Ġoutstret":5509,"Empty":5510,"omebody":5511,"Ġchampagne":5512,"AIR":5513,"Bed":5514,"Bow":5515,"Bunches":5516,"Batter":5517,"Cl":5518,"Fem":5519,"Here":5520,"IF":5521,"IKE":5522,"Le":5523,"MP":5524,"PH":5525,"Purple":5526,"Slic":5527,"Table":5528,"YC":5529,"ai":5530,"band":5531,"cy":5532,"iator":5533,"ners":5534,"pid":5535,"toman":5536,"yl":5537,"zing":5538,"Ġult":5539,"Ġtide":5540,"Ġtarp":5541,"Ġoct":5542,"Ġsled":5543,"Ġbla":5544,"Ġwool":5545,"Ġpir":5546,"Ġpil":5547,"Ġpets":5548,"ana":5549,"reme":5550,"Ġcit":5551,"Ġcrow":5552,"erior":5553,"Ġmor":5554,"Ġhour":5555,"Ġdorm":5556,"ends":5557,"esting":5558,"Ġmantle":5559,"Ġnon":5560,"Ġareas":5561,"Ġrele":5562,"Ġeagle":5563,"Ġtraditional":5564,"Ġdozen":5565,"Ġshare":5566,"cept":5567,"nty":5568,"Ġyet":5569,"Ġchange":5570,"Ġchrome":5571,"ams":5572,"Ġtraining":5573,"Ġwalled":5574,"Ġram":5575,"Ġraising":5576,"Ġraises":5577,"inder":5578,"Ġwatermel":5579,"Ġrhin":5580,"Ġbedding":5581,"airy":5582,"Ġjeep":5583,"Ġottoman":5584,"Ġconvention":5585,"ĠAve":5586,"ĠAvenue":5587,"Ġalarm":5588,"Ġaluminum":5589,"Ġaspar":5590,"Ġteaching":5591,"Ġspre":5592,"Ġends":5593,"Ġflowing":5594,"Ġflowered":5595,"Ġmirrored":5596,"door":5597,"Ġtowering":5598,"ickly":5599,"Ġbest":5600,"Ġunit":5601,"Ġadm":5602,"Ġworld":5603,"Ġserious":5604,"Ġperfect":5605,"Ġtelevisions":5606,"Ġaged":5607,"Ġpeas":5608,"Ġpears":5609,"Ġallow":5610,"Ġbarren":5611,"Ġstems":5612,"Ġcemet":5613,"tock":5614,"Ġstriking":5615,"Ġengaged":5616,"Ġfaced":5617,"Ġmarsh":5618,"Ġgarnished":5619,"Ġfeatured":5620,"Ġchickens":5621,"Ġnewly":5622,"Ġnecktie":5623,"Ġoutfield":5624,"olli":5625,"Ġburnt":5626,"Ġdoesn":5627,"Ġsteamed":5628,"Ġmixing":5629,"Ġrelax":5630,"Ġclaim":5631,"Ġshoulders":5632,"Ġblocking":5633,"ĠTOILET":5634,"Ġcharacters":5635,"Adults":5636,"Ġbutterf":5637,"Ġ19":5638,"Ġcalled":5639,"Ġinstrum":5640,"uzzy":5641,"Buses":5642,"Ġtires":5643,"Ġpigeon":5644,"Ġshaving":5645,"Ġpumpk":5646,"Ġseason":5647,"Ġhiking":5648,"Donuts":5649,"Ġdescri":5650,"Ġmassive":5651,"Ġcuddling":5652,"Ġtissue":5653,"ĠCLOCK":5654,"Ġsummer":5655,"Ġdamaged":5656,"Ġsprouts":5657,"ĠUnited":5658,"Ġcrackers":5659,"Ġprivate":5660,"Ġmembers":5661,"Ġalcohol":5662,"Ġautomobile":5663,"Ġcompletely":5664,"Ġdemonstr":5665,"ĠBIRD":5666,"Ġoutstretched":5667,"Ġasparagus":5668,"Ġinstruments":5669,"Ex":5670,"MAN":5671,"NG":5672,"RT":5673,"SIDE":5674,"Tra":5675,"ZA":5676,"ah":5677,"bird":5678,"con":5679,"cot":5680,"fo":5681,"fruit":5682,"field":5683,"oy":5684,"yed":5685,"ĠZebras":5686,"Ġaim":5687,"Ġsells":5688,"Ġsushi":5689,"Ġbrow":5690,"Ġped":5691,"rent":5692,"Ġanal":5693,"Ġmer":5694,"Ġmis":5695,"Ġhom":5696,"Ġhur":5697,"Ġdom":5698,"Ġlime":5699,"Ġlux":5700,"Ġstating":5701,"ckets":5702,"etiz":5703,"oose":5704,"ote":5705,"Ġrel":5706,"Ġcoin":5707,"Ġcola":5708,"Ġcoke":5709,"Ġcould":5710,"Ġki":5711,"Ġplacing":5712,"Ġholiday":5713,"Ġyach":5714,"Ġyarn":5715,"Ġsmooth":5716,"amed":5717,"Ġpies":5718,"Ġgrouping":5719,"Ġrim":5720,"Ġbasil":5721,"Ġbuy":5722,"Ġblind":5723,"Ġran":5724,"Ġplayground":5725,"Ġherbs":5726,"Ġhorn":5727,"Ġheavily":5728,"Ġcompact":5729,"ĠAL":5730,"ĠAP":5731,"Ġintently":5732,"Ġhandles":5733,"Ġscra":5734,"Ġswan":5735,"Ġdiving":5736,"Ġsocks":5737,"Ġbrid":5738,"Seven":5739,"lymp":5740,"Ġbiplane":5741,"Ġappetiz":5742,"anging":5743,"Ġhydrants":5744,"Ġmountainous":5745,"Ġbron":5746,"ĠFor":5747,"ĠBR":5748,"ĠOne":5749,"arket":5750,"ĠCla":5751,"Ġsunlit":5752,"Ġprom":5753,"Ġloaf":5754,"atory":5755,"Ġtheme":5756,"Ġridding":5757,"ĠPO":5758,"Ġcanoes":5759,"Ġlinens":5760,"Ġpolo":5761,"Ġresid":5762,"Ġsteering":5763,"Ġshelter":5764,"ĠMEN":5765,"Ġdarkened":5766,"Ġnoses":5767,"rons":5768,"Ġmarker":5769,"Ġmarkers":5770,"ĠDES":5771,"Ġamer":5772,"Ġpicked":5773,"Ġholes":5774,"Ġwindowsill":5775,"Ġsquir":5776,"rict":5777,"Ġmarking":5778,"Ġmaroon":5779,"Ġgarlic":5780,"Ġfoam":5781,"Ġquickly":5782,"ivity":5783,"Ġletting":5784,"Ġlettering":5785,"LASS":5786,"Ġcroiss":5787,"Ġopposing":5788,"Clock":5789,"Ġcrate":5790,"Ġmixer":5791,"Ġlogo":5792,"Ġentree":5793,"Ġletters":5794,"Ġmugs":5795,"Ġsweatshirt":5796,"Ġbulls":5797,"Older":5798,"THREE":5799,"ILD":5800,"Ġhoodie":5801,"Inside":5802,"Ġfreeway":5803,"Ġmopeds":5804,"umerous":5805,"Ġrubbing":5806,"Ġsaddle":5807,"Ġhumming":5808,"Ġprinted":5809,"Ġbricks":5810,"ĠBASE":5811,"Ġvolleyball":5812,"Ġmaterials":5813,"Ġcucumber":5814,"Ġwrest":5815,"Ġprojector":5816,"Ġcherry":5817,"Ġinspecting":5818,"Ġbeginning":5819,"Scissors":5820,"Ġhalves":5821,"ĠSOME":5822,"Ġeasy":5823,"ĠAfrican":5824,"Ġattention":5825,"Professional":5826,"Vehicles":5827,"Ġticket":5828,"IZZA":5829,"Ġgourmet":5830,"Ġalert":5831,"Ġinformation":5832,"Ġyogurt":5833,"Ġwallpaper":5834,"Ġpreparation":5835,"ĠItalian":5836,"Ġbelongings":5837,"Ġfrizbee":5838,"Ġpirate":5839,"Ġmorning":5840,"AV":5841,"ASE":5842,"Con":5843,"Fire":5844,"Hand":5845,"IRA":5846,"IDING":5847,"Numerous":5848,"Spect":5849,"Wh":5850,"XT":5851,"dant":5852,"dated":5853,"eree":5854,"eler":5855,"ham":5856,"ma":5857,"noon":5858,"ox":5859,"pa":5860,"pher":5861,"press":5862,"tes":5863,"thing":5864,"uil":5865,"wise":5866,"what":5867,"Ġ'":5868,"Ġ7":5869,"Ġer":5870,"Ġip":5871,"Ġtu":5872,"Ġtet":5873,"Ġtelling":5874,"Ġovers":5875,"Ġsanta":5876,"Ġsided":5877,"Ġbor":5878,"Ġbid":5879,"anse":5880,"ready":5881,"Ġfine":5882,"Ġfuzzy":5883,"Ġdrain":5884,"Ġgot":5885,"Ġgown":5886,"oms":5887,"onely":5888,"orld":5889,"Ġnut":5890,"opus":5891,"eline":5892,"urs":5893,"olly":5894,"Ġbeers":5895,"Ġvi":5896,"Ġvests":5897,"Ġboun":5898,"Ġgrabs":5899,"Ġsmelling":5900,"Ġpicks":5901,"Ġgroups":5902,"Ġtrainer":5903,"Ġsidecar":5904,"Ġmote":5905,"Ġsewing":5906,"tles":5907,"Ġalready":5908,"Ġsandals":5909,"Ġsciss":5910,"Ġenorm":5911,"Ġsoaring":5912,"Ġmail":5913,"ĠBED":5914,"ĠOVER":5915,"ĠOlymp":5916,"Ġclown":5917,"Ġcamping":5918,"Ġguiding":5919,"Ġguests":5920,"RED":5921,"urned":5922,"Ġcabbage":5923,"Ġpitched":5924,"Ġpatrons":5925,"pefruit":5926,"Ġcheesecake":5927,"Ġleave":5928,"Ġsteer":5929,"izon":5930,"Ġposters":5931,"Ġpillar":5932,"Ġexiting":5933,"ĠGAME":5934,"Ġforested":5935,"Ġlayered":5936,"gerator":5937,"ĠELE":5938,"Ġspeeds":5939,"Ġseem":5940,"Ġlanded":5941,"Ġafternoon":5942,"Ġquite":5943,"Ġblocks":5944,"Ġfalls":5945,"ĠVERY":5946,"Ġcracked":5947,"Ġfigures":5948,"Ġtwig":5949,"Ġstretch":5950,"Girls":5951,"Ġexpanse":5952,"Ġconsum":5953,"Ġbells":5954,"Ġremoved":5955,"Ġlounges":5956,"Ġobserve":5957,"Ġcalico":5958,"Ġcycles":5959,"Ġcountertops":5960,"Ġangle":5961,"Ġmotorbikes":5962,"Ġindicates":5963,"Ġradiator":5964,"Ġlearn":5965,"Ġlifts":5966,"Ġplenty":5967,"Ġgrizzly":5968,"Ġadjusts":5969,"Ġregular":5970,"Photo":5971,"Ġarchitecture":5972,"Ġknitted":5973,"Ġinstructions":5974,"Ġpaneled":5975,"Ġbarbecue":5976,"Ġexpression":5977,"Ġcompany":5978,"ĠEuropean":5979,"Ġparasailing":5980,"Ġblueberries":5981,"Ġmannequin":5982,"Ġinvestigating":5983,"Ġantelope":5984,"Ġbleachers":5985,"ĠBLUE":5986,"Ġavocado":5987,"Ġhuddled":5988,"Animals":5989,"Ġsparse":5990,"Ġunripe":5991,"Female":5992,"Ġoctopus":5993,"Spectators":5994,"Ġenormous":5995,"BE":5996,"De":5997,"PL":5998,"Pink":5999,"PLA":6000,"apped":6001,"cis":6002,"cases":6003,"hich":6004,"iing":6005,"ked":6006,"large":6007,"mat":6008,"nam":6009,"oid":6010,"pie":6011,"Ġsat":6012,"Ġbarel":6013,"het":6014,"Ġpel":6015,"rest":6016,"lete":6017,"Ġinv":6018,"Ġinstru":6019,"Ġthese":6020,"Ġanim":6021,"Ġfer":6022,"Ġfist":6023,"Ġfoll":6024,"Ġgated":6025,"Ġlun":6026,"Ġlonely":6027,"ello":6028,"olit":6029,"olog":6030,"iced":6031,"using":6032,"Ġreno":6033,"Ġcoats":6034,"Ġcozy":6035,"Ġrounding":6036,"Ġroute":6037,"Ġvast":6038,"lock":6039,"Ġgraph":6040,"Ġyour":6041,"Ġsnap":6042,"Ġflipping":6043,"Ġtending":6044,"Ġfields":6045,"style":6046,"Ġrises":6047,"Ġpokes":6048,"Ġbackhand":6049,"Ġheight":6050,"Ġheels":6051,"Ġwax":6052,"Ġcages":6053,"tled":6054,"Ġconver":6055,"ĠAm":6056,"Ġunderwear":6057,"Ġswans":6058,"Ġspire":6059,"Ġsporting":6060,"Ġbunny":6061,"Ġenough":6062,"play":6063,"ĠWay":6064,"ĠWOOD":6065,"ĠWashing":6066,"ĠWorld":6067,"ĠSL":6068,"Ġbiking":6069,"Ġdriven":6070,"Ġmac":6071,"angle":6072,"Ġpassed":6073,"Ġfeeds":6074,"Ġreferee":6075,"ĠFR":6076,"ĠBEN":6077,"ĠOP":6078,"ĠCOW":6079,"Ġmetrop":6080,"Ġskatepark":6081,"Ġmean":6082,"Ġdinning":6083,"Ġpottery":6084,"ĠIn":6085,"Ġstem":6086,"graph":6087,"ĠLAP":6088,"Ġbreads":6089,"Ġscenery":6090,"ĠGIRA":6091,"Ġstripe":6092,"Ġclearly":6093,"Ġdistant":6094,"Ġsubmer":6095,"Ġgarnish":6096,"ĠRIDING":6097,"berry":6098,"Ġbusinessman":6099,"Ġlocation":6100,"Ġofficial":6101,"Ġpartly":6102,"Ġchoppy":6103,"ĠKit":6104,"Ġcompete":6105,"Ġcards":6106,"Ġportion":6107,"Ġsupport":6108,"Ġreflects":6109,"Ġsausages":6110,"Ġpropellers":6111,"Ġreturns":6112,"Ġsmartphone":6113,"Ġremod":6114,"Ġgliding":6115,"Busy":6116,"Ġicy":6117,"Ġwarming":6118,"Ġpopulated":6119,"EARING":6120,"Beautiful":6121,"Ġstormy":6122,"Ġtorn":6123,"Ġtort":6124,"Ġroasted":6125,"Ġsplash":6126,"Ġsplashing":6127,"Ġamidst":6128,"ificial":6129,"Ġornament":6130,"ĠFLYING":6131,"Ġflavors":6132,"IVING":6133,"Ġwaffles":6134,"Ġgreeting":6135,"Ġesc":6136,"Ġtravelers":6137,"ĠPARKED":6138,"Ġremains":6139,"Ġembra":6140,"Ġfollowed":6141,"Ġcooler":6142,"Ġhipster":6143,"Ġscratching":6144,"Ġpenguin":6145,"Ġwiping":6146,"Ġgalloping":6147,"Ġevergreen":6148,"ĠTRU":6149,"Ġraspberries":6150,"Ġsurprised":6151,"YCLE":6152,"Ġwatermelon":6153,"Ġanalog":6154,"Ġkiw":6155,"Ġamerican":6156,"pherd":6157,"uilding":6158,"Ġbidet":6159,"Ġbarely":6160,"Ġfollows":6161,"ĠWashington":6162,"Ġsubmerged":6163,"Ant":6164,"BRA":6165,"DOW":6166,"Ducks":6167,"New":6168,"Or":6169,"Truck":6170,"ache":6171,"bil":6172,"back":6173,"bama":6174,"gn":6175,"gate":6176,"grown":6177,"ien":6178,"ll":6179,"looking":6180,"multiple":6181,"sion":6182,"tra":6183,"tate":6184,"zens":6185,"Ġ&":6186,"Ġ8":6187,"Ġet":6188,"inary":6189,"Ġtul":6190,"Ġtanger":6191,"Ġsamp":6192,"Ġpushed":6193,"rem":6194,"rees":6195,"Ġcraw":6196,"lephant":6197,"isted":6198,"Ġhut":6199,"Ġdv":6200,"Ġdeb":6201,"Ġdance":6202,"Ġgen":6203,"ester":6204,"owing":6205,"chan":6206,"Ġsitu":6207,"iddle":6208,"iger":6209,"ictor":6210,"Ġthough":6211,"uses":6212,"Ġskull":6213,"Ġreact":6214,"Ġvess":6215,"Ġkiss":6216,"Ġshoo":6217,"Ġshady":6218,"Ġgrad":6219,"Ġgrapefruit":6220,"Ġgrow":6221,"ums":6222,"andom":6223,"Ġsomewhat":6224,"Ġwaling":6225,"Ġbuss":6226,"Ġrooms":6227,"sters":6228,"rucks":6229,"ycling":6230,"Ġpoking":6231,"Ġpours":6232,"Ġhorizon":6233,"Ġseeds":6234,"Ġmotorized":6235,"Ġovergrown":6236,"rancis":6237,"Ġtowers":6238,"ĠAr":6239,"Ġwindy":6240,"Ġasc":6241,"rought":6242,"orth":6243,"Ġmoon":6244,"Ġtrey":6245,"Ġspat":6246,"apers":6247,"Ġdiffic":6248,"ques":6249,"Ġsandwhich":6250,"ĠSE":6251,"ĠShe":6252,"ĠSINK":6253,"Ġimport":6254,"Ġjumped":6255,"Ġtiered":6256,"ĠChe":6257,"ĠCAKE":6258,"acter":6259,"Ġcord":6260,"Ġadded":6261,"Ġstock":6262,"Ġstocked":6263,"ĠPres":6264,"shot":6265,"Ġhighchair":6266,"othic":6267,"Ġnighttime":6268,"estri":6269,"Ġboot":6270,"Ġmouths":6271,"ĠMar":6272,"ĠMOU":6273,"izing":6274,"ĠLIGHT":6275,"Ġways":6276,"Ġmeals":6277,"Ġexit":6278,"Ġstrike":6279,"Ġhovers":6280,"Ġflaming":6281,"Ġcommun":6282,"Ġsmiley":6283,"Ġrolled":6284,"Ġsinging":6285,"ixed":6286,"Ġfeathers":6287,"auty":6288,"Ġnews":6289,"Ġfoal":6290,"mbol":6291,"Ġdeserts":6292,"Ġcabinetry":6293,"Chocolate":6294,"ensive":6295,"Ġtrashc":6296,"Ġartificial":6297,"Ġrooft":6298,"Ġpowder":6299,"ouf":6300,"Ġpropell":6301,"Ġmusical":6302,"Ġmustache":6303,"Ġrelaxes":6304,"OUNG":6305,"Ġpeeks":6306,"Ġprice":6307,"planes":6308,"Ġsymbol":6309,"Ġwarns":6310,"Ġcharacter":6311,"Ġbarefoot":6312,"Ġfinish":6313,"Ġbookshelves":6314,"ILING":6315,"Ġbelly":6316,"Ġdraped":6317,"Ġ20":6318,"Ġcrew":6319,"Ġsections":6320,"Ġglides":6321,"ĠSKY":6322,"Ġpresents":6323,"Ġdense":6324,"Ġeveryone":6325,"Ġeverything":6326,"Ġsniffs":6327,"Double":6328,"ELL":6329,"Ġarrows":6330,"Ġgazing":6331,"Ġmoment":6332,"Ġcombination":6333,"ĠBACK":6334,"Ġnightstands":6335,"Ġdrops":6336,"ĠCHILD":6337,"IEW":6338,"Ġbundle":6339,"Ġgoose":6340,"Airplane":6341,"Ġbillboard":6342,"Ġwould":6343,"Ġwaffle":6344,"Ġrotten":6345,"Ġrobot":6346,"ĠWINDOW":6347,"Ġtechn":6348,"Ġhandicapped":6349,"Ġrodeo":6350,"Sandwich":6351,"Silver":6352,"Tourists":6353,"Ġwonder":6354,"Ġponies":6355,"Ġvacant":6356,"Ġscrub":6357,"Ġsaucer":6358,"Ġgadgets":6359,"Ġtimes":6360,"Ġsuper":6361,"Ġemplo":6362,"Ġpretending":6363,"Ġultimate":6364,"Ġcemetery":6365,"Ġbutterfly":6366,"Ġhomes":6367,"Ġtucked":6368,"Ġscissor":6369,"hetti":6370,"olitan":6371,"Ġmetropolitan":6372,"ĠTRUCK":6373,"rancisco":6374,"Ġdifficult":6375,"Br":6376,"Ben":6377,"BALL":6378,"Bright":6379,"Dis":6380,"Des":6381,"Dark":6382,"EBRA":6383,"Family":6384,"KS":6385,"LY":6386,"PE":6387,"Ref":6388,"Te":6389,"Water":6390,"bat":6391,"cle":6392,"cut":6393,"cient":6394,"colli":6395,"feter":6396,"girl":6397,"hold":6398,"iver":6399,"ians":6400,"ky":6401,"lift":6402,"mall":6403,"nut":6404,"rs":6405,"walks":6406,"Ġest":6407,"Ġais":6408,"Ġtar":6409,"Ġtshirt":6410,"Ġtrot":6411,"Ġoval":6412,"Ġsund":6413,"Ġsigh":6414,"Ġbug":6415,"Ġbord":6416,"Ġpal":6417,"Ġpant":6418,"Ġpep":6419,"Ġcram":6420,"Ġcyclist":6421,"Ġcops":6422,"atian":6423,"ister":6424,"Ġthen":6425,"Ġmiss":6426,"Ġdad":6427,"Ġdalm":6428,"Ġdairy":6429,"ala":6430,"alo":6431,"Ġstones":6432,"Ġtook":6433,"oring":6434,"orner":6435,"eties":6436,"ashes":6437,"Ġnes":6438,"Ġnamed":6439,"ilar":6440,"ilight":6441,"ict":6442,"Ġthrew":6443,"Ġbeauty":6444,"Ġrese":6445,"Ġvine":6446,"Ġvending":6447,"Ġfrog":6448,"Ġparalle":6449,"Ġlav":6450,"anted":6451,"Ġupper":6452,"Ġripen":6453,"Ġwallet":6454,"Ġbushel":6455,"aint":6456,"Ġairline":6457,"Ġairfield":6458,"Ġrise":6459,"Ġrandom":6460,"eeping":6461,"airs":6462,"Ġbacked":6463,"Ġheater":6464,"Ġsear":6465,"Ġlead":6466,"Ġleng":6467,"Ġlegged":6468,"aneous":6469,"Ġcapped":6470,"Ġcafeter":6471,"Ġconstructed":6472,"rispy":6473,"Ġintric":6474,"Ġtaped":6475,"Ġmoss":6476,"Ġdem":6477,"Ġteal":6478,"Ġteap":6479,"Ġsword":6480,"Ġspag":6481,"Ġspark":6482,"Ġbrand":6483,"Seagull":6484,"ĠWhite":6485,"ĠWALL":6486,"Ġviews":6487,"Ġchews":6488,"Ġrefrid":6489,"ĠFrisbe":6490,"ĠFrancisco":6491,"icking":6492,"ĠObama":6493,"Ġplated":6494,"ĠCity":6495,"Ġsunflowers":6496,"Ġhaw":6497,"Ġcamper":6498,"Ġcamouf":6499,"Ġcoral":6500,"REEN":6501,"RENT":6502,"Ġcameras":6503,"Ġvarieties":6504,"ĠPar":6505,"ĠPIZZA":6506,"Ġmechan":6507,"Ġwalked":6508,"Ġcurrent":6509,"Ġovens":6510,"tenance":6511,"Ġpaperwork":6512,"Ġpeers":6513,"Ġpeac":6514,"estic":6515,"Ġliner":6516,"Ġbricked":6517,"Ġbarric":6518,"Ġdeckered":6519,"Ġinterstate":6520,"ĠTHEM":6521,"Ġwheeler":6522,"Ġpanel":6523,"Ġmicrowaves":6524,"ĠDI":6525,"ĠDel":6526,"Ġuniformed":6527,"ĠGLASS":6528,"Ġstates":6529,"Ġstripped":6530,"ĠNo":6531,"ROR":6532,"Ġpackaged":6533,"Ġcarried":6534,"Ġdirects":6535,"quee":6536,"Ġwashed":6537,"Ġfora":6538,"mbled":6539,"Ġdirectional":6540,"ĠStar":6541,"Ġoverlooks":6542,"Ġburning":6543,"Ġframes":6544,"IRROR":6545,"Ġclaw":6546,"Ġdolls":6547,"Ġnoodle":6548,"Ġexpired":6549,"Ġmedical":6550,"Ġcharging":6551,"Elect":6552,"Ġconsists":6553,"Ġsimilar":6554,"Ġcrest":6555,"Ġstarts":6556,"ĠYork":6557,"Ġadvertisements":6558,"Ġcalves":6559,"Ġdigging":6560,"ĠBEAR":6561,"Ġsoldier":6562,"Ġconversing":6563,"ELD":6564,"Ġlabel":6565,"Ġowners":6566,"Kites":6567,"Ġmaintain":6568,"Ġshaved":6569,"Ġlevels":6570,"Ġwander":6571,"Ġcarefully":6572,"Ġarriving":6573,"Ġjockeys":6574,"ĠCOURT":6575,"Ġsilhouet":6576,"Carrots":6577,"Ġrecliner":6578,"Ġkayak":6579,"Fruits":6580,"Ġdeta":6581,"Ġarchitect":6582,"exican":6583,"Ġsnuggled":6584,"Signs":6585,"ĠCOMP":6586,"ĠSKATEBOARD":6587,"ĠZEBRA":6588,"Ġskyscraper":6589,"ippers":6590,"Ġstrewn":6591,"Ġmemora":6592,"Ġmaneuver":6593,"ĠSHEEP":6594,"ĠGiraffe":6595,"Ġvisitors":6596,"ĠSUV":6597,"Ġcrocheted":6598,"Ġinteractive":6599,"Bicycle":6600,"Bedroom":6601,"PHANT":6602,"Ġcitrus":6603,"Ġsmoothie":6604,"Ġbronze":6605,"ĠForce":6606,"ĠDESK":6607,"Ġhummingbird":6608,"Ġipod":6609,"ĠOPEN":6610,"Antique":6611,"Ġtangerines":6612,"Ġdebris":6613,"Ġgener":6614,"Ġsituated":6615,"Ġgradu":6616,"Ġspatula":6617,"Ġimportant":6618,"Ġtrotting":6619,"Ġcafeteria":6620,"Ġspaghetti":6621,"Ġrefridgerator":6622,"ĠFrisbees":6623,"00":6624,"20":6625,"Bre":6626,"Cle":6627,"Cow":6628,"Cats":6629,"Eight":6630,"Graff":6631,"Int":6632,"IES":6633,"MB":6634,"Night":6635,"Past":6636,"Park":6637,"Side":6638,"Tw":6639,"TER":6640,"Up":6641,"col":6642,"cars":6643,"filled":6644,"hor":6645,"iam":6646,"kn":6647,"pical":6648,"si":6649,"ties":6650,"turned":6651,"ule":6652,"uard":6653,"vation":6654,"war":6655,"well":6656,"zard":6657,"ĠMan":6658,"Ġurn":6659,"Ġtesting":6660,"Ġsquee":6661,"itch":6662,"itude":6663,"Ġwoo":6664,"Ġwig":6665,"Ġweb":6666,"anna":6667,"annel":6668,"rey":6669,"Ġcable":6670,"Ġcrown":6671,"ara":6672,"rofo":6673,"Ġfu":6674,"Ġfut":6675,"Ġfam":6676,"Ġhoney":6677,"Ġhuddle":6678,"Ġdun":6679,"aling":6680,"Ġga":6681,"Ġginger":6682,"ening":6683,"ense":6684,"Ġlion":6685,"Ġstalk":6686,"Ġstars":6687,"Ġstrong":6688,"raut":6689,"ckled":6690,"orial":6691,"lad":6692,"lapid":6693,"Ġnature":6694,"opped":6695,"alls":6696,"idden":6697,"othered":6698,"Ġbeads":6699,"Ġskills":6700,"Ġcocon":6701,"ader":6702,"adows":6703,"Ġvane":6704,"Ġvans":6705,"iles":6706,"Ġlam":6707,"Ġgrain":6708,"Ġsmothered":6709,"Ġbatters":6710,"antic":6711,"Ġcarved":6712,"street":6713,"Ġbuds":6714,"Ġsidewalks":6715,"Ġrig":6716,"eech":6717,"Ġplayfully":6718,"Ġforce":6719,"Ġbackside":6720,"Ġotherwise":6721,"Ġlip":6722,"Ġlive":6723,"Ġlives":6724,"Ġskiiers":6725,"rellas":6726,"Ġcact":6727,"Ġconte":6728,"Ġhanded":6729,"Ġhandled":6730,"Ġmosa":6731,"Ġspices":6732,"Ġspeech":6733,"Ġdilapid":6734,"ĠWar":6735,"ĠWEARING":6736,"ĠSan":6737,"Ġpreser":6738,"Ġpregn":6739,"Ġstandard":6740,"Ġheadlights":6741,"Ġdaylight":6742,"Ġbrocolli":6743,"ĠBB":6744,"ĠBe":6745,"ĠBROW":6746,"ĠBIKE":6747,"aced":6748,"Ġcorral":6749,"Ġemer":6750,"Ġembed":6751,"REL":6752,"Ġknow":6753,"ustral":6754,"shaped":6755,"Ġpaste":6756,"Ġbottled":6757,"Ġpatri":6758,"Ġracer":6759,"Ġpeeling":6760,"Ġhousehold":6761,"Ġpolit":6762,"Ġpurch":6763,"ĠMIRROR":6764,"Ġwheeled":6765,"Ġsalmon":6766,"ĠLIVING":6767,"ĠONE":6768,"ĠHar":6769,"Ġincline":6770,"Ġsalads":6771,"ĠGIR":6772,"Ġhoop":6773,"Ġhovering":6774,"Ġgrinds":6775,"Ġdistrict":6776,"NDER":6777,"Ġfeature":6778,"Ġstyled":6779,"ĠSTU":6780,"Ġwireless":6781,"Ġnecklace":6782,"Ġpaddles":6783,"inesses":6784,"Ġstairway":6785,"Ġbloss":6786,"Ġwrapping":6787,"Ġformally":6788,"Chicken":6789,"Ġearly":6790,"Ġretail":6791,"Ġholders":6792,"Ġkneels":6793,"Ġburrit":6794,"ĠVictor":6795,"ĠVIEW":6796,"Ġcrafts":6797,"Skate":6798,"Ġcompetitive":6799,"Ġmakeup":6800,"Ġaccom":6801,"Ġaccents":6802,"Ġportable":6803,"Ġmasks":6804,"Ġextrem":6805,"Ġcloths":6806,"Ġtwilight":6807,"ĠiP":6808,"ĠiPh":6809,"Ġpositions":6810,"Ġwetsuits":6811,"melet":6812,"Ġexposed":6813,"Ġfinishing":6814,"ILL":6815,"Ġhandleb":6816,"Ġremoving":6817,"Ġdais":6818,"ĠPLAY":6819,"Ġfilthy":6820,"Dogs":6821,"Ġextends":6822,"Ġtaxiing":6823,"ĠANIM":6824,"Altered":6825,"Ġoddly":6826,"Ġprotru":6827,"Ġneedle":6828,"ĠFROM":6829,"ĠCARS":6830,"Ġbarrels":6831,"Ġfedora":6832,"Ġdefensive":6833,"Ġbriefcase":6834,"Ġmelted":6835,"Ġnavig":6836,"ĠRoad":6837,"Ġtroph":6838,"Ġnursing":6839,"FFERENT":6840,"Ġhistoric":6841,"Ġhistorical":6842,"Ġskyscrapers":6843,"ĠFIRE":6844,"ĠFIELD":6845,"Ġunloading":6846,"Ġbumper":6847,"ĠCanadian":6848,"Ġtilted":6849,"Ġsauces":6850,"ĠNEXT":6851,"Ġblooming":6852,"Ġnuzzling":6853,"Soccer":6854,"Bowl":6855,"Slices":6856,"Ġreleasing":6857,"Ġluxury":6858,"Ġyacht":6859,"Ġranch":6860,"Ġresidence":6861,"Ġtethered":6862,"Ġborder":6863,"ĠELEPHANT":6864,"ĠBENCH":6865,"ĠKitty":6866,"Ġkiwi":6867,"bilia":6868,"Ġtulips":6869,"estrian":6870,"Display":6871,"Ġaisle":6872,"Ġparallel":6873,"Ġlength":6874,"Ġteapot":6875,"Ġpeacock":6876,"ĠDIFFERENT":6877,"ĠDelta":6878,"Ġmemorabilia":6879,"Graffiti":6880,"rofoam":6881,"Ġlivestock":6882,"Ġcontemp":6883,"Ġmosaic":6884,"Ġdilapidated":6885,"Ġpregnant":6886,"ĠBROWN":6887,"Ġembedded":6888,"Ġextremely":6889,"ĠiPhone":6890,"Ar":6891,"Back":6892,"Cut":6893,"Cross":6894,"Cute":6895,"Corner":6896,"EAT":6897,"Fri":6898,"Glass":6899,"Home":6900,"Meat":6901,"Mult":6902,"Off":6903,"OVE":6904,"Part":6905,"RAN":6906,"Rows":6907,"Tall":6908,"TLE":6909,"Trucks":6910,"UMP":6911,"VD":6912,"Wild":6913,"ae":6914,"bul":6915,"bread":6916,"bably":6917,"draw":6918,"food":6919,"gle":6920,"hus":6921,"hift":6922,"ivers":6923,"nes":6924,"of":6925,"oro":6926,"oise":6927,"pace":6928,"pia":6929,"post":6930,"uf":6931,"uis":6932,"uting":6933,"wor":6934,"Ġaqu":6935,"inating":6936,"Ġtack":6937,"Ġtightly":6938,"Ġoil":6939,"Ġomelet":6940,"Ġsan":6941,"Ġsid":6942,"Ġsight":6943,"Ġbins":6944,"Ġbits":6945,"Ġblaz":6946,"ith":6947,"itor":6948,"Ġwok":6949,"Ġpeop":6950,"Ġpush":6951,"rep":6952,"rets":6953,"Ġcame":6954,"Ġcyclists":6955,"arth":6956,"isk":6957,"Ġtheater":6958,"Ġancient":6959,"Ġfaded":6960,"Ġhook":6961,"Ġhidden":6962,"Ġduff":6963,"Ġdanger":6964,"ald":6965,"Ġlite":6966,"omas":6967,"Ġstrain":6968,"Ġtoday":6969,"esan":6970,"esame":6971,"ont":6972,"orary":6973,"iring":6974,"Ġnine":6975,"opes":6976,"chini":6977,"otted":6978,"utter":6979,"urity":6980,"arded":6981,"Ġbeca":6982,"Ġcoated":6983,"Ġeight":6984,"ebur":6985,"Ġropes":6986,"Ġvar":6987,"Ġvent":6988,"They":6989,"Ġthats":6990,"Ġfixes":6991,"veled":6992,"Ġparrots":6993,"atee":6994,"Ġchannel":6995,"Ġoutdated":6996,"Ġflips":6997,"Ġcarving":6998,"Ġbusinesses":6999,"Ġrap":7000,"Ġraquet":7001,"Ġbuckets":7002,"Ġblown":7003,"Ġblows":7004,"Ġrather":7005,"ctors":7006,"Ġjud":7007,"Ġmotel":7008,"Ġseed":7009,"Ġsepia":7010,"Ġleast":7011,"Ġmotorboat":7012,"Ġwak":7013,"Ġwaist":7014,"ĠAustral":7015,"Ġshepherd":7016,"Ġslanted":7017,"Ġteens":7018,"Ġtrek":7019,"Ġlittered":7020,"Ġswirl":7021,"Ġspan":7022,"Ġspars":7023,"ago":7024,"Ġcolum":7025,"Ġcolumn":7026,"Ġbanquet":7027,"ĠTA":7028,"ĠTE":7029,"ĠTALL":7030,"ĠTennis":7031,"Ġshowroom":7032,"Ġfencing":7033,"ĠSW":7034,"ĠSh":7035,"ĠSouth":7036,"Ġgoatee":7037,"Ġhyd":7038,"Ġhitched":7039,"Ġarches":7040,"ĠFed":7041,"ĠBar":7042,"ĠBIG":7043,"Ġsunsh":7044,"aces":7045,"Ġproud":7046,"Ġprobably":7047,"Ġboxing":7048,"Ġstored":7049,"Ġlongboard":7050,"Ġcontest":7051,"ĠPh":7052,"ĠPark":7053,"Ġcurvy":7054,"Ġbreast":7055,"ĠIM":7056,"Ġpatrol":7057,"Ġpeer":7058,"Ġmeatball":7059,"Ġcann":7060,"Ġord":7061,"ools":7062,"Ġplantain":7063,"ĠMac":7064,"ĠMexican":7065,"Ġlooked":7066,"Ġsalt":7067,"ĠLA":7068,"Ġsurrounds":7069,"Ġtypical":7070,"ĠDE":7071,"ĠDR":7072,"ĠDVD":7073,"Ġamuse":7074,"ĠHIGH":7075,"ĠHello":7076,"Ġtriple":7077,"Ġmarketplace":7078,"Ġsquares":7079,"Ġconcert":7080,"Ġfacility":7081,"Ġnothing":7082,"Ġcarrier":7083,"Ġmarching":7084,"Ġgarb":7085,"capped":7086,"Ġspeaks":7087,"Ġwildflowers":7088,"Groups":7089,"ĠRA":7090,"Ġfound":7091,"Ġwedges":7092,"ivities":7093,"Ġartwork":7094,"ĠUMB":7095,"bank":7096,"ISBE":7097,"Ġburner":7098,"Ġburied":7099,"Ġparticip":7100,"OTS":7101,"Ġkittens":7102,"Ġpepperon":7103,"Ġmakeshift":7104,"ucchini":7105,"Variety":7106,"Ġmascot":7107,"ICE":7108,"OUR":7109,"Ġjuic":7110,"ĠTOGE":7111,"Ġcharter":7112,"Ġcaptive":7113,"Ġdragon":7114,"Ġdragging":7115,"CHING":7116,"ĠYOUNG":7117,"Ġtaxis":7118,"UTER":7119,"Ġarchway":7120,"Ġbooths":7121,"Ġbulld":7122,"Ġbuliding":7123,"Ġfilming":7124,"Ġmagazines":7125,"Ġawaits":7126,"Ġcomplex":7127,"Ġcheeses":7128,"Ġpleas":7129,"Ġstirring":7130,"Ġbuffalo":7131,"ĠAirways":7132,"Ġsafari":7133,"Ġgazelle":7134,"Ġenjoys":7135,"Ġmaintenance":7136,"Beach":7137,"Ġcushions":7138,"Ġdotted":7139,"Ġnumeral":7140,"Ġnumerals":7141,"Ġunused":7142,"Shirt":7143,"Ġarrive":7144,"Ġdropping":7145,"Ġrecre":7146,"Ġwaterfront":7147,"ĠCARR":7148,"Ġfilling":7149,"Ġlimes":7150,"Ġathlete":7151,"Ġbeanie":7152,"Ġpeaceful":7153,"Ġcherries":7154,"Ġflavored":7155,"Ġoccas":7156,"Ġattending":7157,"Ġrecording":7158,"Outside":7159,"Outdoor":7160,"Ġnavigating":7161,"ĠCanada":7162,"Parking":7163,"Ġaffection":7164,"Ġgestures":7165,"Blurry":7166,"Towels":7167,"ĠROAD":7168,"Ġmouses":7169,"Ġcontraption":7170,"Ġpencils":7171,"Ġathletes":7172,"Ġcongre":7173,"agonal":7174,"Ġassembly":7175,"Ġseasoning":7176,"Ġdemonstration":7177,"Ġappetizers":7178,"Ġsquirrel":7179,"Ġcroissant":7180,"ĠBASEBALL":7181,"Decor":7182,"piece":7183,"Ġanimated":7184,"ĠFRISBE":7185,"Ġcrawling":7186,"estern":7187,"Ġpropellor":7188,"Ġdalmatian":7189,"Ġnestled":7190,"Ġhawk":7191,"Ġforaging":7192,"Ġarchitectural":7193,"Ġcactus":7194,"RELLA":7195,"Ġpatriotic":7196,"ĠGIRL":7197,"Ġburrito":7198,"ĠVictorian":7199,"ĠANIMAL":7200,"Friends":7201,"husi":7202,"Ġbecause":7203,"Ġamusement":7204,"ĠUMBRELLA":7205,"ĠTOGETHER":7206,"Baked":7207,"Fl":7208,"Is":7209,"Lone":7210,"Met":7211,"No":7212,"Pe":7213,"Pie":7214,"Ste":7215,"Somebody":7216,"Teen":7217,"UG":7218,"Wine":7219,"Work":7220,"bus":7221,"brown":7222,"bucks":7223,"come":7224,"fu":7225,"fting":7226,"file":7227,"fight":7228,"group":7229,"iant":7230,"iently":7231,"kraut":7232,"lor":7233,"long":7234,"ney":7235,"oke":7236,"rand":7237,"vas":7238,"yond":7239,"ĠQ":7240,"Ġking":7241,"ĠSe":7242,"Ġque":7243,"ino":7244,"inery":7245,"inted":7246,"Ġtip":7247,"Ġtells":7248,"Ġtiger":7249,"ingle":7250,"Ġburn":7251,"Ġberry":7252,"Ġwi":7253,"Ġwants":7254,"reds":7255,"Ġcane":7256,"eries":7257,"erkraut":7258,"Ġfrisb":7259,"Ġdang":7260,"Ġdots":7261,"Ġgal":7262,"Ġglow":7263,"Ġgates":7264,"Ġlat":7265,"Ġlla":7266,"Ġlate":7267,"Ġlanes":7268,"Ġstere":7269,"Ġstages":7270,"Ġtofu":7271,"unching":7272,"Ġmanual":7273,"iders":7274,"ilies":7275,"ilitary":7276,"uters":7277,"olar":7278,"iche":7279,"icular":7280,"usband":7281,"Ġbeat":7282,"Ġbeached":7283,"Ġbeyond":7284,"Ġreins":7285,"Ġcoca":7286,"Ġcobb":7287,"Ġeff":7288,"ebe":7289,"Ġdocks":7290,"Ġpeoples":7291,"Ġplaque":7292,"undry":7293,"Ġtabletop":7294,"Ġshadows":7295,"Ġyummy":7296,"Ġcho":7297,"Ġchat":7298,"Ġouthouse":7299,"Ġflash":7300,"Ġraces":7301,"Ġbasic":7302,"station":7303,"Ġgrasses":7304,"Ġrising":7305,"ctures":7306,"Ġgira":7307,"Ġgifts":7308,"Ġmotes":7309,"Ġsex":7310,"Ġless":7311,"entr":7312,"Ġzo":7313,"ppost":7314,"Ġwavy":7315,"Ġcaged":7316,"illing":7317,"rise":7318,"Ġwindm":7319,"Ġslippers":7320,"Ġlightly":7321,"agie":7322,"lesc":7323,"Ġbanners":7324,"ĠTIE":7325,"Ġsoars":7326,"quoise":7327,"Ġbring":7328,"Ġcourts":7329,"Ġflowery":7330,"ified":7331,"ĠWA":7332,"ĠSAND":7333,"ĠSox":7334,"Ġbib":7335,"dog":7336,"Ġarched":7337,"ĠBAN":7338,"Ġplatters":7339,"arious":7340,"ĠCol":7341,"Ġunb":7342,"Ġproce":7343,"Ġlovely":7344,"Ġknick":7345,"Ġknacks":7346,"Ġstoves":7347,"ustr":7348,"thora":7349,"akfast":7350,"Ġtaller":7351,"Ġdecorating":7352,"Ġcaboose":7353,"Ġcurly":7354,"Ġpaints":7355,"Ġmonster":7356,"Ġpear":7357,"Ġcanned":7358,"Ġlinen":7359,"Ġbarb":7360,"Ġbarber":7361,"Ġorch":7362,"Ġforehand":7363,"Ġsleepy":7364,"ĠTHERE":7365,"Ġattach":7366,"Ġpurses":7367,"Ġstorefront":7368,"oca":7369,"Ġhalfway":7370,"Ġpanels":7371,"ĠDon":7372,"ĠDIS":7373,"Ġamaz":7374,"Ġambul":7375,"lings":7376,"ĠHOT":7377,"ĠHAS":7378,"Ġexotic":7379,"ĠGO":7380,"Ġhoagie":7381,"ĠOFF":7382,"Ġedges":7383,"Ġsquats":7384,"Ġconcentr":7385,"Ġfacial":7386,"ROSS":7387,"Ġmarks":7388,"Ġmilking":7389,"ĠEx":7390,"ĠElephant":7391,"Ġspec":7392,"Ġstyl":7393,"Ġstyles":7394,"Ġeyed":7395,"Ġtrans":7396,"Ġswims":7397,"Ġequestrian":7398,"ĠRed":7399,"ĠRUN":7400,"Ġlower":7401,"Ġwraps":7402,"Ġflatbed":7403,"ĠUNDER":7404,"Ġoverlook":7405,"ENT":7406,"ENCE":7407,"ETHING":7408,"liners":7409,"Ġhammer":7410,"Ġchecker":7411,"Ġpartial":7412,"RAW":7413,"ĠVASE":7414,"Ġturquoise":7415,"Ġdiscs":7416,"ĠKEP":7417,"Ġcrumb":7418,"Ġspring":7419,"IRT":7420,"Ġenthusi":7421,"Ġaccent":7422,"Ġmaster":7423,"Ġexterior":7424,"Ġstrand":7425,"Ġshould":7426,"Ġstructures":7427,"plate":7428,"Ġjob":7429,"Ġmedian":7430,"Ġcharger":7431,"Ġcaptured":7432,"Ġhooded":7433,"Ġtransporting":7434,"Ġdrapes":7435,"Ġstudying":7436,"Ġstudent":7437,"Ġolive":7438,"Ġsectional":7439,"Ġ11":7440,"Ġtrolly":7441,"Ġglide":7442,"Ġdelivering":7443,"Ġexha":7444,"Ġstoplights":7445,"ADE":7446,"Ġcertain":7447,"Ġauto":7448,"NTER":7449,"Ġceremon":7450,"Ġlifted":7451,"Ġcheesebur":7452,"Ġbrass":7453,"Ġplethora":7454,"Ġprocessor":7455,"Ġreadies":7456,"Ġavoid":7457,"ĠTRACKS":7458,"Ġcombing":7459,"Ġworkspace":7460,"VERAL":7461,"Ġslaw":7462,"Ġactivities":7463,"Ġbundled":7464,"Ġnotebooks":7465,"awa":7466,"Ġtrimmed":7467,"Ġcomfortable":7468,"Ġlimit":7469,"Ġprovides":7470,"Ġornaments":7471,"Ġparents":7472,"Ġdivider":7473,"Ġdivided":7474,"Ġtissues":7475,"Ġrecord":7476,"ĠSOMETHING":7477,"Ġpresentation":7478,"Ġidle":7479,"Ġidly":7480,"Ġwashroom":7481,"haired":7482,"Ġsauerkraut":7483,"Sunlight":7484,"Ġnapping":7485,"Ġfixed":7486,"Ġruler":7487,"Ġknocked":7488,"Ġpencil":7489,"Ġathletic":7490,"Ġhunched":7491,"Ġreveals":7492,"ĠSKIING":7493,"Players":7494,"Ġsource":7495,"Ġblades":7496,"Ġperfectly":7497,"Ġdescribe":7498,"Ġhurdle":7499,"Ġwrestling":7500,"PLAY":7501,"Ġinvol":7502,"ĠLAPT":7503,"ĠGIRAFFE":7504,"Ġtortilla":7505,"Ġetc":7506,"Ġstockings":7507,"Ġrooftop":7508,"PEOPLE":7509,"Ġbordered":7510,"Ġpepsi":7511,"Ġintricate":7512,"Seagulls":7513,"Clean":7514,"Ġwooly":7515,"Ġfuel":7516,"Ġlamppost":7517,"ĠBBQ":7518,"Ġaccompan":7519,"Ġhandlebars":7520,"Ġtrophy":7521,"Office":7522,"drawn":7523,"Ġrapids":7524,"Ġsparsely":7525,"Ġsunshine":7526,"ĠIMAGE":7527,"Ġpepperonis":7528,"Shirtless":7529,"Ġoccasion":7530,"Ġqueen":7531,"Ġstereo":7532,"ĠKEPT":7533,"Ġcheeseburger":7534,"Asian":7535,"BR":7536,"CYCLE":7537,"EG":7538,"Every":7539,"Fried":7540,"Gra":7541,"Grey":7542,"Im":7543,"LD":7544,"OC":7545,"SH":7546,"Sl":7547,"Something":7548,"SES":7549,"Umb":7550,"Vase":7551,"Well":7552,"bic":7553,"book":7554,"bble":7555,"baseball":7556,"blue":7557,"cul":7558,"fl":7559,"flower":7560,"gin":7561,"gran":7562,"ially":7563,"lines":7564,"mar":7565,"mobile":7566,"ove":7567,"occ":7568,"posed":7569,"rm":7570,"sized":7571,"sia":7572,"vet":7573,"yal":7574,"Ġ(":7575,"Ġ9":7576,"Ġiv":7577,"inent":7578,"Ġtell":7579,"Ġtired":7580,"Ġtusk":7581,"Ġoar":7582,"Ġoak":7583,"Ġsure":7584,"Ġsanding":7585,"Ġsomebody":7586,"Ġsesame":7587,"Ġbone":7588,"ita":7589,"itting":7590,"itti":7591,"Ġwel":7592,"Ġwines":7593,"Ġwrist":7594,"Ġwades":7595,"Ġwrought":7596,"held":7597,"Ġpra":7598,"Ġpushes":7599,"Ġcant":7600,"Ġcyl":7601,"lect":7602,"lets":7603,"lery":7604,"erc":7605,"Ġonward":7606,"ison":7607,"Ġtherm":7608,"Ġans":7609,"Ġanten":7610,"Ġfell":7611,"Ġfellow":7612,"Ġmy":7613,"Ġmur":7614,"Ġmight":7615,"Ġmerry":7616,"Ġhund":7617,"Ġhusband":7618,"Ġdate":7619,"alom":7620,"alator":7621,"Ġgull":7622,"omb":7623,"Ġstu":7624,"Ġstate":7625,"Ġstay":7626,"orry":7627,"irie":7628,"Ġmanic":7629,"lable":7630,"opard":7631,"child":7632,"upe":7633,"upied":7634,"igious":7635,"icles":7636,"Ġthread":7637,"ablish":7638,"Ġcoaches":7639,"Ġeag":7640,"Ġroot":7641,"Ġven":7642,"Ġvert":7643,"Ġkeeping":7644,"Ġdoily":7645,"Ġdozens":7646,"Ġplow":7647,"Ġstreetlights":7648,"Ġboul":7649,"Ġboiled":7650,"Ġlaundry":7651,"Ġgrove":7652,"ounted":7653,"Ġflan":7654,"Ġsnowing":7655,"Ġsnowsuit":7656,"stal":7657,"stop":7658,"stick":7659,"stance":7660,"Ġhash":7661,"Ġrump":7662,"Ġsurfboarding":7663,"And":7664,"Ġbedside":7665,"ptions":7666,"Ġgive":7667,"Ġgiven":7668,"Ġgift":7669,"Ġlizard":7670,"Those":7671,"Ġleopard":7672,"Ġoverturned":7673,"Ġweathered":7674,"Ġalmon":7675,"epad":7676,"Ġshearing":7677,"Ġshears":7678,"Ġslalom":7679,"pend":7680,"Ġboating":7681,"Ġhandling":7682,"Ġveg":7683,"Ġteac":7684,"Ġswamp":7685,"Ġspir":7686,"Ġbrowns":7687,"Ġbrownie":7688,"Ġflorets":7689,"Ġenvel":7690,"ĠTI":7691,"ĠTrain":7692,"ĠTOWER":7693,"Ġsoaked":7694,"quare":7695,"ĠWOR":7696,"ĠSC":7697,"rystal":7698,"Ġgoers":7699,"Ġgoble":7700,"Ġappe":7701,"Ġprey":7702,"Ġstandup":7703,"ĠFLO":7704,"ĠFENCE":7705,"ickey":7706,"ĠBus":7707,"ĠBroad":7708,"ĠBOW":7709,"ĠBlue":7710,"ĠOTHER":7711,"Ġhanged":7712,"ĠCAN":7713,"ĠCAB":7714,"ĠCOL":7715,"acy":7716,"Ġunocc":7717,"Ġprofile":7718,"Ġacro":7719,"Ġcontact":7720,"Ġridden":7721,"ĠPA":7722,"ĠPizza":7723,"ship":7724,"Ġcabs":7725,"Ġpitches":7726,"Ġpeak":7727,"Ġcanvas":7728,"Ġbarri":7729,"closure":7730,"ĠMon":7731,"brush":7732,"Ġhalfpipe":7733,"Ġsalsa":7734,"ĠLIT":7735,"ĠLittle":7736,"ATION":7737,"Ġbetter":7738,"ĠHot":7739,"ĠGREEN":7740,"Ġstrips":7741,"Ġhockey":7742,"ĠNok":7743,"Ġsettings":7744,"Ġworked":7745,"Ġsubstance":7746,"Ġpolicemen":7747,"Ġpaying":7748,"Ġpauses":7749,"lender":7750,"Ġpacks":7751,"Ġpackages":7752,"born":7753,"Ġarmchair":7754,"Ġwildebe":7755,"Ġnewborn":7756,"ĠRoman":7757,"Ġteamm":7758,"Ġcurbside":7759,"ĠStation":7760,"ĠStates":7761,"ORN":7762,"ORT":7763,"Ġrugs":7764,"Ġcrook":7765,"Ġapproach":7766,"Ġturtle":7767,"OTH":7768,"Ġadvertises":7769,"Ġfunction":7770,"Ġchops":7771,"iffel":7772,"Ġvisor":7773,"Ġhousing":7774,"Ġutil":7775,"Ġentry":7776,"Ġgrilling":7777,"ĠJUMP":7778,"Ġdepartment":7779,"alloween":7780,"Ġreflective":7781,"Ġlaughs":7782,"Ġjew":7783,"Ġmedia":7784,"Ġsorts":7785,"Ġpatterns":7786,"Ġleafless":7787,"Ġglaze":7788,"Ġcelebratory":7789,"Ġguitars":7790,"Ġobserves":7791,"Ġparasail":7792,"Ġcasual":7793,"ADY":7794,"Ġgentlemen":7795,"Ġdenim":7796,"Ġfilm":7797,"uzzle":7798,"Ġtosses":7799,"Ġtossed":7800,"Ġindicate":7801,"Ġfocused":7802,"Ġcondiment":7803,"Dough":7804,"Ġsecurity":7805,"ĠITS":7806,"Ġillustr":7807,"Ġlabels":7808,"Ġlabeled":7809,"Ġpopular":7810,"Ġfixture":7811,"Ġavai":7812,"ĠPLANE":7813,"Ġproduct":7814,"Ġneedles":7815,"strip":7816,"Ġarrives":7817,"Ġplank":7818,"ĠCHAIR":7819,"Ġrecently":7820,"Snowboarders":7821,"Airplanes":7822,"Ġreclining":7823,"Ġkayaking":7824,"ĠWATCHING":7825,"Ġreceive":7826,"Ġcompartments":7827,"Ġgrasslands":7828,"ĠSMILING":7829,"Ġcreepy":7830,"Ġpressing":7831,"Ġtattoos":7832,"ĠHORSES":7833,"Ġsnuggling":7834,"Ġdestro":7835,"Ġdestination":7836,"ĠCOMING":7837,"Ġcollege":7838,"Ġcollect":7839,"ĠWINE":7840,"skirt":7841,"Ġoxen":7842,"Ġtongs":7843,"Ġhandicap":7844,"Ġmemorial":7845,"Ġcuriously":7846,"Ġretriever":7847,"Commuter":7848,"Ġaffixed":7849,"ĠGiraffes":7850,"yees":7851,"Ġsolar":7852,"Player":7853,"Ġmilling":7854,"Ġcrashing":7855,"Ġdiscussion":7856,"Ġoccupied":7857,"Ġspreading":7858,"Ġspreads":7859,"Ġadmiring":7860,"Ġpumpkin":7861,"Ġpumpkins":7862,"ĠBIRDS":7863,"Ġreligious":7864,"ĠALONG":7865,"Ġscrambled":7866,"Ġprominent":7867,"Ġmarkings":7868,"Ġfoamy":7869,"Ġoversized":7870,"Ġviol":7871,"ĠOlympic":7872,"Ġlunges":7873,"Ġgraphic":7874,"ĠAmtra":7875,"ĠSLOP":7876,"Ġescalator":7877,"Ġembracing":7878,"Orn":7879,"Ġsampling":7880,"ĠArmy":7881,"ĠPresident":7882,"Ġflamingos":7883,"Ġtrashcan":7884,"Ġtechnolog":7885,"Ġwonderful":7886,"Benches":7887,"Desk":7888,"Ġestablish":7889,"Ġcramped":7890,"Ġdemol":7891,"Ġcamouflage":7892,"Ġmechanical":7893,"ĠZEBRAS":7894,"Breakfast":7895,"ĠPLAYER":7896,"Ġcolumns":7897,"ĠFedEx":7898,"Ġplantains":7899,"Ġrecreational":7900,"Metal":7901,"Ġgiraf":7902,"ĠBANAN":7903,"ĠDISPLAY":7904,"Ġambulance":7905,"ĠGOING":7906,"awaii":7907,"Ġaccompanied":7908,"Ġalmonds":7909,"ĠBroadway":7910,"Ġunoccupied":7911,"ĠNokia":7912,"Ġcrooked":7913,"ĠJUMPING":7914,"Ġavailable":7915,"ĠAmtrak":7916,"Ġestablishment":7917,"Book":7918,"Bear":7919,"Che":7920,"Cooked":7921,"DY":7922,"Eld":7923,"Farm":7924,"Flower":7925,"GING":7926,"ICK":7927,"Jet":7928,"Kite":7929,"LF":7930,"Line":7931,"LOTS":7932,"Mother":7933,"Mini":7934,"Military":7935,"Pit":7936,"Sp":7937,"Sail":7938,"Tables":7939,"UP":7940,"UY":7941,"Vases":7942,"WAY":7943,"aled":7944,"dale":7945,"ecting":7946,"for":7947,"gh":7948,"guy":7949,"guard":7950,"hy":7951,"jection":7952,"kward":7953,"kids":7954,"nie":7955,"ola":7956,"ound":7957,"over":7958,"she":7959,"small":7960,"tage":7961,"train":7962,"various":7963,"whe":7964,"west":7965,"Ġir":7966,"Ġug":7967,"Ġaboard":7968,"inations":7969,"innam":7970,"Ġtins":7971,"Ġost":7972,"Ġorig":7973,"Ġbark":7974,"Ġwade":7975,"Ġwife":7976,"Ġwaste":7977,"Ġwestern":7978,"Ġpome":7979,"Ġpood":7980,"Ġpac":7981,"Ġpud":7982,"Ġpins":7983,"anced":7984,"Ġcel":7985,"Ġcul":7986,"Ġcrying":7987,"erv":7988,"Ġoncoming":7989,"atch":7990,"Ġann":7991,"Ġfis":7992,"Ġmp":7993,"Ġmice":7994,"Ġmint":7995,"Ġmisc":7996,"Ġhoo":7997,"Ġhides":7998,"Ġhooks":7999,"Ġdrop":8000,"Ġgn":8001,"Ġgor":8002,"Ġgla":8003,"Ġgum":8004,"Ġgothic":8005,"Ġlas":8006,"Ġstalks":8007,"Ġtot":8008,"rabic":8009,"organ":8010,"opened":8011,"chment":8012,"ota":8013,"elles":8014,"Ġwhine":8015,"Ġwhip":8016,"igan":8017,"ica":8018,"icans":8019,"Ġthose":8020,"Ġcoaster":8021,"Ġroam":8022,"ffod":8023,"Ġfrol":8024,"Ġshine":8025,"Ġparchment":8026,"Ġlace":8027,"Ġgraf":8028,"Ġyak":8029,"Ġcharm":8030,"Ġchanging":8031,"ami":8032,"Ġupwards":8033,"Ġoutskirt":8034,"Ġsnoo":8035,"Ġsnowmobile":8036,"Ġribs":8037,"Ġparks":8038,"Ġbases":8039,"stract":8040,"story":8041,"ellaneous":8042,"Ġloose":8043,"Ġbuying":8044,"Ġairstrip":8045,"Ġrat":8046,"Ġrally":8047,"Ġplayful":8048,"Ġpoor":8049,"Ġpoured":8050,"Ġherds":8051,"Ġmotoc":8052,"irty":8053,"ief":8054,"Ġleashes":8055,"Ġzucchini":8056,"rang":8057,"Ġcityscape":8058,"ĠAsia":8059,"Ġalt":8060,"Ġsheared":8061,"ksw":8062,"Ġash":8063,"Ġintense":8064,"Ġchairlift":8065,"Ġhandra":8066,"orted":8067,"asted":8068,"ccess":8069,"Ġlitter":8070,"Ġspraw":8071,"Ġlivingroom":8072,"Ġfireman":8073,"Ġfirefight":8074,"Ġbunched":8075,"Ġdiff":8076,"Ġsocial":8077,"lydes":8078,"ifier":8079,"ĠWest":8080,"ĠSk":8081,"Ġpreform":8082,"Ġpassanger":8083,"dock":8084,"Ġhilltop":8085,"Ġimpress":8086,"Ġsafe":8087,"Ġbroad":8088,"Ġbrocc":8089,"ĠFord":8090,"ĠBear":8091,"ĠBost":8092,"ĠOLD":8093,"uggling":8094,"ĠCD":8095,"ĠCal":8096,"ĠCent":8097,"ĠCON":8098,"ĠClock":8099,"ĠCROSS":8100,"Ġsunrise":8101,"HERE":8102,"Ġstuffing":8103,"Ġuneaten":8104,"Ġunkn":8105,"Ġunopened":8106,"Ġclip":8107,"Ġwhose":8108,"Ġguide":8109,"Ġlock":8110,"Ġloves":8111,"Ġacting":8112,"aki":8113,"ĠPOL":8114,"Ġbagels":8115,"Ġperpend":8116,"Ġpatient":8117,"Ġpatiently":8118,"Ġpeaking":8119,"Ġpeels":8120,"esturing":8121,"Ġbarred":8122,"Ġsteal":8123,"Ġhello":8124,"ĠTHEIR":8125,"Ġshell":8126,"Ġrowboat":8127,"gram":8128,"Ġraining":8129,"hicago":8130,"Ġwheat":8131,"Ġmats":8132,"weed":8133,"izes":8134,"Ġnovel":8135,"ĠLin":8136,"ĠLANDING":8137,"ĠHappy":8138,"ĠHalloween":8139,"ĠHawaii":8140,"Ġpillars":8141,"Ġperformance":8142,"Ġfours":8143,"Ġexcept":8144,"Ġexerc":8145,"ĠNavy":8146,"Ġcooker":8147,"Ġgrind":8148,"Ġengaging":8149,"tible":8150,"riches":8151,"Ġconcer":8152,"Ġhelmeted":8153,"Ġpavil":8154,"Ġvanilla":8155,"Ġcarton":8156,"Ġpacking":8157,"Ġpackaging":8158,"Ġbaseman":8159,"unkin":8160,"Ġlaps":8161,"Ġtakeout":8162,"Ġseeming":8163,"Ġsailors":8164,"Ġclutching":8165,"mbling":8166,"Stat":8167,"bbles":8168,"Ġcenterpiece":8169,"Ġquart":8170,"Ġwheelie":8171,"osure":8172,"Ġwrink":8173,"Ġplacemat":8174,"Ġpretz":8175,"Ġrounded":8176,"Ġletter":8177,"Ġlocations":8178,"iously":8179,"scent":8180,"ĠAREA":8181,"Ġterrier":8182,"Ġpartner":8183,"ĠVW":8184,"Ġmodels":8185,"Ġladen":8186,"coat":8187,"ĠKreme":8188,"ĠKrispy":8189,"Ġmachinery":8190,"unging":8191,"Ġchains":8192,"Ġintern":8193,"Ġdepar":8194,"Plane":8195,"Plated":8196,"Ġabstract":8197,"Ġjogging":8198,"Ġmitts":8199,"Ġmedic":8200,"Ġcondition":8201,"ĠATV":8202,"Ġcapture":8203,"Ġcaptivity":8204,"Ġawkward":8205,"Ġpuppies":8206,"usky":8207,"Ġeyeglasses":8208,"Ġinfront":8209,"Motorc":8210,"little":8211,"Ġtanker":8212,"Ġ10":8213,"Ġdawn":8214,"Ġdaffod":8215,"Ġsurroundings":8216,"Ġcasually":8217,"ĠBOAT":8218,"Ġtransported":8219,"Ġlifeguard":8220,"Ġhamburgers":8221,"NTAIN":8222,"Ġradishes":8223,"Ġmattresses":8224,"Ġawait":8225,"Ġpinned":8226,"Ġcliffs":8227,"Ġbrace":8228,"Ġcranes":8229,"Ġextending":8230,"Room":8231,"Ġbandana":8232,"Ġalleyway":8233,"Ġcustomer":8234,"Ġdepicts":8235,"Ġlanguages":8236,"Ġvendors":8237,"Ġwreath":8238,"Ġmaybe":8239,"Ġyouths":8240,"Ġbundt":8241,"Ġseasoned":8242,"Ġspaces":8243,"ĠCOUPLE":8244,"ĠCOUNTER":8245,"Ġlobster":8246,"ĠEngland":8247,"Ġmessing":8248,"Ġkayaks":8249,"Ġwoven":8250,"Ġreception":8251,"Ġclustered":8252,"ĠUSING":8253,"Ġtattooed":8254,"Ġattendant":8255,"Ġpigs":8256,"Ġtraveler":8257,"Ġdestinations":8258,"Ġhearts":8259,"Ġhearty":8260,"Commercial":8261,"Ġfleet":8262,"Ġhugs":8263,"ĠMOTORCYCLE":8264,"gency":8265,"ĠOUTSIDE":8266,"ĠLeague":8267,"Ġbiscuits":8268,"Ġdiscussing":8269,"Ġpilot":8270,"Ġrhino":8271,"ĠClaus":8272,"AVING":8273,"Hands":8274,"Ġmailbox":8275,"Ġconsumption":8276,"Ġinstructor":8277,"Ġremodeling":8278,"Ġvessel":8279,"Ġascending":8280,"Ġcommunity":8281,"Ġ201":8282,"Ġpantry":8283,"Ġsearching":8284,"Ġbarricade":8285,"ĠStarbucks":8286,"Electronic":8287,"Ġmaintained":8288,"Ġsilhouetted":8289,"ĠCOMPUTER":8290,"Ġgraduation":8291,"iamese":8292,"Ġfuton":8293,"Ġcoconut":8294,"ĠSTUFF":8295,"Ġblossoms":8296,"Ġdaisies":8297,"Ġprotruding":8298,"Multi":8299,"works":8300,"Ġblazer":8301,"Ġcannot":8302,"Ġordinary":8303,"Ġbulldog":8304,"ĠFRISBEE":8305,"Pieces":8306,"Ġgalley":8307,"ĠLAPTOP":8308,"Image":8309,"Ġprairie":8310,"Ġantenna":8311,"Ġboulders":8312,"ĠFLOOR":8313,"Ġacrobat":8314,"Ġbarriers":8315,"Ġdestroyed":8316,"Ornate":8317,"Ġdemolished":8318,"Elderly":8319,"innamon":8320,"Ġostriches":8321,"Ġpomegran":8322,"Ġpoodle":8323,"Ġmiscellaneous":8324,"Ġoutskirts":8325,"lydesdale":8326,"ĠBoston":8327,"Ġunknown":8328,"Ġperpendicular":8329,"Ġseemingly":8330,"Ġdaffodils":8331,"'re":8332,"30":8333,"AG":8334,"AUT":8335,"Bot":8336,"Fans":8337,"Father":8338,"FOUR":8339,"Go":8340,"Glasses":8341,"Gray":8342,"High":8343,"If":8344,"KES":8345,"Nine":8346,"Nice":8347,"NING":8348,"NIF":8349,"ORE":8350,"Pot":8351,"Pack":8352,"Public":8353,"Pots":8354,"Res":8355,"Single":8356,"TO":8357,"UB":8358,"What":8359,"ails":8360,"bla":8361,"creen":8362,"cDon":8363,"dri":8364,"down":8365,"dry":8366,"dges":8367,"different":8368,"eg":8369,"fy":8370,"gund":8371,"glass":8372,"goes":8373,"host":8374,"haw":8375,"iel":8376,"jured":8377,"mers":8378,"mble":8379,"motor":8380,"market":8381,"mounted":8382,"nuts":8383,"outs":8384,"oram":8385,"ointed":8386,"po":8387,"pit":8388,"picture":8389,"rink":8390,"ridge":8391,"surf":8392,"tel":8393,"tail":8394,"ued":8395,"vine":8396,"vator":8397,"vintage":8398,"wed":8399,"water":8400,"ys":8401,"zed":8402,"zebra":8403,"Ġu":8404,"ĠThere":8405,"Ġave":8406,"Ġable":8407,"ince":8408,"inter":8409,"ints":8410,"Ġtit":8411,"Ġoptions":8412,"Ġslo":8413,"Ġsche":8414,"Ġsack":8415,"Ġsipping":8416,"Ġbroom":8417,"Ġbru":8418,"Ġbake":8419,"Ġbinder":8420,"itol":8421,"itions":8422,"Ġwil":8423,"Ġwant":8424,"Ġwired":8425,"Ġpeb":8426,"Ġpale":8427,"Ġpuffy":8428,"Ġcris":8429,"Ġcider":8430,"Ġcables":8431,"Ġcycling":8432,"Ġcrystal":8433,"Ġcinnamon":8434,"levision":8435,"ata":8436,"atic":8437,"Ġinner":8438,"Ġinclosure":8439,"arpen":8440,"Ġofa":8441,"Ġfet":8442,"Ġfind":8443,"Ġfading":8444,"Ġfiled":8445,"Ġmad":8446,"Ġmama":8447,"Ġdome":8448,"Ġdram":8449,"Ġdolly":8450,"Ġdiced":8451,"Ġglue":8452,"Ġgesturing":8453,"enting":8454,"enities":8455,"Ġlant":8456,"Ġlast":8457,"Ġlunging":8458,"Ġstaff":8459,"Ġtoned":8460,"rack":8461,"etro":8462,"etti":8463,"unction":8464,"ashed":8465,"irst":8466,"irgin":8467,"Ġmanner":8468,"Ġmanuf":8469,"lamp":8470,"Ġnook":8471,"Ġnunch":8472,"Ġnavy":8473,"Ġnasty":8474,"Ġnational":8475,"oped":8476,"elve":8477,"elines":8478,"erside":8479,"Ġthink":8480,"Ġate":8481,"usting":8482,"ussian":8483,"Ġbeam":8484,"Ġbearing":8485,"Ġbeagle":8486,"riate":8487,"Ġskew":8488,"Ġcoal":8489,"Ġere":8490,"Ġtrade":8491,"Ġver":8492,"Ġvines":8493,"Ġvia":8494,"Ġbound":8495,"Ġbored":8496,"Ġshin":8497,"Ġshares":8498,"Ġsharpen":8499,"Ġparake":8500,"Ġparlor":8501,"Ġlakes":8502,"Ġlavis":8503,"Ġyear":8504,"Ġyaw":8505,"Ġchalk":8506,"Ġchip":8507,"Ġchases":8508,"Ġchute":8509,"Ġchunks":8510,"Ġbatch":8511,"amer":8512,"Ġoutc":8513,"Ġflu":8514,"Ġflats":8515,"Ġflipped":8516,"Ġfloored":8517,"igns":8518,"reek":8519,"store":8520,"stones":8521,"stools":8522,"Ġbud":8523,"Ġairliners":8524,"Ġkits":8525,"Ġrink":8526,"Ġrushing":8527,"Ġsurfaces":8528,"Ġyoungster":8529,"Ġcombo":8530,"zzarel":8531,"Ġforty":8532,"Ġkitchenette":8533,"Ġelevator":8534,"Ġheating":8535,"Ġhedge":8536,"Ġseg":8537,"Ġseren":8538,"Ġlecture":8539,"enty":8540,"Ġwaking":8541,"Ġwares":8542,"Ġdisg":8543,"ĠAS":8544,"ĠAt":8545,"Ġboarded":8546,"Ġaltered":8547,"Ġalways":8548,"Ġglassware":8549,"Ġtails":8550,"Ġtagging":8551,"Ġthroughout":8552,"Ġhandheld":8553,"Ġspik":8554,"Ġbrownies":8555,"Ġflour":8556,"Ġfireworks":8557,"Ġbunt":8558,"ĠTeddy":8559,"ĠTREE":8560,"ĠTower":8561,"Ġdipped":8562,"Ġdiagonal":8563,"Ġeachother":8564,"Ġfences":8565,"ifying":8566,"iforn":8567,"ĠWall":8568,"IND":8569,"INE":8570,"ĠSP":8571,"ĠSp":8572,"ĠSams":8573,"Ġdries":8574,"Ġviewer":8575,"Ġapparel":8576,"ressed":8577,"Ġheadset":8578,"Ġfeast":8579,"Ġarid":8580,"ĠFE":8581,"ĠBAR":8582,"ĠBroccoli":8583,"ĠOCE":8584,"Ġdressers":8585,"arium":8586,"ĠCL":8587,"ĠCar":8588,"ĠCUT":8589,"ĠCoca":8590,"ĠChicago":8591,"Ġdrums":8592,"Ġstationed":8593,"Ġhazy":8594,"Ġuncom":8595,"Ġclim":8596,"Ġcamel":8597,"Ġprojection":8598,"Ġguarding":8599,"Ġaddress":8600,"Ġlost":8601,"Ġempt":8602,"Ġknight":8603,"usters":8604,"ĠParm":8605,"ĠPlay":8606,"ĠPolar":8607,"Ġbreed":8608,"Ġcontrolled":8609,"Ġcontrolling":8610,"ometer":8611,"Ġmonk":8612,"Ġherded":8613,"Ġpeach":8614,"cedes":8615,"Ġbooze":8616,"Ġforehead":8617,"Ġattack":8618,"ĠMickey":8619,"ĠMcDon":8620,"Ġnumbered":8621,"Ġsilo":8622,"Ġscreened":8623,"weet":8624,"ANS":8625,"ANGING":8626,"Ġpanting":8627,"Ġsalon":8628,"ĠLi":8629,"ĠLYING":8630,"Ġdocking":8631,"Ġamenities":8632,"Ġhairy":8633,"Ġhaircut":8634,"onda":8635,"ĠHAND":8636,"ĠHAVING":8637,"Ġphotographing":8638,"Ġtriangular":8639,"Ġcandies":8640,"Ġblank":8641,"ĠINSIDE":8642,"Ġhound":8643,"Ġhost":8644,"inton":8645,"Ġlayed":8646,"Ġpacket":8647,"Ġlapse":8648,"ĠEl":8649,"ĠEiffel":8650,"Ġspeckled":8651,"Ġseeing":8652,"Ġstyrofoam":8653,"Ġpaddock":8654,"packed":8655,"ĠRussian":8656,"Ġtanks":8657,"Ġquiche":8658,"Ġbalanced":8659,"Ġrounds":8660,"Ġharnes":8661,"Ġdesignated":8662,"Chairs":8663,"Ġearth":8664,"Ġearphones":8665,"Ġartis":8666,"ORD":8667,"ETTING":8668,"OWERS":8669,"Ġhamm":8670,"ESS":8671,"Ġburgers":8672,"Ġburgund":8673,"ĠVader":8674,"Ġcrazy":8675,"Ġsignaling":8676,"Ġmodified":8677,"Ġceilings":8678,"ĠKITE":8679,"Ġmachines":8680,"Ġcostumed":8681,"Ġclad":8682,"Ġentire":8683,"Ġaccident":8684,"ICH":8685,"lazed":8686,"OOKS":8687,"Plastic":8688,"ucky":8689,"Ġsodas":8690,"Ġexplo":8691,"Ġabund":8692,"Ġrearview":8693,"Ġawning":8694,"Ġdrags":8695,"Ġmicrophones":8696,"Guys":8697,"ĠYARD":8698,"Ġtaxider":8699,"Ġglider":8700,"Ġdeliver":8701,"Ġpresident":8702,"Ġadjust":8703,"Ġconfused":8704,"Ġcalcul":8705,"Ġbento":8706,"Ġrepres":8707,"Ġchests":8708,"Ġangel":8709,"Ġrubble":8710,"Door":8711,"Ġthicket":8712,"Ġconnecting":8713,"Ġsuccess":8714,"Ġcompleting":8715,"Ġassisting":8716,"Ġspinning":8717,"Ġsprays":8718,"Ġaprons":8719,"Ġgazes":8720,"Ġgazelles":8721,"Ġprotection":8722,"Ġdepicted":8723,"Ġordering":8724,"Ġlinked":8725,"Ġsuspenders":8726,"Ġadorns":8727,"Ġfriendly":8728,"Ġbuggies":8729,"ĠPHONE":8730,"Ġactivity":8731,"Ġfryer":8732,"Ġfestive":8733,"Ġrepairs":8734,"tiered":8735,"Ġreclines":8736,"Ġgoalie":8737,"Ġpeacefully":8738,"Ġornamental":8739,"ĠFLOWERS":8740,"IVE":8741,"Ġdetour":8742,"Ġkeeps":8743,"Ġbloody":8744,"Ġmovies":8745,"Ġpressed":8746,"ĠLOTS":8747,"Ġpineapples":8748,"Ġnowhere":8749,"Vegetable":8750,"Ġpresented":8751,"Freshly":8752,"Passenger":8753,"Ġnurse":8754,"ĠSHIRT":8755,"ĠSIGNS":8756,"Ġbarbeque":8757,"Ġsprout":8758,"Ġremaining":8759,"Ġprivacy":8760,"Ġblueberry":8761,"Ġmannequins":8762,"Ġwhites":8763,"Blond":8764,"Ġfitted":8765,"Sandwiches":8766,"ULL":8767,"Ġtemple":8768,"Ġcrochet":8769,"dressed":8770,"ĠAng":8771,"ĠCola":8772,"ĠSURFING":8773,"IFUL":8774,"Ġblade":8775,"Ġwoolly":8776,"Ġpilots":8777,"Ġcrowds":8778,"Ġhours":8779,"Ġallowed":8780,"Ġaiming":8781,"Ġmerch":8782,"Ġbridle":8783,"ĠPOS":8784,"ĠSOMEONE":8785,"Ġvibr":8786,"Ġbouncing":8787,"PLANE":8788,"Ġpelican":8789,"Ġpelicans":8790,"Ġferns":8791,"Ġrenovated":8792,"Ġrenovation":8793,"Ġsnapshot":8794,"Ġconverted":8795,"Ġconvertible":8796,"Ġremodel":8797,"Ġdvd":8798,"Ġreacts":8799,"Ġshoots":8800,"ĠChev":8801,"ĠMOUNTAIN":8802,"ĠLIGHTS":8803,"Ġsupermarket":8804,"Ġemploy":8805,"Ġemployees":8806,"Television":8807,"Ġlava":8808,"Ġbushels":8809,"ĠParking":8810,"ĠGLASSES":8811,"Bicycles":8812,"Interior":8813,"coln":8814,"Ġfamous":8815,"Ġgaug":8816,"Ġemergency":8817,"Ġpolitical":8818,"Ġpeopel":8819,"Ġdangerous":8820,"ĠAustralia":8821,"Ġtrekking":8822,"ĠTAKING":8823,"ĠSouthwest":8824,"Ġhydro":8825,"Ġmeatballs":8826,"Ġpleasant":8827,"Ġcongregate":8828,"ĠQue":8829,"Ġburners":8830,"Ġdangling":8831,"Ġeffect":8832,"ĠWAIT":8833,"Ġstylized":8834,"Ġceremony":8835,"Everyone":8836,"Slice":8837,"Umbrellas":8838,"Ġivy":8839,"Ġwelcome":8840,"Ġmanicured":8841,"Ġrumpled":8842,"Ġspiral":8843,"ĠBOWL":8844,"ĠMonument":8845,"Ġjewel":8846,"ĠCHAIRS":8847,"Ġviolin":8848,"Ġgirafee":8849,"Pitcher":8850,"Ġugly":8851,"Ġpacifier":8852,"organized":8853,"Ġfrolicking":8854,"Ġaltitude":8855,"ĠCaliforn":8856,"ĠCROSSING":8857,"ĠLincoln":8858,"Ġconcerned":8859,"Ġpavilion":8860,"Ġmedicine":8861,"AUTIFUL":8862,"Residential":8863,"Ġscheme":8864,"Ġmanufact":8865,"Ġlavish":8866,"Ġyawning":8867,"zzarella":8868,"ĠOCEAN":8869,"ĠParmesan":8870,"Ġharnesses":8871,"Ġburgundy":8872,"ĠCalifornia":8873,"'d":8874,"As":8875,"Airl":8876,"Ath":8877,"Bas":8878,"Bikes":8879,"Building":8880,"Can":8881,"Cake":8882,"CLO":8883,"Din":8884,"Dirty":8885,"French":8886,"GH":8887,"Happy":8888,"IAN":8889,"Key":8890,"Lunch":8891,"Me":8892,"Most":8893,"Middle":8894,"MENT":8895,"Prep":8896,"Rain":8897,"Rider":8898,"Sold":8899,"Square":8900,"Wind":8901,"WOM":8902,"WAL":8903,"WICH":8904,"aj":8905,"away":8906,"cer":8907,"cross":8908,"dar":8909,"ek":8910,"eding":8911,"ead":8912,"eight":8913,"fted":8914,"gar":8915,"game":8916,"giraff":8917,"gien":8918,"hu":8919,"ipt":8920,"ihu":8921,"link":8922,"lie":8923,"lots":8924,"mo":8925,"minton":8926,"nal":8927,"nch":8928,"oh":8929,"pee":8930,"pine":8931,"part":8932,"sive":8933,"six":8934,"snow":8935,"tic":8936,"tables":8937,"ua":8938,"uing":8939,"uer":8940,"yer":8941,"yon":8942,"zes":8943,"Ġage":8944,"Ġamp":8945,"Ġtast":8946,"Ġtips":8947,"Ġtier":8948,"Ġsom":8949,"Ġsell":8950,"Ġsuck":8951,"Ġslender":8952,"Ġsiamese":8953,"Ġbarge":8954,"Ġbale":8955,"Ġbitten":8956,"Ġbaker":8957,"ites":8958,"itter":8959,"itors":8960,"itating":8961,"Ġwrong":8962,"Ġwrang":8963,"heye":8964,"Ġpers":8965,"Ġpub":8966,"anish":8967,"Ġcd":8968,"Ġcds":8969,"eria":8970,"erature":8971,"atten":8972,"Ġinn":8973,"Ġinjured":8974,"rolet":8975,"Ġfav":8976,"Ġmal":8977,"Ġding":8978,"Ġdut":8979,"Ġdol":8980,"Ġdated":8981,"Ġdanc":8982,"Ġgig":8983,"Ġgone":8984,"Ġgutter":8985,"Ġghost":8986,"Ġlass":8987,"Ġlinger":8988,"omy":8989,"Ġstab":8990,"Ġstark":8991,"Ġstork":8992,"Ġtoll":8993,"raction":8994,"ono":8995,"onge":8996,"onna":8997,"unger":8998,"ask":8999,"Ġmangoes":9000,"Ġmantel":9001,"laged":9002,"Ġni":9003,"Ġnin":9004,"Ġnets":9005,"Ġnude":9006,"ilts":9007,"othes":9008,"Ġneut":9009,"Ġnecess":9010,"elt":9011,"utting":9012,"urious":9013,"Ġwhis":9014,"Ġwhom":9015,"Ġwhale":9016,"olo":9017,"olding":9018,"uss":9019,"ardi":9020,"about":9021,"Ġbeautif":9022,"Ġbegging":9023,"rive":9024,"Ġske":9025,"Ġcole":9026,"eboarding":9027,"Ġroyal":9028,"Ġtrailing":9029,"Ġtractors":9030,"Ġkim":9031,"Their":9032,"Ġplug":9033,"Ġplumb":9034,"Ġplums":9035,"Ġplunger":9036,"undown":9037,"Ġshared":9038,"Ġlaven":9039,"Ġlazy":9040,"Ġgras":9041,"Ġgrace":9042,"Ġyears":9043,"Ġpersonnel":9044,"Ġchin":9045,"Ġchang":9046,"Ġchinese":9047,"ander":9048,"Ġdownward":9049,"Ġuphill":9050,"Ġtopless":9051,"Ġsnake":9052,"Ġcaring":9053,"Ġsnowsh":9054,"Ġbust":9055,"Ġbusted":9056,"Ġramen":9057,"Ġrapid":9058,"Ġsigning":9059,"Ġsignpost":9060,"Ġblackberry":9061,"stle":9062,"still":9063,"storm":9064,"ims":9065,"Ġbubble":9066,"Ġairlines":9067,"Ġpound":9068,"Ġjala":9069,"Ġjuggling":9070,"Ġlips":9071,"ieval":9072,"Ġhedges":9073,"Ġsequ":9074,"Ġseven":9075,"Ġsecl":9076,"Ġseper":9077,"Ġleis":9078,"Ġoverh":9079,"Ġoveralls":9080,"Ġzomb":9081,"rely":9082,"rella":9083,"Ġtoilette":9084,"Ġcave":9085,"Ġcaps":9086,"Ġconven":9087,"Ġcouples":9088,"illi":9089,"ĠAl":9090,"ĠAlas":9091,"tainers":9092,"Ġslim":9093,"Ġintens":9094,"Ġtale":9095,"Ġhandmade":9096,"Ġscall":9097,"Ġscri":9098,"Ġscaff":9099,"Ġlighter":9100,"Ġmoved":9101,"Ġmohaw":9102,"Ġmozzarella":9103,"Ġdeco":9104,"cco":9105,"Ġtrestle":9106,"Ġswift":9107,"Ġspilled":9108,"Ġspider":9109,"Ġsponge":9110,"agers":9111,"agna":9112,"Ġcolla":9113,"Ġbows":9114,"ĠTe":9115,"ĠTown":9116,"ĠTex":9117,"Ġoffering":9118,"Ġsoil":9119,"Ġsound":9120,"Ġsoaking":9121,"Ġcutout":9122,"Ġcutlery":9123,"ĠSA":9124,"ĠSpan":9125,"Ġmounting":9126,"Ġdrift":9127,"Ġapparent":9128,"drying":9129,"ormal":9130,"Ġstandstill":9131,"Ġdays":9132,"ipher":9133,"Ġsave":9134,"Ġsales":9135,"Ġbroth":9136,"Ġrested":9137,"Ġrestored":9138,"ĠBI":9139,"ĠBM":9140,"ĠBl":9141,"ĠBirthday":9142,"ĠBAB":9143,"ĠOn":9144,"ĠCap":9145,"ĠCHE":9146,"ĠCLE":9147,"ĠCORN":9148,"ĠCUP":9149,"Ġdrum":9150,"Ġsunflower":9151,"Ġunt":9152,"Ġclump":9153,"Ġguides":9154,"Ġadditional":9155,"Ġloft":9156,"Ġemble":9157,"Ġembank":9158,"enger":9159,"REN":9160,"RESS":9161,"corting":9162,"Ġcontin":9163,"rigerator":9164,"ĠPC":9165,"ĠPAS":9166,"ĠPINK":9167,"Ġperio":9168,"Ġperipher":9169,"Ġdecorate":9170,"Ġmex":9171,"Ġmeans":9172,"Ġages":9173,"Ġpita":9174,"Ġpatties":9175,"pective":9176,"ometric":9177,"Ġmono":9178,"Ġracers":9179,"Ġpecking":9180,"clock":9181,"Ġbarking":9182,"Ġbarstools":9183,"Ġrescue":9184,"Ġordered":9185,"Ġforefront":9186,"closed":9187,"Ġplanted":9188,"Ġhelped":9189,"Ġattraction":9190,"Ġrains":9191,"ĠME":9192,"ĠMer":9193,"ĠMich":9194,"ĠMouse":9195,"ĠMarket":9196,"Ġbookstore":9197,"Ġpanoram":9198,"Ġbatteries":9199,"ĠLO":9200,"ĠLane":9201,"ĠLAND":9202,"ĠLONG":9203,"ĠLIKE":9204,"ATED":9205,"lica":9206,"ĠDo":9207,"ĠDav":9208,"ĠDarth":9209,"ĠDunkin":9210,"ĠDrive":9211,"ĠDRESS":9212,"ĠHigh":9213,"ĠHIT":9214,"ĠHANGING":9215,"Ġtriangle":9216,"Ġcountries":9217,"Ġexpl":9218,"ĠGi":9219,"ĠGold":9220,"Ġhoses":9221,"Ġcleaner":9222,"Ġoblong":9223,"Ġenglish":9224,"LES":9225,"Ġlayers":9226,"rica":9227,"ricycle":9228,"Ġpenny":9229,"Ġworkstation":9230,"ROC":9231,"Ġsubmar":9232,"Ġclothed":9233,"Ġpausing":9234,"Ġmilks":9235,"Ġdraws":9236,"Ġengineer":9237,"ĠEN":9238,"Ġlands":9239,"ĠSTOVE":9240,"Ġnewer":9241,"Ġleftover":9242,"Ġswimsuit":9243,"ĠChurch":9244,"ĠChina":9245,"ĠRAM":9246,"ĠRiver":9247,"Ġfoaming":9248,"OME":9249,"Stud":9250,"Ġfootp":9251,"bbling":9252,"Ġquaint":9253,"Ġlowered":9254,"Ġroundabout":9255,"Ġcreamy":9256,"Christmas":9257,"Ġblend":9258,"Ġwinning":9259,"Personal":9260,"Ġretro":9261,"Ġarticle":9262,"Ġgardening":9263,"Ġcrock":9264,"Ġhamster":9265,"Boat":9266,"Boxes":9267,"Ġpartition":9268,"ĠVol":9269,"ĠVEG":9270,"Ġturb":9271,"Ġsmokes":9272,"Ġmodest":9273,"Ġmusc":9274,"Ġgathers":9275,"Ġtoddlers":9276,"Ġsteaming":9277,"Ġvisiting":9278,"Ġcarpeting":9279,"Ġseaweed":9280,"Ġfolks":9281,"Ġclaws":9282,"Ġmason":9283,"Ġlids":9284,"Ġtwisted":9285,"OUSE":9286,"plant":9287,"Ġrailings":9288,"Ġpractices":9289,"Ġexposure":9290,"Ġjoy":9291,"Ġmedieval":9292,"Ġgrooming":9293,"Ġgroomed":9294,"Ġfinely":9295,"Ġfinishes":9296,"Ġsteeples":9297,"Ġcaptures":9298,"OLD":9299,"boys":9300,"Ġpetals":9301,"Surfboards":9302,"Ġ25":9303,"Ġcreation":9304,"Ġcreme":9305,"Ġinfield":9306,"Ġsectioned":9307,"Ġutensil":9308,"Ġdaily":9309,"Ġglaring":9310,"idson":9311,"Ġcollie":9312,"Ġpresenting":9313,"Compet":9314,"Ġshrub":9315,"Ġconfined":9316,"Ġspotless":9317,"Ġmagnet":9318,"Ġspeedboat":9319,"Ġaccessible":9320,"ĠREF":9321,"ĠREADY":9322,"Ġreplica":9323,"Ġquietly":9324,"Ġchilds":9325,"Ġribbons":9326,"Ġauditor":9327,"Ġonlooker":9328,"USH":9329,"UST":9330,"Ġassist":9331,"Ġwarmly":9332,"Ġsprayed":9333,"Toddler":9334,"ĠWOMEN":9335,"Ġshutters":9336,"Ġinterested":9337,"ĠTRASH":9338,"Banana":9339,"Ġshakes":9340,"Ġgroceries":9341,"Ġbandanna":9342,"Ġgrips":9343,"Ġelbow":9344,"Ġsleigh":9345,"Shot":9346,"Ġoperated":9347,"Ġadorn":9348,"Ġwrecked":9349,"Ġfairly":9350,"Ġmayonna":9351,"Ġregion":9352,"ĠHEAD":9353,"Ġrecipe":9354,"Ġgeometric":9355,"ĠIndia":9356,"APER":9357,"Ġdescending":9358,"Ġrepairing":9359,"Ġbillboards":9360,"Ġanticip":9361,"Ġlimbs":9362,"ratul":9363,"Ġwound":9364,"Ġinspects":9365,"Ġcoastline":9366,"Ġcopper":9367,"Ġdecals":9368,"Ġmeasure":9369,"Ġexamines":9370,"Ġmelons":9371,"Ġmaple":9372,"Uniform":9373,"viewed":9374,"Ġescorting":9375,"Ġbadminton":9376,"Ġminimal":9377,"Ġminutes":9378,"Ġrobes":9379,"ĠCLOSE":9380,"ĠSHOWER":9381,"ĠSIDEWAL":9382,"Ġexpressing":9383,"Ġrollerbla":9384,"Ġparasailer":9385,"Ġparasols":9386,"ĠBUSY":9387,"Vehicle":9388,"ĠSHELF":9389,"Ġantelopes":9390,"ĠThomas":9391,"Ġmousepad":9392,"Ġnails":9393,"Ġcockpit":9394,"Ġpenguins":9395,"CTION":9396,"Silhou":9397,"Ġscoop":9398,"Ġtemporary":9399,"Bicyclists":9400,"Crowded":9401,"Ġcottage":9402,"Ġcentury":9403,"ĠCoke":9404,"Bowls":9405,"Sliced":9406,"Ġrhinos":9407,"Ġ1950":9408,"Trains":9409,"ahua":9410,"Ġpedal":9411,"Ġmisses":9412,"Ġdomestic":9413,"ĠAPP":9414,"ĠClause":9415,"Ġsquirting":9416,"Ġcroissants":9417,"While":9418,"paved":9419,"Ġera":9420,"ĠOlympics":9421,"ĠWOODS":9422,"Ġdvds":9423,"Ġvessels":9424,"Ġshooting":9425,"ĠSEVERAL":9426,"Ġsymbols":9427,"Bride":9428,"Ġsundae":9429,"Ġresemble":9430,"Ġripened":9431,"Ġcurrently":9432,"horses":9433,"Ġdunes":9434,"Ġpreserve":9435,"Ġpurchase":9436,"ĠiPod":9437,"Ġnavigate":9438,"Ġcontempl":9439,"iversity":9440,"orous":9441,"Ġaquarium":9442,"Ġsidelines":9443,"Ġduffle":9444,"Ġvarying":9445,"Ġwakeboarding":9446,"Ġspanning":9447,"Ġproudly":9448,"ĠLAYING":9449,"Ġjuicer":9450,"ĠCARRI":9451,"ĠANIMALS":9452,"Teenagers":9453,"Ġfrisby":9454,"Ġllama":9455,"Ġcobbled":9456,"Ġchoices":9457,"Ġchatting":9458,"Ġzoom":9459,"Ġwindmill":9460,"ĠSANDWICH":9461,"Ġorchard":9462,"Ġattachment":9463,"ĠDonuts":9464,"Ġconcentrating":9465,"ĠElephants":9466,"ĠRUNNING":9467,"Ġcheckerboard":9468,"Ġenthusiast":9469,"Ġstranded":9470,"Ġexhaust":9471,"Ġautograph":9472,"Ġmurky":9473,"Ġhundreds":9474,"Ġgulls":9475,"children":9476,"Ġflanked":9477,"Ġenvelope":9478,"Ġgoblets":9479,"ĠCABIN":9480,"ĠLITTLE":9481,"ĠHotel":9482,"Ġteammate":9483,"Ġillustration":9484,"Ġtechnology":9485,"ĠBANANA":9486,"Sailboats":9487,"hydrant":9488,"sheep":9489,"Ġgorilla":9490,"Ġlasagna":9491,"Ġtotally":9492,"Ġgrafitti":9493,"Ġsnoozing":9494,"Ġpoorly":9495,"kswagon":9496,"Ġhandrail":9497,"Ġpreforming":9498,"ĠCentral":9499,"ĠHawaiian":9500,"Ġquarters":9501,"Ġnunchuck":9502,"Ġflatscreen":9503,"Ġserene":9504,"Ġspiky":9505,"ĠSamsung":9506,"Ġartisan":9507,"Ġhammock":9508,"Ġtaxidermy":9509,"Ġcalculator":9510,"Blonde":9511,"Ġvibrant":9512,"ĠChevrolet":9513,"ĠMOUNTAINS":9514,"Ġgauges":9515,"Ġhydrogen":9516,"Airliner":9517,"Keyboard":9518,"Prepared":9519,"Soldiers":9520,"WOMAN":9521,"ihuahua":9522,"Ġwrangling":9523,"attended":9524,"Ġdolph":9525,"Ġgigantic":9526,"Ġneutral":9527,"Ġbeautifully":9528,"Ġplumbing":9529,"Ġlavender":9530,"Ġjalapen":9531,"ĠAlaska":9532,"Ġswiftly":9533,"ĠTexas":9534,"ĠSpanish":9535,"Ġapparently":9536,"ĠCORNER":9537,"Ġembankment":9538,"Ġperiod":9539,"Ġexploring":9540,"Ġsubmarine":9541,"Ġauditorium":9542,"Ġmayonnaise":9543,"ĠSIDEWALK":9544,"!\"":9545,"\",":9546,"Aut":9547,"Abo":9548,"ACE":9549,"BY":9550,"Bag":9551,"Both":9552,"Bread":9553,"Bik":9554,"Ca":9555,"Class":9556,"Down":9557,"Dishes":9558,"Even":9559,"Front":9560,"Getting":9561,"GROUND":9562,"GAIN":9563,"Giant":9564,"His":9565,"Ham":9566,"HIND":9567,"MS":9568,"Mac":9569,"Over":9570,"Odd":9571,"Po":9572,"Pan":9573,"Pla":9574,"PING":9575,"PERSON":9576,"RY":9577,"Row":9578,"Rice":9579,"Rail":9580,"Ripe":9581,"RANT":9582,"SP":9583,"Sw":9584,"Ser":9585,"Set":9586,"Sep":9587,"Suit":9588,"Sleep":9589,"Sweet":9590,"TS":9591,"Tray":9592,"Tooth":9593,"VEN":9594,"You":9595,"ZING":9596,"ax":9597,"aign":9598,"azz":9599,"aise":9600,"bike":9601,"books":9602,"birds":9603,"cat":9604,"cred":9605,"dging":9606,"eer":9607,"eor":9608,"fs":9609,"fri":9610,"flowing":9611,"faced":9612,"gest":9613,"hop":9614,"hole":9615,"horn":9616,"happy":9617,"haki":9618,"iron":9619,"ipper":9620,"jar":9621,"jump":9622,"kiing":9623,"mac":9624,"male":9625,"nas":9626,"oles":9627,"por":9628,"pard":9629,"pos":9630,"peline":9631,"priate":9632,"rily":9633,"sail":9634,"tin":9635,"ther":9636,"tips":9637,"tower":9638,"uds":9639,"uctor":9640,"wr":9641,"wra":9642,"wall":9643,"wning":9644,"wire":9645,"walled":9646,"yd":9647,"ygen":9648,"zily":9649,"Ġ$":9650,"Ġx":9651,"ĠTwo":9652,"Ġeth":9653,"ĠĠĠĠĊ":9654,"Ġast":9655,"Ġajar":9656,"Ġtiling":9657,"Ġtaste":9658,"Ġtricycle":9659,"Ġoat":9660,"Ġour":9661,"Ġoars":9662,"Ġsut":9663,"Ġsong":9664,"Ġbold":9665,"Ġborn":9666,"Ġbison":9667,"Ġwan":9668,"Ġwro":9669,"Ġwid":9670,"Ġworm":9671,"Ġpy":9672,"Ġping":9673,"Ġpace":9674,"Ġpest":9675,"Ġpric":9676,"Ġpages":9677,"Ġpunch":9678,"Ġpuzzle":9679,"ank":9680,"reat":9681,"reary":9682,"Ġcred":9683,"Ġcuck":9684,"Ġcities":9685,"Ġcuis":9686,"lee":9687,"lev":9688,"erop":9689,"erware":9690,"atively":9691,"arat":9692,"aroo":9693,"ism":9694,"ision":9695,"isins":9696,"Ġank":9697,"Ġfud":9698,"Ġfond":9699,"Ġfits":9700,"Ġfinds":9701,"Ġmist":9702,"Ġmoose":9703,"Ġmunching":9704,"Ġwithe":9705,"Ġhump":9706,"Ġhoping":9707,"Ġhusky":9708,"Ġdue":9709,"Ġdine":9710,"Ġdude":9711,"Ġditch":9712,"Ġdanish":9713,"Ġdreary":9714,"ality":9715,"Ġging":9716,"Ġgel":9717,"Ġgain":9718,"Ġgang":9719,"Ġgalle":9720,"ene":9721,"ended":9722,"Ġlic":9723,"Ġlorry":9724,"Ġstro":9725,"Ġstony":9726,"Ġstables":9727,"Ġstilts":9728,"Ġtourn":9729,"Ġtone":9730,"Ġtons":9731,"rad":9732,"esy":9733,"dings":9734,"onies":9735,"orite":9736,"etrack":9737,"Ġmango":9738,"Ġnun":9739,"Ġnick":9740,"Ġnative":9741,"Ġnormal":9742,"changing":9743,"chief":9744,"ups":9745,"uplic":9746,"Ġnever":9747,"ella":9748,"Ġwhisk":9749,"older":9750,"useum":9751,"Ġbee":9752,"Ġbeaks":9753,"riped":9754,"rioles":9755,"Ġrequ":9756,"Ġrecess":9757,"Ġcoins":9758,"Ġcoord":9759,"Ġevil":9760,"Ġroped":9761,"Ġva":9762,"Ġvel":9763,"Ġkil":9764,"Ġkang":9765,"Ġkhaki":9766,"Ġdoc":9767,"locks":9768,"Ġplans":9769,"Ġholing":9770,"Ġfrowning":9771,"Ġstreetcar":9772,"Ġbout":9773,"Ġboiling":9774,"Ġfired":9775,"Ġshark":9776,"Ġshield":9777,"Ġpars":9778,"Ġlaunch":9779,"Ġlaunching":9780,"Ġlazily":9781,"Ġgrasp":9782,"Ġgrains":9783,"Ġsmashed":9784,"Ġchub":9785,"Ġchase":9786,"Ġchunk":9787,"Ġchased":9788,"Ġchihuahua":9789,"Ġbattle":9790,"antly":9791,"ament":9792,"umph":9793,"Ġupsc":9794,"Ġpipeline":9795,"Ġoutlet":9796,"achsh":9797,"Ġsno":9798,"Ġtender":9799,"Ġfronts":9800,"urely":9801,"Ġraisins":9802,"Ġbaseline":9803,"standing":9804,"rowave":9805,"Ġbuoy":9806,"Ġbuckled":9807,"Ġbubbles":9808,"Ġairsh":9809,"Ġbuild":9810,"zzle":9811,"Ġforming":9812,"Ġforrest":9813,"ctic":9814,"Ġjous":9815,"Ġjunction":9816,"Ġherder":9817,"Ġpizzeria":9818,"Ġbackward":9819,"Ġmotoro":9820,"Ġlikes":9821,"Ġskiies":9822,"Ġseal":9823,"Ġseap":9824,"Ġseash":9825,"Ġlego":9826,"Ġmotorists":9827,"ential":9828,"Ġzip":9829,"Ġeatery":9830,"Ġclocktower":9831,"Ġdispos":9832,"ubs":9833,"ubway":9834,"illas":9835,"ĠAri":9836,"ĠArabic":9837,"ĠAGAIN":9838,"Ġalign":9839,"Ġalter":9840,"Ġalpine":9841,"Ġsheering":9842,"Ġslat":9843,"Ġslats":9844,"Ġintent":9845,"Ġsands":9846,"Ġhandler":9847,"Ġhandstand":9848,"Ġhandwr":9849,"Ġscore":9850,"Ġvein":9851,"Ġunderground":9852,"Ġdeal":9853,"Ġtear":9854,"Ġtelesc":9855,"Ġtrench":9856,"aps":9857,"Ġbanister":9858,"ĠToy":9859,"Ġdives":9860,"Ġdiaper":9861,"Ġoffers":9862,"Ġoffsp":9863,"Ġsock":9864,"orescent":9865,"Ġbrings":9866,"Ġbrushed":9867,"Ġbruss":9868,"Ġskylight":9869,"Ġlotion":9870,"Ġkiteboarding":9871,"ĠWAY":9872,"ĠWAV":9873,"ĠSw":9874,"ĠSte":9875,"ĠSty":9876,"ĠSav":9877,"ĠSony":9878,"Ġappointed":9879,"Ġapparat":9880,"irror":9881,"Ġhygien":9882,"Ġvegetari":9883,"Ġsheeps":9884,"Ġchew":9885,"Ġfeild":9886,"Ġjumper":9887,"Ġdifferently":9888,"Ġarts":9889,"Ġrackett":9890,"ĠFUN":9891,"ĠBIC":9892,"ĠBuilding":9893,"ĠBridge":9894,"ĠOR":9895,"ĠOpen":9896,"ĠOak":9897,"ĠOriental":9898,"ĠORAN":9899,"Ġgrounds":9900,"ugging":9901,"ĠCE":9902,"ĠCa":9903,"ĠCon":9904,"ĠCELL":9905,"Ġsunbat":9906,"eye":9907,"Ġunpacked":9908,"Ġunpaved":9909,"Ġunattended":9910,"Ġclusters":9911,"Ġcamo":9912,"Ġpropping":9913,"Ġprogram":9914,"ultural":9915,"ultaneous":9916,"Ġsloped":9917,"Ġsloppy":9918,"Ġcrossb":9919,"essy":9920,"Ġadding":9921,"Ġadds":9922,"Ġlocks":9923,"Ġloaves":9924,"Ġstocking":9925,"corn":9926,"Ġtelephones":9927,"Ġcontent":9928,"Ġridge":9929,"through":9930,"ĠPhill":9931,"ĠPAPER":9932,"Ġserver":9933,"Ġcoloring":9934,"shower":9935,"shopped":9936,"Ġdoubled":9937,"Ġpasted":9938,"Ġwalker":9939,"Ġcurry":9940,"Ġcurling":9941,"Ġcurls":9942,"Ġvideogame":9943,"Ġbreaks":9944,"Ġhighly":9945,"Ġhighlight":9946,"Ġpotter":9947,"ĠIt":9948,"Ġpatty":9949,"tennis":9950,"tender":9951,"uded":9952,"Ġpaperback":9953,"Ġmonora":9954,"Ġhomeless":9955,"Ġracetrack":9956,"Ġrestaurants":9957,"Ġpeg":9958,"Ġpeaches":9959,"Ġpeaks":9960,"Ġcanop":9961,"Ġcanyon":9962,"estaurant":9963,"Ġpoll":9964,"Ġintersecting":9965,"Ġshells":9966,"ĠMA":9967,"ĠMO":9968,"ĠMot":9969,"ĠMain":9970,"ĠMADE":9971,"Ġbookcases":9972,"Ġlookout":9973,"Ġmatches":9974,"cling":9975,"Ġpancake":9976,"Ġbattery":9977,"ĠLa":9978,"ĠLED":9979,"ĠLove":9980,"ĠDan":9981,"ĠDEN":9982,"Ġhairdry":9983,"Ġpicket":9984,"ĠHY":9985,"ĠHe":9986,"ĠHor":9987,"ĠHol":9988,"ĠHAT":9989,"ĠHAIR":9990,"ĠHonda":9991,"ĠHOUSE":9992,"Ġscenes":9993,"Ġshopped":9994,"Ġexting":9995,"Ġexpla":9996,"Ġexper":9997,"ĠGu":9998,"ĠGreen":9999,"ĠGROUND":10000,"ĠGothic":10001,"ĠGrand":10002,"ĠGUY":10003,"ĠGreek":10004,"Ġflapping":10005,"Ġflame":10006,"ĠNY":10007,"ĠNorth":10008,"Ġcookware":10009,"Ġcommuters":10010,"Ġgriddle":10011,"LED":10012,"Ġfreely":10013,"spired":10014,"Ġpenned":10015,"Ġpawing":10016,"Ġpause":10017,"Ġplatforms":10018,"istor":10019,"Ġshocked":10020,"eeps":10021,"ĠEX":10022,"ĠEast":10023,"ĠEACH":10024,"Ġarmo":10025,"Ġarmrest":10026,"Ġlandsc":10027,"Ġwildly":10028,"Ġfrid":10029,"ĠSTRAW":10030,"ĠSTATION":10031,"ĠSTORE":10032,"Ġswimmer":10033,"Ġarranging":10034,"Ġcurtained":10035,"ĠChar":10036,"Ġflys":10037,"Striped":10038,"Ġduct":10039,"Ġtrails":10040,"Ġquar":10041,"upperware":10042,"berty":10043,"landscape":10044,"Ġglobe":10045,"Ġgloomy":10046,"Ġlowers":10047,"ristine":10048,"Ġservings":10049,"Chinese":10050,"Chopped":10051,"Ġartist":10052,"ORS":10053,"ĠUK":10054,"ETS":10055,"Ġappropriate":10056,"Ġchecked":10057,"Ġterra":10058,"Ġturf":10059,"Ġcracker":10060,"Ġcrafting":10061,"Ġdelta":10062,"Ġdiscarded":10063,"Ġladle":10064,"urfing":10065,"ĠKing":10066,"Ġegret":10067,"Ġcrus":10068,"Ġcircles":10069,"Ġnaps":10070,"Ġornately":10071,"Ġseafood":10072,"Ġlogos":10073,"Ġantiques":10074,"Ġclapping":10075,"Ġaccord":10076,"Ġextreme":10077,"Ġinterviewed":10078,"Ġtwenty":10079,"ĠJUST":10080,"Ġdollar":10081,"Ġsupply":10082,"Ġteenaged":10083,"Ġsprinkle":10084,"going":10085,"Ġjuven":10086,"Planes":10087,"Ġcomfy":10088,"meal":10089,"ALLY":10090,"Ġstrap":10091,"Ġjoint":10092,"Ġeggplant":10093,"ĠTOOTH":10094,"Ġterminals":10095,"Ġconditions":10096,"Ġconductor":10097,"Advert":10098,"Ġelder":10099,"Ġsmartphones":10100,"Ġcelebrate":10101,"Ġcelebrity":10102,"Ind":10103,"OLATE":10104,"Ġsimultaneous":10105,"Ġremoves":10106,"Ġducklings":10107,"Ġcreating":10108,"Ġstarring":10109,"Ġ12":10110,"Ġ18":10111,"ĠYou":10112,"ĠYELL":10113,"Ġseparating":10114,"Ġorganic":10115,"Ġorganiz":10116,"Head":10117,"Ġnewspapers":10118,"UTS":10119,"Ġmagnific":10120,"Ġalmond":10121,"Ġinstit":10122,"Ġinstead":10123,"Ġfocal":10124,"Ġaccessory":10125,"Pictures":10126,"ĠREST":10127,"Ġwinged":10128,"Ġcowboys":10129,"ĠBEAUTIFUL":10130,"ĠBEHIND":10131,"Ġbulb":10132,"Ġfilth":10133,"ĠWHILE":10134,"Ġrubs":10135,"Dozens":10136,"Ġprincess":10137,"ewish":10138,"Ġbrim":10139,"Ġdumpster":10140,"URN":10141,"FFES":10142,"Toy":10143,"Ġcranberries":10144,"Ġhugged":10145,"Ġtuna":10146,"Ġcruising":10147,"Ġshadowy":10148,"Ġstraightening":10149,"Ġprior":10150,"Ġprize":10151,"Ġgazebo":10152,"Ġprotect":10153,"Coffee":10154,"EARS":10155,"ĠPLAT":10156,"Ġsneaker":10157,"Ġhungry":10158,"ribing":10159,"Ġorderly":10160,"Ġquilted":10161,"Ġturkeys":10162,"Skateboarders":10163,"Ġilluminates":10164,"Ġfabrics":10165,"Ġrafters":10166,"Ġfairy":10167,"Ġmayo":10168,"ĠCHOC":10169,"Ġprojected":10170,"Ġactors":10171,"Ġseaside":10172,"Ġcigarettes":10173,"Ġhipp":10174,"Ġgoog":10175,"Ġgooey":10176,"ĠCOUCH":10177,"Ġserviced":10178,"CHER":10179,"tails":10180,"Ġfills":10181,"Ġcobblestones":10182,"Ġbillowing":10183,"Ġflavor":10184,"Ġinspect":10185,"ports":10186,"Ġwindsurfer":10187,"Ġcuddled":10188,"Ġcuddles":10189,"Ġdonkeys":10190,"Ġbriefcases":10191,"Ġmelon":10192,"Ġattended":10193,"Ġsleeve":10194,"Under":10195,"Ġadolesc":10196,"Ġselections":10197,"ĠRock":10198,"Ġharnessed":10199,"Ġtrouble":10200,"Ġsweets":10201,"Ġtuxedos":10202,"Ġguns":10203,"Ġcompanion":10204,"ĠAfrica":10205,"ĠAIRPLANE":10206,"Ġcampus":10207,"Ġoxygen":10208,"Ġtones":10209,"Ġunloaded":10210,"Ġembro":10211,"Att":10212,"iki":10213,"Ġscratched":10214,"Ġretrieve":10215,"ĠHERD":10216,"Ġmaneuvering":10217,"Ġtilting":10218,"Ġinvestig":10219,"Ġflea":10220,"Ġtugboat":10221,"Ġrules":10222,"Ġknobs":10223,"Ġcontrast":10224,"Ġtripod":10225,"Ġsolitary":10226,"Ġscooping":10227,"Ġtemperature":10228,"ĠSUIT":10229,"Ġsaucers":10230,"ĠLego":10231,"Roadway":10232,"Ġcotton":10233,"Ġcrashes":10234,"Ġcrashed":10235,"Ġoccupy":10236,"Ġadmire":10237,"Ġmarshy":10238,"Ġshavings":10239,"Ġdescription":10240,"Ġaimed":10241,"Ġbrownish":10242,"Ġmisty":10243,"Ġyachts":10244,"Ġblindf":10245,"ĠALL":10246,"ĠAPPLE":10247,"ĠBRID":10248,"Containers":10249,"Ġtwigs":10250,"Photograph":10251,"Ġinstructing":10252,"Ġferris":10253,"Ġspires":10254,"ĠCOWS":10255,"ĠGIRAFFES":10256,"Ġofficials":10257,"Ġsupports":10258,"Ġtortillas":10259,"Ġsamples":10260,"Ġhorizontal":10261,"ĠShepard":10262,"ĠMOUTH":10263,"Ġtrashcans":10264,"ĠBACKGROUND":10265,"ĠCHILDREN":10266,"Reflection":10267,"Ġresembling":10268,"Ġlavatory":10269,"Ġmossy":10270,"Ġbarricades":10271,"Electric":10272,"Ġsilhouettes":10273,"Ġdetails":10274,"Ġdetailed":10275,"Ġgenerated":10276,"Cowboys":10277,"Pasta":10278,"Ġsqueezed":10279,"annah":10280,"Ġlipstick":10281,"Ġnavigates":10282,"Ġcontemporary":10283,"Ġaqua":10284,"Ġsightse":10285,"Ġduffel":10286,"Ġstrainer":10287,"Ġjudges":10288,"Ġwakeboard":10289,"ĠSWING":10290,"ĠPhoto":10291,"ĠLAUG":10292,"ĠRACK":10293,"Ġparticipating":10294,"ĠCARRYING":10295,"Decorative":10296,"Workers":10297,"Ġsexy":10298,"Ġlesson":10299,"Ġunbaked":10300,"Ġamazing":10301,"ĠExpress":10302,"Ġcrumbs":10303,"Ġaccented":10304,"Ġcylind":10305,"Ġthermometer":10306,"Ġeagerly":10307,"Ġteacher":10308,"ĠWORKING":10309,"Ġappearing":10310,"ĠPASS":10311,"Ġwildebeest":10312,"ĠSLOPE":10313,"ghan":10314,"Ġpudding":10315,"Ġannoun":10316,"Ġfisheye":10317,"Ġglare":10318,"Ġsprawled":10319,"Ġfirefighter":10320,"Ġsocializing":10321,"Ġloveseat":10322,"ĠPOLAR":10323,"Ġpretzel":10324,"Ġacrobatic":10325,"Ġpomegranate":10326,"Bottles":10327,"motorcycle":10328,"Ġwilted":10329,"Ġpebb":10330,"Ġdramatic":10331,"Ġskewers":10332,"Ġshinning":10333,"Ġfluorescent":10334,"Ġuncommon":10335,"Ġclimbs":10336,"Ġemptied":10337,"Ġknights":10338,"ĠMcDonald":10339,"Ġabundance":10340,"Ġrepresent":10341,"ĠPOSING":10342,"Ġemployee":10343,"ĠQueen":10344,"Ġjewelry":10345,"CLOS":10346,"Dinner":10347,"Meal":10348,"peeled":10349,"Ġsuckling":10350,"Ġfavorite":10351,"Ġduty":10352,"Ġlasso":10353,"Ġlingerie":10354,"Ġchanged":10355,"Ġrapidly":10356,"Ġsequence":10357,"Ġsecluded":10358,"Ġseperate":10359,"Ġscaffolding":10360,"Ġmohawk":10361,"ĠBIKES":10362,"ĠBMW":10363,"ĠBABY":10364,"ĠCapitol":10365,"Ġemblem":10366,"ĠPASTURE":10367,"ĠDouble":10368,"ĠDavidson":10369,"ĠDRESSED":10370,"Uniformed":10371,"Ġrollerblading":10372,"ĠCARRIAGE":10373,"Ġdolphin":10374,"Bikers":10375,"Sepia":10376,"Ġethnic":10377,"Ġwanting":10378,"Ġpesto":10379,"Ġprices":10380,"Ġcredit":10381,"Ġcuckoo":10382,"Ġcuisine":10383,"Ġfudge":10384,"Ġfondant":10385,"Ġgallery":10386,"Ġtournament":10387,"uplicate":10388,"Ġkangaroo":10389,"Ġchubby":10390,"Ġupscale":10391,"achshund":10392,"Ġairshow":10393,"Ġseaplane":10394,"Ġseashore":10395,"ĠAGAINST":10396,"ĠToyota":10397,"Ġoffspring":10398,"ĠWAVES":10399,"ĠSavannah":10400,"Ġvegetarian":10401,"Ġmonorail":10402,"Ġhairdryer":10403,"ĠYELLOW":10404,"Ġmagnificent":10405,"ĠCHOCOLATE":10406,"Ġadolescent":10407,"ĠLAUGHING":10408,"07":10409,"40":10410,"47":10411,"AC":10412,"Action":10413,"ACT":10414,"BL":10415,"BAT":10416,"Bunch":10417,"Books":10418,"BUS":10419,"Cr":10420,"Cal":10421,"Crow":10422,"COR":10423,"Cooks":10424,"Dude":10425,"DRANT":10426,"Eng":10427,"FE":10428,"For":10429,"Fam":10430,"Fore":10431,"Fish":10432,"Few":10433,"Flock":10434,"Gr":10435,"Grand":10436,"Glazed":10437,"Huge":10438,"IB":10439,"Ite":10440,"IRE":10441,"IET":10442,"Kid":10443,"Lives":10444,"Mon":10445,"Mot":10446,"More":10447,"Mountain":10448,"Messy":10449,"Ne":10450,"NIC":10451,"OF":10452,"OG":10453,"OLE":10454,"OON":10455,"Pat":10456,"Port":10457,"Pige":10458,"PIZZA":10459,"Piles":10460,"Spe":10461,"School":10462,"Shel":10463,"TE":10464,"TY":10465,"Tom":10466,"Top":10467,"Tri":10468,"Tran":10469,"Tiny":10470,"Trees":10471,"Ur":10472,"VING":10473,"WH":10474,"Wo":10475,"Wall":10476,"au":10477,"ait":10478,"ael":10479,"aler":10480,"aired":10481,"bre":10482,"ben":10483,"barrow":10484,"bathroom":10485,"can":10486,"card":10487,"cam":10488,"cif":10489,"cour":10490,"cream":10491,"clad":10492,"don":10493,"dery":10494,"duce":10495,"dish":10496,"ec":10497,"eing":10498,"ems":10499,"elephant":10500,"ecut":10501,"fle":10502,"fed":10503,"fall":10504,"face":10505,"fth":10506,"flight":10507,"ga":10508,"gth":10509,"gating":10510,"gae":10511,"iqu":10512,"iated":10513,"irely":10514,"lif":10515,"luggage":10516,"liding":10517,"liet":10518,"living":10519,"mit":10520,"more":10521,"mies":10522,"mark":10523,"mart":10524,"mitive":10525,"mesan":10526,"ov":10527,"oat":10528,"oting":10529,"okes":10530,"pot":10531,"pad":10532,"pets":10533,"pants":10534,"run":10535,"rine":10536,"rings":10537,"rument":10538,"sink":10539,"sery":10540,"something":10541,"toned":10542,"tHERE":10543,"uk":10544,"uv":10545,"ucc":10546,"ules":10547,"ueling":10548,"voy":10549,"wh":10550,"wich":10551,"wash":10552,"with":10553,"xim":10554,"yellow":10555,"you":10556,"Ġ#":10557,"Ġale":10558,"Ġaside":10559,"Ġaward":10560,"Ġactive":10561,"Ġavenue":10562,"Ġaerop":10563,"inis":10564,"inate":10565,"inara":10566,"Ġti":10567,"Ġtund":10568,"Ġtand":10569,"Ġtipped":10570,"Ġtater":10571,"Ġtupperware":10572,"Ġod":10573,"Ġouting":10574,"Ġsen":10575,"Ġsed":10576,"Ġsch":10577,"Ġslack":10578,"Ġsip":10579,"Ġsick":10580,"Ġsash":10581,"Ġsings":10582,"Ġsiding":10583,"Ġsorting":10584,"Ġber":10585,"Ġbris":10586,"Ġburned":10587,"itam":10588,"itering":10589,"itables":10590,"Ġwest":10591,"Ġwint":10592,"Ġwti":10593,"Ġwrench":10594,"healthy":10595,"Ġpate":10596,"Ġpong":10597,"Ġpuff":10598,"Ġpristine":10599,"anks":10600,"anos":10601,"rec":10602,"rex":10603,"real":10604,"Ġcash":10605,"Ġcopy":10606,"Ġcrispy":10607,"lent":10608,"eros":10609,"ermany":10610,"errier":10611,"Ġona":10612,"Ġonce":10613,"Ġontop":10614,"atin":10615,"atoo":10616,"Ġink":10617,"Ġinqu":10618,"Ġinser":10619,"Ġinset":10620,"Ġincred":10621,"Ġinspired":10622,"Ġoften":10623,"roc":10624,"ror":10625,"isses":10626,"Ġfas":10627,"Ġfoo":10628,"Ġfiling":10629,"Ġfinal":10630,"Ġfont":10631,"Ġmol":10632,"Ġmate":10633,"Ġmunch":10634,"Ġmiles":10635,"Ġmuzzle":10636,"Ġwitha":10637,"Ġhig":10638,"Ġhope":10639,"Ġdid":10640,"Ġdying":10641,"Ġdread":10642,"Ġdamp":10643,"Ġdusted":10644,"Ġdental":10645,"Ġdummy":10646,"Ġduplicate":10647,"Ġdachshund":10648,"alian":10649,"Ġgon":10650,"Ġgay":10651,"Ġgushing":10652,"Ġgears":10653,"Ġgerman":10654,"Ġgummy":10655,"Ġlumb":10656,"Ġlily":10657,"Ġlions":10658,"Ġlondon":10659,"Ġlilies":10660,"omber":10661,"Ġsta":10662,"Ġstories":10663,"Ġtots":10664,"Ġtouched":10665,"Ġtoliet":10666,"rass":10667,"esus":10668,"ona":10669,"onn":10670,"onder":10671,"onne":10672,"Ġisn":10673,"Ġisle":10674,"edic":10675,"owl":10676,"owed":10677,"unt":10678,"asa":10679,"asy":10680,"asian":10681,"asket":10682,"Ġmanmade":10683,"Ġmandar":10684,"laim":10685,"lady":10686,"oph":10687,"open":10688,"opping":10689,"chain":10690,"ooh":10691,"ooding":10692,"upcakes":10693,"otes":10694,"Ġneg":10695,"elled":10696,"uttered":10697,"urnished":10698,"Ġwhy":10699,"ersection":10700,"icycle":10701,"ician":10702,"Ġtho":10703,"usual":10704,"hernal":10705,"Ġbeet":10706,"Ġbeets":10707,"Ġskim":10708,"Ġretain":10709,"Ġreached":10710,"Ġreeds":10711,"Ġreigns":10712,"idered":10713,"Ġcove":10714,"Ġcoupe":10715,"Ġev":10716,"Ġecle":10717,"Ġrods":10718,"Ġromp":10719,"Ġroasting":10720,"Ġtrapped":10721,"Ġtravers":10722,"adilla":10723,"Ġvers":10724,"Ġkill":10725,"Ġkale":10726,"Ġkisses":10727,"Ġdoctor":10728,"loaf":10729,"Ġith":10730,"Ġplaques":10731,"Ġply":10732,"Ġpliers":10733,"Ġplowing":10734,"Ġstreetlamp":10735,"Ġboar":10736,"Ġbovine":10737,"Ġfifth":10738,"Ġshoot":10739,"Ġshorter":10740,"Ġshaker":10741,"Ġshipping":10742,"Ġparag":10743,"Ġparap":10744,"Ġparading":10745,"Ġparmesan":10746,"Ġlaw":10747,"Ġlazing":10748,"Ġgrav":10749,"Ġgross":10750,"Ġyaks":10751,"Ġyells":10752,"Ġsmir":10753,"Ġsmack":10754,"Ġchoo":10755,"Ġcharge":10756,"Ġchim":10757,"Ġchocol":10758,"Ġchicks":10759,"Ġchipped":10760,"Ġchaise":10761,"amel":10762,"amps":10763,"ume":10764,"uments":10765,"andise":10766,"Ġupd":10767,"Ġups":10768,"Ġupdated":10769,"cheon":10770,"Ġclover":10771,"Ġcloses":10772,"Ġclosing":10773,"Ġcloser":10774,"Ġouts":10775,"Ġouter":10776,"Ġoutwards":10777,"Ġoutlets":10778,"ulture":10779,"ulted":10780,"Ġsnout":10781,"Ġfling":10782,"Ġflick":10783,"Ġflush":10784,"Ġflashing":10785,"Ġflooding":10786,"Ġcarpets":10787,"Ġcaramel":10788,"seat":10789,"seen":10790,"Ġnears":10791,"keep":10792,"Ġsnowstorm":10793,"Ġtend":10794,"Ġrifle":10795,"Ġwalsk":10796,"Ġrag":10797,"Ġrared":10798,"Ġrafts":10799,"Ġsigned":10800,"ugs":10801,"ugula":10802,"Ġsurg":10803,"Ġsurge":10804,"Ġsurboard":10805,"Ġbass":10806,"Ġbasins":10807,"ston":10808,"stairs":10809,"imeter":10810,"imote":10811,"Ġbystand":10812,"ainted":10813,"Ġbucking":10814,"Ġblur":10815,"Ġruff":10816,"Ġrushes":10817,"Ġrundown":10818,"Ġreddish":10819,"assorted":10820,"photo":10821,"Another":10822,"inks":10823,"Ġyoungsters":10824,"Ġbaseballs":10825,"Ġbathrooms":10826,"Ġskatebo":10827,"Ġpockets":10828,"Ġjac":10829,"Ġjail":10830,"Ġjutting":10831,"Ġbacksp":10832,"umbs":10833,"Ġmotif":10834,"Ġlick":10835,"Ġlicks":10836,"Ġeleven":10837,"Ġwoodland":10838,"Ġskii":10839,"Ġheat":10840,"Ġheaped":10841,"Ġsele":10842,"Ġlen":10843,"Ġleag":10844,"Ġlets":10845,"Ġovern":10846,"Ġoverview":10847,"Ġovercoat":10848,"Ġoverflowing":10849,"Ġweed":10850,"Ġweight":10851,"ppers":10852,"Ġwaxing":10853,"Ġcapp":10854,"Ġcausing":10855,"Ġconvoy":10856,"Ġdism":10857,"Ġdisapp":10858,"Ġdisemb":10859,"Ġdisorganized":10860,"Ġcomplic":10861,"oustic":10862,"uba":10863,"Ġmens":10864,"Ġmenus":10865,"rison":10866,"ĠAM":10867,"ĠAR":10868,"ĠAv":10869,"ĠABO":10870,"Ġalb":10871,"Ġally":10872,"Ġalike":10873,"Ġalien":10874,"Ġalgae":10875,"Ġslate":10876,"Ġcompute":10877,"Ġwindowed":10878,"pending":10879,"pensive":10880,"Ġtac":10881,"Ġtapping":10882,"Ġtaco":10883,"Ġscrol":10884,"Ġscout":10885,"Ġscrew":10886,"Ġlightning":10887,"body":10888,"Ġmodeled":10889,"Ġunderpass":10890,"Ġundergoing":10891,"Ġdeath":10892,"Ġdelect":10893,"Ġdealer":10894,"Ġteh":10895,"Ġteak":10896,"Ġsweeping":10897,"Ġswitch":10898,"Ġspl":10899,"Ġspell":10900,"Ġspare":10901,"Ġspout":10902,"Ġspons":10903,"Ġspilling":10904,"aping":10905,"Ġbanks":10906,"Ġener":10907,"Ġbowtie":10908,"ĠTo":10909,"ĠTw":10910,"ĠTree":10911,"ĠTIM":10912,"ĠTUB":10913,"ĠTerrier":10914,"Ġdiet":10915,"Ġdiapers":10916,"Ġsole":10917,"Ġsoul":10918,"Ġsouth":10919,"Ġsoiled":10920,"quil":10921,"Ġshowc":10922,"Sea":10923,"ifi":10924,"iful":10925,"Ġrunners":10926,"ĠWalk":10927,"ĠWoman":10928,"ĠWater":10929,"INING":10930,"ĠSing":10931,"ĠSER":10932,"ĠScot":10933,"ĠServ":10934,"ĠSyd":10935,"Ġhydr":10936,"Ġpassage":10937,"Ġpassport":10938,"dola":10939,"Ġheadband":10940,"Ġoceans":10941,"Ġmountaintop":10942,"ilingual":10943,"Ġcheek":10944,"Ġimag":10945,"themed":10946,"iping":10947,"Ġarc":10948,"Ġsaute":10949,"Ġbroke":10950,"ĠFre":10951,"ĠFer":10952,"ĠFrance":10953,"ours":10954,"ĠBook":10955,"ĠBLE":10956,"ĠBaseball":10957,"ĠBox":10958,"ĠOld":10959,"ĠOVEN":10960,"Ġplater":10961,"ario":10962,"ĠCom":10963,"ĠCard":10964,"ĠCenter":10965,"ĠCOOKING":10966,"ĠCROW":10967,"ĠCOVE":10968,"ĠClydesdale":10969,"Ġstations":10970,"Someones":10971,"aco":10972,"HER":10973,"Ġuns":10974,"Ġunti":10975,"Ġunits":10976,"Ġuniversity":10977,"Ġunhealthy":10978,"Ġunseen":10979,"Ġclips":10980,"Ġcupola":10981,"Ġguided":10982,"ession":10983,"Ġadd":10984,"Ġadv":10985,"Ġadvis":10986,"Ġlosing":10987,"Ġlocker":10988,"Ġloitering":10989,"Ġacoustic":10990,"Ġknot":10991,"Ġstovet":10992,"Ġvaried":10993,"Ġkeychain":10994,"Ġhangings":10995,"lash":10996,"Ġlonger":10997,"thans":10998,"ĠPac":10999,"ĠPAL":11000,"ĠPUR":11001,"ĠPIE":11002,"ĠPolice":11003,"ĠPAIN":11004,"ĠPlane":11005,"Ġperching":11006,"Ġperimeter":11007,"Ġbicycling":11008,"shop":11009,"Ġdecorates":11010,"iier":11011,"Ġpastel":11012,"Ġdinos":11013,"Ġago":11014,"Ġaggress":11015,"Ġpotential":11016,"Ġchildrens":11017,"ĠII":11018,"ĠIs":11019,"ĠInt":11020,"ĠIris":11021,"Ġpatches":11022,"udes":11023,"Ġbodysuit":11024,"Ġmonks":11025,"Ġhomework":11026,"Ġcanes":11027,"estion":11028,"Ġbartender":11029,"issance":11030,"Ġriverbank":11031,"plete":11032,"Ġsteers":11033,"Ġplanters":11034,"ials":11035,"Ġjetty":11036,"Ġattaching":11037,"Ġmouthwash":11038,"Ġraincoat":11039,"hiches":11040,"ĠMas":11041,"ĠMET":11042,"ĠMEAT":11043,"ĠMaj":11044,"oceros":11045,"Ġrocket":11046,"weight":11047,"ANES":11048,"toilet":11049,"toons":11050,"Ġpanini":11051,"Ġpaneling":11052,"izard":11053,"ĠLuf":11054,"ATUE":11055,"Ġtubs":11056,"elfie":11057,"ĠDON":11058,"Ġhairbrush":11059,"Ġbreaded":11060,"Ġpicker":11061,"ĠHy":11062,"ĠHouse":11063,"Ġsticky":11064,"Ġperformers":11065,"Ġshoppers":11066,"Ġexchanging":11067,"Ġexpensive":11068,"ĠGuard":11069,"ĠGETTING":11070,"ĠGeor":11071,"Ġforklift":11072,"Ġhoisted":11073,"Ġflam":11074,"ĠNO":11075,"ĠNOT":11076,"ĠNike":11077,"ĠNumer":11078,"Ġcookbook":11079,"Ġobsc":11080,"Ġobstructed":11081,"Ġmultitude":11082,"Smoke":11083,"Ġgrate":11084,"Ġgrits":11085,"Ġengage":11086,"LEBR":11087,"Ġfreest":11088,"Ġdistorted":11089,"Ġflowering":11090,"reaming":11091,"Ġpail":11092,"Ġpackets":11093,"Ġmarine":11094,"Ġmarinara":11095,"istrict":11096,"Ġshovel":11097,"Ġgarland":11098,"Ġtrink":11099,"Ġbutcher":11100,"Ġdrawings":11101,"Ġlapel":11102,"ĠED":11103,"ĠEY":11104,"ĠEd":11105,"Ġafro":11106,"Ġafield":11107,"Ġafrican":11108,"Ġspewing":11109,"Ġstylish":11110,"Ġtranquil":11111,"ĠSTATUE":11112,"Ġswimmers":11113,"Ġpadding":11114,"Ġtowns":11115,"itious":11116,"ĠRV":11117,"ĠRe":11118,"ĠRout":11119,"ĠRail":11120,"ĠRIGHT":11121,"Ġfoyer":11122,"Stack":11123,"Stacks":11124,"Ġbrushy":11125,"Ġgraffit":11126,"ALKING":11127,"Ġbackpacking":11128,"headed":11129,"Ġquality":11130,"Ġwheelbarrow":11131,"Ġbalding":11132,"Ġwrites":11133,"bert":11134,"Ġmessenger":11135,"Ġpointy":11136,"Ġwedge":11137,"Ġdeviled":11138,"ivil":11139,"Ġblouse":11140,"Ġwrappers":11141,"Ġharsh":11142,"Ġcoverings":11143,"Ġformations":11144,"Ġdesigner":11145,"Ġdesignating":11146,"Ġblends":11147,"Ġblenders":11148,"ĠStat":11149,"ĠState":11150,"ĠStore":11151,"Ġearrings":11152,"Ġflatbread":11153,"screen":11154,"Ġartich":11155,"Ġartfully":11156,"Ġarticles":11157,"ORM":11158,"Ġumping":11159,"ĠUNIF":11160,"Ġrugby":11161,"Ġprofessionals":11162,"leton":11163,"Ġoverlooked":11164,"Ġjumpsuit":11165,"Ġcrop":11166,"OWS":11167,"Ġrooster":11168,"Ġroosters":11169,"Ġpowdery":11170,"mont":11171,"Box":11172,"Ġterrit":11173,"ĠVirgin":11174,"Ġturban":11175,"Ġcrab":11176,"Ġcrafted":11177,"Ġsmoked":11178,"Ġladders":11179,"Ġchopper":11180,"Closed":11181,"Ġcompetitors":11182,"Ġtrailers":11183,"soccer":11184,"Ġcardinal":11185,"Ġcardigan":11186,"Ġhousebo":11187,"Ġfolder":11188,"Ġentran":11189,"Ġentrees":11190,"Ġentirely":11191,"Ġextern":11192,"ĠTHREE":11193,"Ġoutfitted":11194,"Ġtwelve":11195,"Ġstrung":11196,"Ġgrills":11197,"ĠJE":11198,"ĠJack":11199,"ĠJUN":11200,"ĠJewish":11201,"Ġapartments":11202,"Ġiphone":11203,"ĠiMac":11204,"OUT":11205,"Ġdepart":11206,"efully":11207,"Ġjuices":11208,"Ġstrad":11209,"Ġpiercing":11210,"athtub":11211,"Ġstunning":11212,"SEVERAL":11213,"empty":11214,"Ġmedal":11215,"Ġstreams":11216,"Ġreturned":11217,"Ġcube":11218,"Ġfinanc":11219,"ĠATM":11220,"Ġleafs":11221,"Ġcaptain":11222,"IDD":11223,"IDS":11224,"Indoor":11225,"Ġspectator":11226,"Ġpetal":11227,"Ġdrab":11228,"Ġdraft":11229,"Ġwaiter":11230,"Ġwaitress":11231,"Ġcreative":11232,"ĠSITS":11233,"Ġollie":11234,"Ġfastened":11235,"ietnam":11236,"Ġ14":11237,"ĠYear":11238,"Ġarrangements":11239,"Ġglows":11240,"Ġcollision":11241,"Ġlemonade":11242,"Ġpresidential":11243,"bowl":11244,"Ġconfetti":11245,"Ġspotlight":11246,"Ġinstall":11247,"Ġinstrument":11248,"ĠPLACE":11249,"ĠREM":11250,"ĠRES":11251,"Ġrepaired":11252,"ĠBEING":11253,"Ġbulbs":11254,"Ġfiltered":11255,"uzzi":11256,"Ġangles":11257,"Ġangrily":11258,"Ġlargest":11259,"Business":11260,"Ġsaddles":11261,"Ġconnect":11262,"Ġbalconies":11263,"Ġprints":11264,"Ġicebo":11265,"Ġpinstri":11266,"ELF":11267,"Ġsugared":11268,"Ġbacksides":11269,"Ġassists":11270,"Ġbraces":11271,"Ġstirs":11272,"Ġpopcorn":11273,"Ġvalve":11274,"Ġshutter":11275,"Ġprocession":11276,"ĠDOING":11277,"ĠDOOR":11278,"ĠAirplane":11279,"Round":11280,"Ġprimitive":11281,"Ġprotected":11282,"Ġmommy":11283,"ughters":11284,"Ġscarves":11285,"arents":11286,"Ġsquatted":11287,"Ġsystems":11288,"Ġcombined":11289,"ĠBAG":11290,"Ġwanders":11291,"pperoni":11292,"Ġmansion":11293,"ĠPARKING":11294,"Ġtoothpicks":11295,"Ġfingertips":11296,"Ġcigar":11297,"Ġtorso":11298,"AST":11299,"Ġprotesting":11300,"Ġilluminate":11301,"Ġsuspension":11302,"VERY":11303,"Ġdispens":11304,"Ġmusicians":11305,"handed":11306,"Ġpumps":11307,"Ġuncut":11308,"Ġwreck":11309,"Ġregal":11310,"Ġregister":11311,"Ġparachutes":11312,"Ġactual":11313,"Ġsoaps":11314,"ĠDOGS":11315,"Ġobstacles":11316,"Ġcalling":11317,"Ġhiker":11318,"Ġgoogle":11319,"Ġstroll":11320,"layer":11321,"Ġguards":11322,"APP":11323,"CHED":11324,"Ġdescribing":11325,"ĠGRAZING":11326,"Ġarrayed":11327,"ACHING":11328,"Ġreceiving":11329,"Ġreceipt":11330,"ĠFLOWER":11331,"ĠUSA":11332,"Ġdeter":11333,"Ġrectangle":11334,"Ġwindsurfers":11335,"sailing":11336,"Ġcasts":11337,"Ġpossible":11338,"Ġdecal":11339,"Ġdefaced":11340,"Ġpresses":11341,"Ġtights":11342,"Ġmelting":11343,"Ġrecords":11344,"Ġrotting":11345,"Ġrotted":11346,"amaha":11347,"Ġknitting":11348,"Ġsleeves":11349,"Pedestrian":11350,"Unusual":11351,"Ġminor":11352,"Ġhalter":11353,"Ġrobin":11354,"Ġtextured":11355,"Ġmajestic":11356,"Ġpayphone":11357,"Ġnursery":11358,"ĠZOO":11359,"Ġeasel":11360,"Ġeasily":11361,"Ġcampaign":11362,"Ġunload":11363,"Ġattentively":11364,"ROWING":11365,"Ġstomachs":11366,"Produce":11367,"stride":11368,"Ġmember":11369,"Ġretrieving":11370,"Ġmaneuvers":11371,"Ġexcitedly":11372,"Ġ66":11373,"Ġtilts":11374,"Ġtickets":11375,"Ġflexing":11376,"Ġalcove":11377,"ĠThames":11378,"Ġcocktail":11379,"Ġfixings":11380,"Ġknob":11381,"ĠNEARBY":11382,"Ġhunting":11383,"Ġnuzzle":11384,"Ġnuzzles":11385,"Ġrevealing":11386,"Ġcongratul":11387,"Ġscouts":11388,"Ġscoops":11389,"ĠSKIES":11390,"Ġavocados":11391,"Soup":11392,"ville":11393,"Ġtimer":11394,"Ġcentered":11395,"Ġcentral":11396,"Ġempire":11397,"Ġraspberry":11398,"Ġsurprise":11399,"Ġhandbags":11400,"Ġpretend":11401,"ĠBOYS":11402,"Ġassembled":11403,"Clothes":11404,"Ġcitiz":11405,"Ġreleased":11406,"Ġrhinoceros":11407,"Ġseriously":11408,"Ġcemetary":11409,"Ġmarshmall":11410,"Ġrelaxed":11411,"Ġbutterflies":11412,"Ġautomobiles":11413,"Ġdemonstrating":11414,"foil":11415,"Ġbrowsing":11416,"Ġmismat":11417,"Ġdomin":11418,"Ġdomed":11419,"Ġluxurious":11420,"Ġrelated":11421,"ĠAPPL":11422,"Ġbridges":11423,"Ġappetizer":11424,"ĠBRICK":11425,"Ġ747":11426,"Ġerase":11427,"Ġtether":11428,"Ġgotten":11429,"ollywood":11430,"Ġsatell":11431,"Ġinviting":11432,"Ġluncheon":11433,"Ġgraphics":11434,"ĠWOODEN":11435,"ĠInn":11436,"Ġsupported":11437,"Ġembrace":11438,"Ġevergreens":11439,"Newly":11440,"Ġgrowth":11441,"ĠShepherd":11442,"Ġflamingo":11443,"Ġcommunic":11444,"Ġrooftops":11445,"Brightly":11446,"Bench":11447,"Refrigerator":11448,"Ġestate":11449,"Ġtshirts":11450,"Ġsundown":11451,"Ġbugs":11452,"Ġpalace":11453,"Ġripeness":11454,"Ġcamouflaged":11455,"ĠSHEEPS":11456,"Pastry":11457,"Parked":11458,"horse":11459,"ulent":11460,"Ġfamilies":11461,"Ġdune":11462,"Ġcoconuts":11463,"Ġpolitician":11464,"Ġpurchasing":11465,"ĠHarley":11466,"Ġblossom":11467,"ĠiPad":11468,"Ġdaisy":11469,"ĠELEPHANTS":11470,"EATH":11471,"Homemade":11472,"uisher":11473,"Ġswirly":11474,"ĠShop":11475,"ĠRAIL":11476,"Ġparticipate":11477,"Ġjuicy":11478,"Ġaffectionately":11479,"Fluffy":11480,"Steam":11481,"groups":11482,"Ġlatest":11483,"Ġllamas":11484,"Ġcobbler":11485,"Ġzooms":11486,"Ġwindmills":11487,"Ġbringing":11488,"Ġproceeding":11489,"Ġorchid":11490,"Ġtransform":11491,"Ġexhausted":11492,"Ġinvolved":11493,"flip":11494,"Ġcylinder":11495,"Ġansw":11496,"Ġstudy":11497,"Ġstucco":11498,"Ġstays":11499,"Ġvenue":11500,"Ġvertical":11501,"Ġvertically":11502,"Ġplowed":11503,"Ġvegtables":11504,"Ġvegitables":11505,"ĠTIED":11506,"ĠCOLOR":11507,"Ġutilizing":11508,"Doughnuts":11509,"ĠSLOPES":11510,"Miniature":11511,"wheeled":11512,"Ġoriginal":11513,"Ġorigami":11514,"Ġculinary":11515,"Ġgnar":11516,"Ġmotocycle":11517,"Ġmotocross":11518,"Ġdiffrent":11519,"Ġbroccolli":11520,"Ġlockers":11521,"Statue":11522,"Statues":11523,"Ġwrinkled":11524,"Ġinternet":11525,"Ġinternational":11526,"Ġdeparting":11527,"Ġawkwardly":11528,"Motorcyclist":11529,"point":11530,"Ġtitled":11531,"Ġbruised":11532,"Ġlantern":11533,"Ġverdant":11534,"Ġparakeets":11535,"Ġlakeside":11536,"Ġchalkboard":11537,"amera":11538,"Ġoutcro":11539,"Ġsegments":11540,"ĠAtl":11541,"ĠCLOU":11542,"ĠCUTTING":11543,"Ġattacking":11544,"ĠLiberty":11545,"Doorway":11546,"ĠAngels":11547,"Ġmerchandise":11548,"ĠWAITING":11549,"Ġmanufacture":11550,"Athlete":11551,"Baskets":11552,"Buildings":11553,"garita":11554,"giraffes":11555,"Ġperspective":11556,"Ġmaln":11557,"Ġdingy":11558,"Ġnibbling":11559,"Ġnecessary":11560,"Ġskeleton":11561,"Ġkimono":11562,"Ġsnowshoes":11563,"Ġleisurely":11564,"Ġoverhang":11565,"Ġzombie":11566,"Ġintensely":11567,"Ġscript":11568,"Ġcollared":11569,"ĠCHECK":11570,"Ġuntidy":11571,"Ġperipheral":11572,"Ġmexican":11573,"ĠMercedes":11574,"ĠMichigan":11575,"Ġpanoramic":11576,"ĠGiants":11577,"ĠENCLOS":11578,"ĠRAMP":11579,"Students":11580,"Ġfootpath":11581,"Ġanticipation":11582,"Silhouette":11583,"Ġcontemplating":11584,"Ġzoomed":11585,"Ġjalapenos":11586,"Suitcases":11587,"friend":11588,"wrapped":11589,"Ġoatmeal":11590,"Ġwrote":11591,"Ġpyram":11592,"levard":11593,"Ġankle":11594,"Ġlicense":11595,"Ġstroke":11596,"rador":11597,"Ġrecessed":11598,"Ġvelvet":11599,"Ġparsley":11600,"Ġgrasps":11601,"Ġmotorola":11602,"Ġdisposable":11603,"Ġhandwritten":11604,"Ġtelescope":11605,"Ġbrussel":11606,"ĠSwiss":11607,"ĠStyrofoam":11608,"Ġapparatus":11609,"Ġhygiene":11610,"ĠBICYCLE":11611,"ĠORANGE":11612,"Ġcrossbones":11613,"Ġcanopies":11614,"Ġextinguisher":11615,"Ġexplaining":11616,"Ġarmoire":11617,"Ġjuvenile":11618,"ĠTOOTHBR":11619,"Individual":11620,"Ġsimultaneously":11621,"ĠPLATES":11622,"Ġembroidered":11623,"ĠBRIDGE":11624,"Ġsightseeing":11625,"Ġwakeboarder":11626,"Crowds":11627,"Foreign":11628,"Grilled":11629,"Items":11630,"Livestock":11631,"elephants":11632,"Ġaeroplane":11633,"Ġtundra":11634,"Ġtandem":11635,"Ġwtih":11636,"Ġinquis":11637,"Ġincredible":11638,"Ġmoldy":11639,"Ġgondola":11640,"hernalia":11641,"Ġparaphernalia":11642,"Ġchimney":11643,"Ġchocolates":11644,"Ġflickr":11645,"keeper":11646,"Ġbystanders":11647,"Ġjacuzzi":11648,"Ġbacksplash":11649,"Ġcomplicated":11650,"ĠABOVE":11651,"Ġdelectable":11652,"ĠTIME":11653,"ĠSydney":11654,"ĠCROWD":11655,"ĠCOVERED":11656,"Ġuntied":11657,"Ġstovetop":11658,"thansa":11659,"ĠPURPLE":11660,"Ġdinosaur":11661,"ĠLufthansa":11662,"ĠNumerals":11663,"ĠRoute":11664,"ĠUNIFORM":11665,"Ġexternal":11666,"Ġicebox":11667,"Ġpinstripe":11668,"Ġmarshmallows":11669,"Ġmismatched":11670,"ĠAPPLIAN":11671,"'m":11672,",\"":11673,".,":11674,"10":11675,"11":11676,"15":11677,"19":11678,"32":11679,"38":11680,"350":11681,"Af":11682,"Am":11683,"AUR":11684,"AVE":11685,"Bund":11686,"Brick":11687,"Bare":11688,"Birthday":11689,"Bunk":11690,"BLACK":11691,"British":11692,"Blender":11693,"Cell":11694,"Cong":11695,"CER":11696,"CED":11697,"Cyclists":11698,"CASE":11699,"Coca":11700,"Camera":11701,"DS":11702,"Del":11703,"Day":11704,"During":11705,"Dire":11706,"Doll":11707,"DAY":11708,"Drink":11709,"EY":11710,"Ent":11711,"Equ":11712,"EDING":11713,"FC":11714,"Fing":11715,"Fre":11716,"Fis":11717,"Flo":11718,"Fast":11719,"Fancy":11720,"Fishing":11721,"FUL":11722,"Gold":11723,"GLE":11724,"Garden":11725,"GES":11726,"Gaz":11727,"GUY":11728,"HT":11729,"How":11730,"Hel":11731,"Hol":11732,"Hey":11733,"HIC":11734,"IAL":11735,"Jets":11736,"KIN":11737,"KET":11738,"LB":11739,"LL":11740,"Lo":11741,"Low":11742,"Look":11743,"Live":11744,"LIC":11745,"LOOKING":11746,"LOOKS":11747,"Mar":11748,"Main":11749,"Market":11750,"Mixed":11751,"Mirror":11752,"Neat":11753,"NEATH":11754,"OS":11755,"OFFE":11756,"PD":11757,"PS":11758,"Pre":11759,"Pic":11760,"Pile":11761,"Post":11762,"Prop":11763,"Prot":11764,"Panda":11765,"Potted":11766,"PORT":11767,"Polo":11768,"RU":11769,"Rust":11770,"Rear":11771,"Rem":11772,"Raw":11773,"RIES":11774,"Riders":11775,"SM":11776,"Sal":11777,"Sur":11778,"Sty":11779,"Spl":11780,"South":11781,"Santa":11782,"Series":11783,"Sitting":11784,"Subway":11785,"Sports":11786,"Selfie":11787,"Ten":11788,"Too":11789,"Tree":11790,"Time":11791,"TEN":11792,"TAIN":11793,"Tools":11794,"Tax":11795,"TWo":11796,"Ut":11797,"UIN":11798,"Vend":11799,"VERS":11800,"Wat":11801,"Wed":11802,"Waff":11803,"YOUNG":11804,"aar":11805,"aver":11806,"aving":11807,"auce":11808,"aved":11809,"ba":11810,"bl":11811,"bq":11812,"bit":11813,"bal":11814,"bra":11815,"bel":11816,"bell":11817,"baby":11818,"based":11819,"buses":11820,"cent":11821,"city":11822,"cows":11823,"cope":11824,"dies":11825,"ein":11826,"ecker":11827,"fer":11828,"fla":11829,"fry":11830,"fire":11831,"fish":11832,"fresh":11833,"gher":11834,"gri":11835,"gular":11836,"glazed":11837,"hi":11838,"high":11839,"hib":11840,"hatt":11841,"hused":11842,"hound":11843,"iar":11844,"iary":11845,"ios":11846,"iques":11847,"ilad":11848,"jet":11849,"kin":11850,"kit":11851,"kely":11852,"lt":11853,"loo":11854,"looks":11855,"mi":11856,"mic":11857,"meat":11858,"mother":11859,"mings":11860,"maces":11861,"nip":11862,"osit":11863,"overs":11864,"ospital":11865,"ockey":11866,"ozer":11867,"oala":11868,"pr":11869,"pse":11870,"pane":11871,"ply":11872,"pizza":11873,"police":11874,"painted":11875,"parents":11876,"rd":11877,"rated":11878,"ritious":11879,"son":11880,"sign":11881,"smet":11882,"tw":11883,"tch":11884,"table":11885,"tign":11886,"teddy":11887,"turn":11888,"tons":11889,"traffic":11890,"tiled":11891,"trucks":11892,"ulo":11893,"uve":11894,"uke":11895,"uction":11896,"uces":11897,"uary":11898,"uette":11899,"vane":11900,"vory":11901,"women":11902,"watch":11903,"zo":11904,"zar":11905,"zor":11906,"zona":11907,"Ġ-":11908,"ĠX":11909,"ĠĠ":11910,"Ġide":11911,"ĠPeople":11912,"Ġax":11913,"Ġaid":11914,"Ġads":11915,"Ġabs":11916,"Ġastride":11917,"Ġauction":11918,"inting":11919,"iners":11920,"Ġtas":11921,"Ġtreet":11922,"Ġtang":11923,"Ġtart":11924,"Ġtint":11925,"Ġtuck":11926,"Ġtattered":11927,"Ġtacks":11928,"Ġtucks":11929,"Ġtangle":11930,"Ġtugging":11931,"Ġove":11932,"Ġoats":11933,"Ġsi":11934,"Ġsin":11935,"Ġsam":11936,"Ġsugg":11937,"Ġsons":11938,"Ġsorry":11939,"Ġspending":11940,"Ġsession":11941,"Ġbree":11942,"Ġbellow":11943,"Ġbaz":11944,"Ġbrought":11945,"Ġbomber":11946,"Ġbilingual":11947,"Ġbbq":11948,"ito":11949,"itated":11950,"itched":11951,"itiz":11952,"Ġward":11953,"Ġwast":11954,"Ġwizard":11955,"hem":11956,"hen":11957,"hent":11958,"heveled":11959,"Ġpom":11960,"Ġpam":11961,"Ġpand":11962,"Ġprow":11963,"Ġpred":11964,"Ġpunk":11965,"Ġprison":11966,"anas":11967,"anyard":11968,"regular":11969,"Ġci":11970,"Ġcors":11971,"Ġconey":11972,"Ġcuddle":11973,"Ġcinder":11974,"Ġclydesdale":11975,"Ġcultural":11976,"Ġcivil":11977,"lex":11978,"lege":11979,"lest":11980,"lease":11981,"legged":11982,"erns":11983,"atre":11984,"atified":11985,"Ġina":11986,"Ġinse":11987,"Ġinning":11988,"arant":11989,"roning":11990,"Ġana":11991,"Ġantle":11992,"Ġanime":11993,"Ġfilet":11994,"Ġfris":11995,"Ġfles":11996,"Ġfold":11997,"Ġfanc":11998,"Ġfooth":11999,"Ġfern":12000,"Ġfelt":12001,"Ġmam":12002,"Ġmim":12003,"Ġmild":12004,"Ġmull":12005,"Ġmast":12006,"Ġmarm":12007,"Ġmitten":12008,"Ġmule":12009,"Ġmingle":12010,"Ġwitting":12011,"Ġhil":12012,"Ġhide":12013,"Ġhate":12014,"Ġhips":12015,"Ġhike":12016,"Ġhops":12017,"Ġhunches":12018,"Ġhurt":12019,"Ġdus":12020,"Ġdill":12021,"Ġdyed":12022,"Ġdwar":12023,"Ġdata":12024,"Ġdusting":12025,"Ġdedic":12026,"Ġdudes":12027,"alking":12028,"alds":12029,"alade":12030,"Ġgag":12031,"Ġgap":12032,"Ġgamer":12033,"ena":12034,"ences":12035,"enced":12036,"enns":12037,"enclosed":12038,"Ġlist":12039,"Ġlisting":12040,"Ġlanyard":12041,"omic":12042,"ombox":12043,"Ġstood":12044,"Ġstag":12045,"Ġstap":12046,"Ġstren":12047,"Ġstake":12048,"Ġstamp":12049,"Ġstern":12050,"Ġstitch":12051,"Ġstamps":12052,"Ġtole":12053,"Ġtote":12054,"Ġtolit":12055,"Ġtoiled":12056,"Ġtoasting":12057,"Ġtoga":12058,"esome":12059,"esadilla":12060,"onic":12061,"onds":12062,"onial":12063,"onnie":12064,"owder":12065,"ording":12066,"orks":12067,"order":12068,"orange":12069,"orpor":12070,"ettle":12071,"unte":12072,"unny":12073,"asse":12074,"Ġmanes":12075,"Ġmanip":12076,"laf":12077,"laces":12078,"Ġnigh":12079,"Ġnach":12080,"Ġnail":12081,"opot":12082,"oppy":12083,"idas":12084,"ilities":12085,"otter":12086,"othing":12087,"Ġnegle":12088,"eliers":12089,"elisk":12090,"utches":12091,"utional":12092,"utons":12093,"urally":12094,"uristic":12095,"Ġwholly":12096,"Ġwhims":12097,"igues":12098,"igorous":12099,"olis":12100,"olor":12101,"olas":12102,"olate":12103,"olds":12104,"icase":12105,"Ġstaning":12106,"gee":12107,"geous":12108,"Ġthigh":12109,"Ġthirt":12110,"Ġthous":12111,"Ġatm":12112,"usc":12113,"usion":12114,"ards":12115,"abby":12116,"hermen":12117,"Ġbeware":12118,"Ġbeams":12119,"Ġska":12120,"Ġskilled":12121,"Ġren":12122,"Ġrein":12123,"Ġreind":12124,"Ġreco":12125,"Ġcore":12126,"Ġcoals":12127,"Ġcosmet":12128,"eber":12129,"ebasket":12130,"Ġrom":12131,"Ġroutes":12132,"Ġtraff":12133,"Ġtramp":12134,"adian":12135,"addled":12136,"Ġves":12137,"Ġvirt":12138,"Ġvice":12139,"Ġvict":12140,"Ġvulture":12141,"Ġvigorous":12142,"Ġken":12143,"Ġkara":12144,"Ġkoala":12145,"abled":12146,"Ġdodging":12147,"load":12148,"loaded":12149,"Ġitalian":12150,"ffy":12151,"Ġplot":12152,"Ġplus":12153,"Ġplying":12154,"Ġplast":12155,"verly":12156,"verted":12157,"Ġfrost":12158,"Ġfrown":12159,"Ġbodies":12160,"Ġfives":12161,"Ġfift":12162,"Ġshit":12163,"Ġshuff":12164,"Ġshave":12165,"Ġshakers":12166,"Ġshamp":12167,"Ġshattered":12168,"Ġshrine":12169,"Ġshabby":12170,"cement":12171,"ception":12172,"Ġgrave":12173,"Ġgrade":12174,"Ġgraham":12175,"ateur":12176,"Ġyield":12177,"Ġsmash":12178,"Ġsmells":12179,"Ġchic":12180,"Ġchari":12181,"Ġchilling":12182,"Ġchilli":12183,"Ġchaps":12184,"Ġchugs":12185,"Ġbathed":12186,"antage":12187,"ounts":12188,"amus":12189,"amole":12190,"ands":12191,"Ġdownstairs":12192,"Ġcater":12193,"Ġupcoming":12194,"Ġupturned":12195,"chel":12196,"Ġpiers":12197,"Ġoutward":12198,"Ġoutlined":12199,"uly":12200,"ulled":12201,"Ġflot":12202,"Ġflushing":12203,"Ġfliers":12204,"Ġflops":12205,"Ġflutes":12206,"Ġflashes":12207,"Ġfloppy":12208,"Ġcartoons":12209,"Ġdoggy":12210,"Ġsnowman":12211,"Ġsnowcapped":12212,"nishes":12213,"Ġtends":12214,"Ġrivers":12215,"Ġtrainers":12216,"Ġwalmart":12217,"Ġfronted":12218,"Ġparka":12219,"Ġparkland":12220,"rooms":12221,"Ġray":12222,"Ġrare":12223,"Ġravi":12224,"Ġrafting":12225,"Ġrazor":12226,"Ġsurve":12227,"Ġsurvey":12228,"Ġsurreal":12229,"Ġbasset":12230,"stain":12231,"step":12232,"stool":12233,"stein":12234,"imes":12235,"imore":12236,"rows":12237,"ightened":12238,"Ġwatery":12239,"Ġpharmac":12240,"Ġphys":12241,"Ġbudd":12242,"Ġbathro":12243,"Ġrye":12244,"boarder":12245,"boarders":12246,"eef":12247,"Ġskaters":12248,"Ġcomic":12249,"Ġcomical":12250,"Ġcombs":12251,"zzled":12252,"Ġfort":12253,"Ġpouch":12254,"Ġjuts":12255,"Ġbacklit":12256,"Ġbackseat":12257,"Ġmotions":12258,"Ġlived":12259,"Ġlikely":12260,"Ġelement":12261,"ieg":12262,"iev":12263,"Ġballon":12264,"Ġballpark":12265,"Thin":12266,"Thre":12267,"Ġheel":12268,"Ġheated":12269,"Ġheeled":12270,"Ġgiraffee":12271,"Ġsew":12272,"Ġsever":12273,"Ġleveled":12274,"Ġbeachfront":12275,"Ġzipping":12276,"Ġzipper":12277,"ransit":12278,"Ġween":12279,"Ġweaves":12280,"Ġwaiving":12281,"Ġcaut":12282,"Ġcape":12283,"Ġcalen":12284,"Ġcause":12285,"Ġgirlfriend":12286,"Ġconve":12287,"Ġconce":12288,"Ġconges":12289,"Ġconcept":12290,"Ġdesolate":12291,"Ġdisks":12292,"Ġdishing":12293,"Ġdisrep":12294,"Ġdisheveled":12295,"Ġdisasse":12296,"Ġcompon":12297,"Ġcompris":12298,"Ġcompared":12299,"Ġcompiled":12300,"Ġumbe":12301,"Ġmotorcy":12302,"illy":12303,"illboard":12304,"illiam":12305,"ĠAB":12306,"ĠAD":12307,"ĠApples":12308,"ĠAll":12309,"Ġsheer":12310,"Ġslug":12311,"Ġslight":12312,"Ġslush":12313,"Ġsliver":12314,"Ġintrig":12315,"Ġglassy":12316,"pened":12317,"Ġtap":12318,"Ġtaught":12319,"ullman":12320,"Ġhandy":12321,"Ġhandlers":12322,"Ġhandker":12323,"Ġscree":12324,"Ġscare":12325,"Ġscared":12326,"Ġscape":12327,"Ġscuba":12328,"orters":12329,"Ġmout":12330,"Ġmoder":12331,"Ġmooring":12332,"Ġopener":12333,"Ġundone":12334,"Ġunderside":12335,"Ġundressed":12336,"Ġunderway":12337,"Ġunderwater":12338,"Ġdecl":12339,"Ġdeca":12340,"Ġteach":12341,"Ġteaches":12342,"Ġtreed":12343,"Ġtreading":12344,"Ġswit":12345,"Ġswiss":12346,"Ġsweeps":12347,"Ġsprig":12348,"Ġspool":12349,"Ġspear":12350,"Ġsparrow":12351,"ager":12352,"Ġfloss":12353,"aple":12354,"apered":12355,"Ġfires":12356,"Ġfiremen":12357,"Ġfiretrucks":12358,"Ġcolt":12359,"Ġsurfboarder":12360,"Ġenc":12361,"Ġenh":12362,"Ġenclose":12363,"Ġbowler":12364,"ĠTr":12365,"ĠTar":12366,"ĠTra":12367,"ĠTRE":12368,"ĠTime":12369,"ĠTOW":12370,"ĠTELL":12371,"ĠTALKING":12372,"Ġdive":12373,"Ġdips":12374,"Ġoffered":12375,"Ġsuites":12376,"Ġsuited":12377,"Ġcounting":12378,"Ġcowgirl":12379,"Ġcellar":12380,"Ġsoon":12381,"orean":12382,"Ġskyward":12383,"Ġcutouts":12384,"Ġcourthouse":12385,"Ġcourtesy":12386,"ctional":12387,"Ġflows":12388,"ifes":12389,"ifth":12390,"Ġkiteboard":12391,"Ġsandwhiches":12392,"ĠWi":12393,"ĠWin":12394,"ĠWood":12395,"ĠWILD":12396,"ĠWilliam":12397,"INES":12398,"INED":12399,"INKING":12400,"ĠSc":12401,"ĠSign":12402,"ĠSim":12403,"ĠSIZ":12404,"ĠSAME":12405,"ĠSky":12406,"ĠSaint":12407,"ĠSOC":12408,"ĠSquare":12409,"ĠSORT":12410,"ĠSELF":12411,"Ġmount":12412,"Ġbizar":12413,"Ġgod":12414,"Ġdripping":12415,"Ġapplic":12416,"Ġhotplate":12417,"Ġmare":12418,"anges":12419,"ression":12420,"dough":12421,"dogs":12422,"double":12423,"Ġheaddress":12424,"uffs":12425,"Ġcheer":12426,"Ġimple":12427,"Ġimitating":12428,"Ġfear":12429,"Ġfeel":12430,"Ġhitch":12431,"their":12432,"Ġarugula":12433,"Ġrefresh":12434,"Ġrefueling":12435,"Ġsaw":12436,"Ġsavory":12437,"Ġbroch":12438,"Ġbroiler":12439,"ĠFUR":12440,"ĠFAM":12441,"ĠFULL":12442,"ĠFifth":12443,"ourished":12444,"Ġuser":12445,"Ġusual":12446,"ĠBel":12447,"ĠBut":12448,"ĠBab":12449,"ĠBay":12450,"ĠBrown":12451,"ĠBRE":12452,"ĠBud":12453,"ĠBest":12454,"ĠBES":12455,"ĠBOT":12456,"ĠBanan":12457,"ĠBalt":12458,"ĠBROC":12459,"ĠBicycle":12460,"ĠOr":12461,"ĠOre":12462,"ĠOcean":12463,"ĠOven":12464,"ĠOrioles":12465,"ĠCle":12466,"ĠCas":12467,"ĠCross":12468,"ĠCRE":12469,"ĠCAL":12470,"ĠCUR":12471,"ĠCAG":12472,"ĠCOFFE":12473,"ĠCorpor":12474,"teen":12475,"Ġsunning":12476,"eyed":12477,"acing":12478,"acled":12479,"acamole":12480,"Ġbespect":12481,"Ġhaunches":12482,"Ġhazard":12483,"Ġunz":12484,"Ġunin":12485,"Ġunic":12486,"Ġunto":12487,"Ġunident":12488,"Ġunited":12489,"Ġunpeeled":12490,"Ġuniqu":12491,"Ġclin":12492,"Ġclipped":12493,"Ġcamps":12494,"Ġproxim":12495,"Ġprohib":12496,"Ġhatch":12497,"Ġboxed":12498,"Ġcordless":12499,"Ġcorrid":12500,"Ġguest":12501,"Ġguacamole":12502,"Ġloom":12503,"Ġloads":12504,"veloped":12505,"Ġwording":12506,"dering":12507,"Ġwineglass":12508,"Ġemo":12509,"engine":12510,"RES":12511,"Ġknots":12512,"Ġknelt":12513,"Ġknifes":12514,"Ġstoop":12515,"Ġstoic":12516,"Ġstoops":12517,"Ġkeypad":12518,"Ġlonghorn":12519,"thog":12520,"thumbs":12521,"urniture":12522,"ĠPR":12523,"ĠPRO":12524,"ĠPUT":12525,"ĠPlace":12526,"ĠPILL":12527,"ĠPOTS":12528,"ĠPooh":12529,"ĠPenns":12530,"ĠPotter":12531,"ĠPullman":12532,"Ġtalbe":12533,"Ġbaguette":12534,"Ġclement":12535,"Ġcleared":12536,"Ġdonation":12537,"Ġperman":12538,"shots":12539,"Ġmeets":12540,"Ġmeme":12541,"Ġwalkers":12542,"Ġcurl":12543,"Ġcurving":12544,"Ġcurves":12545,"Ġdiners":12546,"Ġdinette":12547,"Ġbicyclers":12548,"Ġhighlights":12549,"Ġpotty":12550,"Ġkitesurfing":12551,"Ġpattered":12552,"Ġpea":12553,"Ġpeal":12554,"Ġpecks":12555,"Ġpeice":12556,"Ġmeatloaf":12557,"Ġcanning":12558,"Ġcanist":12559,"estically":12560,"Ġallig":12561,"Ġallows":12562,"chers":12563,"Ġpoly":12564,"Ġpolished":12565,"Ġbooster":12566,"Ġreser":12567,"Ġorders":12568,"Ġleaking":12569,"ITAL":12570,"ITION":12571,"Ġriverboat":12572,"plets":12573,"Ġsteet":12574,"Ġshowering":12575,"Ġsleeper":12576,"Ġjetliners":12577,"Ġattic":12578,"Ġattract":12579,"Ġrowboats":12580,"Ġintersections":12581,"type":12582,"ĠMN":12583,"ĠMom":12584,"ĠMall":12585,"ĠMag":12586,"ĠMother":12587,"ĠMAT":12588,"ĠMary":12589,"ĠMuseum":12590,"ĠMario":12591,"ĠMIDD":12592,"ĠMLB":12593,"Ġlookign":12594,"Ġmates":12595,"Ġmature":12596,"Ġmatress":12597,"Ġslicer":12598,"wered":12599,"bridge":12600,"brushes":12601,"Ġenclosures":12602,"Ġdarkness":12603,"ize":12604,"alent":12605,"Ġpostcard":12606,"Ġsaloon":12607,"Ġsalami":12608,"ĠLE":12609,"ĠLG":12610,"ĠLo":12611,"ĠLas":12612,"ĠLake":12613,"ĠLADY":12614,"ĠLANES":12615,"ĠLINED":12616,"liced":12617,"ĠDad":12618,"ĠDay":12619,"ĠDep":12620,"ĠDalm":12621,"ĠDog":12622,"ĠDOU":12623,"ĠDUR":12624,"ĠDAY":12625,"ĠDRAW":12626,"ĠDetro":12627,"ĠDistrict":12628,"Ġamph":12629,"Ġhairdo":12630,"Ġ\".":12631,"ĠHom":12632,"ĠHil":12633,"ĠHam":12634,"ĠHill":12635,"ĠHere":12636,"ĠHusky":12637,"ĠHollywood":12638,"Ġphotography":12639,"ashion":12640,"Ġfourth":12641,"Ġexits":12642,"Ġexact":12643,"Ġexception":12644,"ĠGra":12645,"ĠGate":12646,"ĠGermany":12647,"ĠGPS":12648,"ĠINTO":12649,"Ġstately":12650,"Ġstatute":12651,"Ġhos":12652,"Ġhosting":12653,"Ġcatsup":12654,"ĠNot":12655,"ĠNIGHT":12656,"Ġedible":12657,"Ġcooktop":12658,"ERRIES":12659,"Ġobelisk":12660,"Ġsquad":12661,"Ġsquinting":12662,"Ġmultit":12663,"Ġgrated":12664,"Ġgrating":12665,"Ġgrins":12666,"Ġgratified":12667,"Ġfurnace":12668,"rical":12669,"ricots":12670,"Ġdistin":12671,"sphere":12672,"Ġfacade":12673,"Ġnotepad":12674,"astically":12675,"Ġpendant":12676,"ARM":12677,"ARIET":12678,"ROAD":12679,"ootball":12680,"Ġsubject":12681,"Ġclothe":12682,"Ġturnips":12683,"Ġpaid":12684,"Ġpared":12685,"Ġcartons":12686,"Ġurinating":12687,"Ġmarch":12688,"Ġmarath":12689,"Ġgarment":12690,"Ġgarnishes":12691,"Ġtrump":12692,"Ġbasement":12693,"sitting":12694,"ĠEle":12695,"ĠEnt":12696,"ĠEAT":12697,"ĠEnd":12698,"Ġafghan":12699,"roads":12700,"Ġarmed":12701,"Ġstyling":12702,"Ġfrightened":12703,"ĠSTALL":12704,"ĠSTAND":12705,"ĠSTEP":12706,"Ġwashes":12707,"Ġnecklaces":12708,"Ġsailor":12709,"Ġpadded":12710,"Ġindian":12711,"ancou":12712,"ĠChild":12713,"Ġclutches":12714,"Ġclutched":12715,"ĠRd":12716,"ĠRide":12717,"ĠRad":12718,"ĠRue":12719,"ĠRestaurant":12720,"Ġfoi":12721,"Ġflyer":12722,"Ġstairwell":12723,"Star":12724,"Strange":12725,"Ġschoolbus":12726,"Ġapricots":12727,"Ġfootstool":12728,"Ġduel":12729,"Ġstallion":12730,"Ġgraffitti":12731,"Ġquant":12732,"Ġquizz":12733,"Ġquestion":12734,"Ġquesadilla":12735,"Ġwheeling":12736,"osk":12737,"Ġmessed":12738,"Ġmessages":12739,"lands":12740,"Ġlowering":12741,"Ġdevil":12742,"Ġspoonful":12743,"Church":12744,"dees":12745,"deck":12746,"Ġblending":12747,"Ġwinery":12748,"Ġwinner":12749,"ensation":12750,"Persons":12751,"scissors":12752,"Ġflagstone":12753,"Ġartif":12754,"ĠUR":12755,"ĠUMP":12756,"ĠUlt":12757,"Ġclothesline":12758,"LADY":12759,"ENG":12760,"Ġcrouch":12761,"Ġcrops":12762,"Ġcrotch":12763,"Ġcroutons":12764,"ETABLE":12765,"OWING":12766,"Ġroost":12767,"Ġfarmland":12768,"ISH":12769,"IST":12770,"Ġburies":12771,"Ġpartaking":12772,"ouis":12773,"ĠVE":12774,"ĠVeg":12775,"ĠVietnam":12776,"ĠValent":12777,"ĠVancou":12778,"Ġcracks":12779,"Ġcrash":12780,"OTE":12781,"Ġdelic":12782,"Ġprops":12783,"Ġproperly":12784,"Ġmodeling":12785,"Ġadvertised":12786,"ractor":12787,"Ġmuscle":12788,"Ġlunchbox":12789,"azard":12790,"coal":12791,"Ġcirca":12792,"Ġcircling":12793,"urfer":12794,"ĠKNIF":12795,"ĠKIDS":12796,"Ġmustached":12797,"Ġkickstand":12798,"Ġkickflip":12799,"Ġsteamboat":12800,"Ġcrusted":12801,"Ġcrushed":12802,"Ġcrutches":12803,"Ġsprings":12804,"Ġmixes":12805,"Ġminivan":12806,"Ġincluded":12807,"ucasian":12808,"Ġclap":12809,"Ġclamp":12810,"Ġportions":12811,"keys":12812,"ĠTHIS":12813,"ĠTHROU":12814,"Ġintercept":12815,"hells":12816,"Ġhappen":12817,"Ġfighters":12818,"Ġtwist":12819,"Ġstride":12820,"ĠJu":12821,"ĠJet":12822,"ĠJET":12823,"ĠJacks":12824,"ĠJesus":12825,"Ġdollhouse":12826,"Ġironing":12827,"Ġuseful":12828,"Ġpeek":12829,"Ġpeeler":12830,"Ġpeeping":12831,"Ġdeplo":12832,"Ġsprinkling":12833,"Ġfuriously":12834,"Ġsweaters":12835,"Ġsweatpants":12836,"OOK":12837,"plish":12838,"Ġbushy":12839,"Ġwritings":12840,"Ġreflect":12841,"Ġbikinis":12842,"Ġability":12843,"Ġwarms":12844,"Ġwarthog":12845,"astern":12846,"Ġjoined":12847,"gonomic":12848,"athans":12849,"Ġmounds":12850,"crafts":12851,"Ġclassical":12852,"Ġjewe":12853,"THRE":12854,"emble":12855,"Ġstreaming":12856,"Ġstreamers":12857,"Ġgroomer":12858,"Ġchargers":12859,"Ġcharcoal":12860,"Ġfinding":12861,"Ġcondensation":12862,"ILY":12863,"Ġawesome":12864,"Ġhoods":12865,"IDES":12866,"Ġlegos":12867,"ĠPEOLE":12868,"Ġtransparent":12869,"Ġcelebrates":12870,"Ġtailgate":12871,"Ġsimply":12872,"Ġpetted":12873,"Ġfirm":12874,"Ġdrag":12875,"Ġremove":12876,"Ġducky":12877,"Ġ22":12878,"Ġcreated":12879,"Ġcrepe":12880,"Ġattemping":12881,"ĠYamaha":12882,"Ġdaughters":12883,"Ġwaterskiing":12884,"Ġcolliding":12885,"Ġorganizes":12886,"Ġdelivered":12887,"Ġdelivers":12888,"vania":12889,"Ġobserved":12890,"cycles":12891,"Ġporc":12892,"Ġconfection":12893,"Ġconfront":12894,"Ġmagnifying":12895,"Ġcalz":12896,"Ġphotographers":12897,"amples":12898,"roturf":12899,"Ġevenly":12900,"Ġtransports":12901,"ddles":12902,"ĠREACHING":12903,"Ġreporter":12904,"Ġreporters":12905,"Ġweathervane":12906,"Ġchilies":12907,"Ġcalfs":12908,"Ġfilter":12909,"Ġfilmed":12910,"uzzled":12911,"Ġonlooking":12912,"Ġexhibition":12913,"Bushel":12914,"Ġaudio":12915,"Ġsaddled":12916,"Ġhumans":12917,"Ġhumorous":12918,"oeing":12919,"oeuv":12920,"Ġsuv":12921,"Ġpatchwork":12922,"Ġicons":12923,"Ġicicles":12924,"Ġpinning":12925,"Ġsecuring":12926,"ELS":12927,"ELY":12928,"ELING":12929,"oker":12930,"Ġcalmly":12931,"Ġcompleted":12932,"odes":12933,"Ġassoc":12934,"Ġassisted":12935,"Ġgolfer":12936,"Ġboulevard":12937,"Ġsprayer":12938,"Ġceramics":12939,"FFIC":12940,"complete":12941,"Ġtinfoil":12942,"Ġbrach":12943,"Ġbrake":12944,"Ġbraids":12945,"Ġpleased":12946,"Ġcranberry":12947,"Ġstirred":12948,"Ġvolkswagon":12949,"Ġvolunte":12950,"Onions":12951,"Ġtuned":12952,"Ġshuttered":12953,"Ġtaxiway":12954,"Ġponytail":12955,"Ġcrude":12956,"Ġcruises":12957,"Ġcrucif":12958,"Ġreadied":12959,"Ġjerseys":12960,"ĠTRAFFIC":12961,"Ġprotecting":12962,"Cola":12963,"ĠBATTER":12964,"ĠPLANT":12965,"Bearded":12966,"meted":12967,"Ġcushioned":12968,"Ġsneak":12969,"Ġcombines":12970,"ĠBAORD":12971,"Ġgripping":12972,"Ġgrime":12973,"Ġgrimaces":12974,"Ġgranola":12975,"Ġmovement":12976,"ĠPARADE":12977,"Ġfingerling":12978,"Collage":12979,"Ġovercooked":12980,"Ġworkshop":12981,"ASA":12982,"Shadow":12983,"Ġoperator":12984,"Ġoperates":12985,"Ġneeded":12986,"Ġarrival":12987,"Ġpumping":12988,"Ġinsign":12989,"Pairs":12990,"Ġdroplets":12991,"Ġplanks":12992,"Ġplanner":12993,"Ġopponents":12994,"ĠTheatre":12995,"Ġactively":12996,"Ġactually":12997,"Ġbundles":12998,"Ġelegantly":12999,"Ġseashells":13000,"Ġunfolded":13001,"Ġunfurnished":13002,"Ġpeanuts":13003,"Ġgrinning":13004,"Ġcalls":13005,"Ġgeared":13006,"Ġgoofy":13007,"Ġstrolling":13008,"Ġstrolls":13009,"layed":13010,"Ġconveyer":13011,"Ġsplashes":13012,"ĠCART":13013,"Ġhauls":13014,"Ġtrimmings":13015,"Ġlistens":13016,"CHES":13017,"Herds":13018,"tache":13019,"Ġdescends":13020,"Cargo":13021,"Carrot":13022,"Ġbeanbag":13023,"Ġfaucets":13024,"ĠSNOWBOARD":13025,"ĠUSB":13026,"bags":13027,"Ġdetached":13028,"Ġcoastal":13029,"Sculpt":13030,"Ġkeeper":13031,"Ġdeciding":13032,"Ġdecided":13033,"Ġdefin":13034,"Ġdefend":13035,"Ġdividers":13036,"ĠWALK":13037,"Ġpressure":13038,"Hotel":13039,"Ġ50":13040,"Ġ51":13041,"Ġfatigues":13042,"Ġrotini":13043,"Ġchandeliers":13044,"Ġbadge":13045,"Ġbadges":13046,"Ġpigtails":13047,"Ġinstructional":13048,"Ġanchor":13049,"Ġanchov":13050,"Ġhalved":13051,"Ġnaval":13052,"Ġsnuggles":13053,"Ġcarnation":13054,"Ġcarnations":13055,"Ġtexts":13056,"Ġmajestically":13057,"ĠRoyal":13058,"Ġtroop":13059,"Ġnurses":13060,"ĠSHOWING":13061,"ĠCOMM":13062,"Ġbarbec":13063,"ĠKITES":13064,"Policemen":13065,"ĠZoo":13066,"Ġsummit":13067,"Ġstumps":13068,"ĠAIRPORT":13069,"Ġcollecting":13070,"Ġcampground":13071,"Ġspecials":13072,"Ġspecialty":13073,"ĠUnion":13074,"Ġparasails":13075,"IMB":13076,"Sandy":13077,"ippy":13078,"Ġstreak":13079,"Ġstreaking":13080,"Ġtechnic":13081,"Ġattentive":13082,"Ġartistically":13083,"Ġbumping":13084,"Ġcoolers":13085,"Ġrealistic":13086,"Ġscratches":13087,"Ġretrievers":13088,"Commode":13089,"Lights":13090,"Parach":13091,"Ġflex":13092,"ĠThai":13093,"Ġmoustache":13094,"Ġgymnas":13095,"Ġnailed":13096,"Ġruined":13097,"Ġjammed":13098,"Ġcompletes":13099,"ĠFORK":13100,"ĠNEW":13101,"Ġsolo":13102,"Ġwipes":13103,"Ġpontoon":13104,"Ġpageant":13105,"Ġfiles":13106,"Ġreveal":13107,"Ġvacation":13108,"Ġyoga":13109,"Ġjugs":13110,"Ġscruffy":13111,"Ġpreparations":13112,"ĠItaly":13113,"Ġprotestors":13114,"Ġsupreme":13115,"Ġhuddling":13116,"Ġrodent":13117,"Ġunripened":13118,"Ġassembling":13119,"Clown":13120,"Cluttered":13121,"Left":13122,"Legs":13123,"PHONE":13124,"ylvania":13125,"Ġultra":13126,"Ġcrowding":13127,"Ġwatermelons":13128,"Ġadmired":13129,"Ġallowing":13130,"Ġseasonings":13131,"Ġalcoholic":13132,"Ġaims":13133,"Ġmerge":13134,"Ġmerging":13135,"Ġhurdles":13136,"Ġbuys":13137,"Ġscrap":13138,"Ġscrambling":13139,"Ġbridal":13140,"ĠBRIGHT":13141,"ĠPOST":13142,"LASSES":13143,"Ġwrestle":13144,"Ġalertly":13145,"AVY":13146,"Construction":13147,"Why":13148,"XTRA":13149,"hammer":13150,"maid":13151,"Ġergonomic":13152,"Ġipad":13153,"Ġdrainage":13154,"Ġnutella":13155,"Ġnutritious":13156,"ĠBEDROOM":13157,"ĠOVERLOOKING":13158,"Ġclowns":13159,"ĠELECT":13160,"Ġconsuming":13161,"Ġconsumed":13162,"PLATE":13163,"PLACE":13164,"Ġsatin":13165,"Ġferret":13166,"Ġyourself":13167,"Ġheights":13168,"Ġmacbook":13169,"Ġstemmed":13170,"ĠKitchen":13171,"Ġescort":13172,"Ġkiwis":13173,"Ġetched":13174,"Ġgrapefruits":13175,"Ġascends":13176,"ĠChevy":13177,"Ġtarps":13178,"Ġborders":13179,"Ġpalms":13180,"Ġcrammed":13181,"Ġmissed":13182,"iction":13183,"Ġsearch":13184,"Ġintricately":13185,"Ġsparkler":13186,"Ġsparkling":13187,"ĠWALLS":13188,"Ġsimilarly":13189,"Ġdetailing":13190,"Ġgraduates":13191,"Twin":13192,"color":13193,"knacks":13194,"ĠManhatt":13195,"Ġurns":13196,"Ġsqueezing":13197,"Ġwebcam":13198,"Ġfuturistic":13199,"Ġgingerbread":13200,"ĠBeach":13201,"Ġemerges":13202,"ĠHarry":13203,"Ġprotrudes":13204,"ĠFIREPLACE":13205,"Partially":13206,"Ġtackling":13207,"Ġblaze":13208,"Ġcarvings":13209,"Ġjudge":13210,"ĠAustralian":13211,"Ġspaniel":13212,"ĠTELE":13213,"ĠTEAM":13214,"Ġhydra":13215,"Ġbreasts":13216,"ĠDECOR":13217,"ĠDRINK":13218,"ĠDRINKING":13219,"ĠDVDs":13220,"Ġbulldozer":13221,"Ġaffectionate":13222,"Ġcongregating":13223,"Decorated":13224,"ĠGIRLS":13225,"ĠUMBRELLAS":13226,"Pepperoni":13227,"Steak":13228,"Worker":13229,"Ġwih":13230,"Ġlatte":13231,"ichen":13232,"Ġeffort":13233,"Ġchoice":13234,"ĠColgate":13235,"Ġunbut":13236,"Ġproceed":13237,"Ġproceeds":13238,"Ġpearls":13239,"Ġbarbwire":13240,"Ġattachments":13241,"Ġstorefronts":13242,"Ġamazed":13243,"Ġconcentrates":13244,"Ġspecies":13245,"Ġspecific":13246,"Ġspecially":13247,"ĠRUNWAY":13248,"ĠUNDERNEATH":13249,"Ġcrumbling":13250,"Ġenthusiastically":13251,"Ġceremonial":13252,"Ġinvolving":13253,"Ġthermos":13254,"Ġhundred":13255,"Ġeager":13256,"Ġteacup":13257,"Ġswampy":13258,"ĠTIER":13259,"ĠWORMS":13260,"ĠSCREEN":13261,"Ġgoblet":13262,"Ġwildebeests":13263,"Ġteammates":13264,"Ġfunctional":13265,"Ġentryway":13266,"Doughnut":13267,"Ġcollectible":13268,"Ġtechnological":13269,"Desktop":13270,"ĠBANANAS":13271,"Cheese":13272,"Chefs":13273,"wheeler":13274,"Ġirises":13275,"Ġirregular":13276,"Ġhoof":13277,"Ġgnome":13278,"Ġcharming":13279,"Ġratty":13280,"Ġfirefighters":13281,"Ġimpressed":13282,"Ġimpressive":13283,"Ġbroadly":13284,"ĠCDs":13285,"ĠPOLICE":13286,"grammed":13287,"Ġexercise":13288,"Ġexercising":13289,"Ġwrinkles":13290,"Ġpretzels":13291,"Ġdeparture":13292,"Ġconditioner":13293,"Motorcyclists":13294,"Ġbracelet":13295,"Ġbracelets":13296,"Ġwreaths":13297,"Ġ2012":13298,"Ġpomegranates":13299,"Goats":13300,"driver":13301,"zebras":13302,"Ġtitle":13303,"Ġcrisp":13304,"Ġcriss":13305,"Ġfeta":13306,"Ġlanterns":13307,"lamps":13308,"Ġerected":13309,"Ġsharpens":13310,"Ġsharpener":13311,"Ġparakeet":13312,"Ġoutcrop":13313,"Ġsegment":13314,"Ġdisgusting":13315,"ĠSPOON":13316,"ĠSpring":13317,"ĠFEEDING":13318,"ĠBARN":13319,"Ġaddresses":13320,"ĠPolaroid":13321,"Ġforeheads":13322,"ĠLibrary":13323,"Ġhosts":13324,"Ġsuccessful":13325,"Ġsuccessfully":13326,"Ġmerchant":13327,"Ġlavishly":13328,"GHN":13329,"modern":13330,"ohn":13331,"Ġtastes":13332,"Ġdancer":13333,"Ġdancers":13334,"Ġstabbed":13335,"Ġninet":13336,"Ġwhiskey":13337,"Ġgrasping":13338,"ĠCLEAN":13339,"ĠCLEAR":13340,"Ġcontinue":13341,"Ġmonogrammed":13342,"ĠMEAL":13343,"ĠHITTING":13344,"ĠGolden":13345,"ĠVolkswagon":13346,"ĠVEGG":13347,"Ġmuscles":13348,"Ġmuscular":13349,"Competitor":13350,"Ġspotlessly":13351,"Ġmagnetic":13352,"ĠREFLE":13353,"Ġmeasurements":13354,"ĠAPPEARING":13355,"Ġenthusiasts":13356,"Ġautographs":13357,"About":13358,"Classic":13359,"Evening":13360,"Pancakes":13361,"Playing":13362,"Swans":13363,"Sleeping":13364,"Trays":13365,"Ġsuticase":13366,"Ġgingham":13367,"Ġgaining":13368,"Ġwhiskers":13369,"Ġrequire":13370,"Ġcoordinating":13371,"Ġvaulted":13372,"Ġkiln":13373,"Ġdocuments":13374,"Ġboutonnie":13375,"ĠArizona":13376,"Ġaligned":13377,"Ġslatted":13378,"ĠCELEBR":13379,"Ġdoubledecker":13380,"Ġpegboard":13381,"ĠDani":13382,"ĠHYDRANT":13383,"ĠHorses":13384,"Ġexpert":13385,"ĠGUYS":13386,"ĠNYPD":13387,"istoric":13388,"Ġlandscaping":13389,"Ġfridges":13390,"ĠCharacters":13391,"Ġquarter":13392,"Ġcrusts":13393,"Ġaccordion":13394,"Advertising":13395,"Ġorganization":13396,"Ġinstitutional":13397,"ĠRESTAUR":13398,"Ġbulbous":13399,"Ġhippopot":13400,"Attractive":13401,"Ġinvestigate":13402,"Ġblindfolded":13403,"ĠAPPLES":13404,"ĠRACKET":13405,"Ġcylindrical":13406,"ĠPASSING":13407,"Ġpebbled":13408,"Ġuncommonly":13409,"BATHROOM":13410,"Calico":13411,"Motion":13412,"Mountains":13413,"Pigeons":13414,"Tomatoes":13415,"Urban":13416,"court":13417,"ecutive":13418,"uccino":13419,"Ġsenior":13420,"Ġslacks":13421,"Ġbristles":13422,"rexposed":13423,"Ġfasc":13424,"Ġlumber":13425,"Ġbeetle":13426,"Ġretaining":13427,"Ġeclectic":13428,"Ġtraversing":13429,"Ġversion":13430,"Ġplywood":13431,"Ġgravity":13432,"Ġleaguer":13433,"Ġovernight":13434,"Ġcappuccino":13435,"Ġalbum":13436,"Ġtacos":13437,"Ġscrolls":13438,"Ġscrewdriver":13439,"Ġdealership":13440,"Ġteakettle":13441,"Ġsponsor":13442,"Ġshowcasing":13443,"ifiable":13444,"ĠScott":13445,"ĠService":13446,"Ġsauteed":13447,"ĠCardinal":13448,"Ġadvantage":13449,"ĠPacific":13450,"ĠPIECE":13451,"ĠPAINT":13452,"Ġaggressively":13453,"ĠIrish":13454,"ĠMETER":13455,"ĠMajor":13456,"ĠDONUTS":13457,"ĠGeorge":13458,"Ġflames":13459,"ĠEdward":13460,"Ġgraffitied":13461,"ĠStatue":13462,"Ġartichokes":13463,"Ġterritory":13464,"Ġhouseboat":13465,"Ġentrancing":13466,"ĠJEANS":13467,"ĠJUNGLE":13468,"Ġstraddling":13469,"Ġfinancial":13470,"Ġinstallation":13471,"Ġdispensers":13472,"APPEARS":13473,"Ġdeterm":13474,"Ġsatellite":13475,"Ġtransformed":13476,"Ġanswering":13477,"Ġmalnourished":13478,"Ġpyramid":13479,"ĠTOOTHBRUSH":13480,"Ġinquisitive":13481,"Bundles":13482,"Fingers":13483,"Helmeted":13484,"Picnic":13485,"Poster":13486,"Protest":13487,"Split":13488,"TENNIS":13489,"Utility":13490,"gherita":13491,"paneled":13492,"ulous":13493,"Ġabsol":13494,"Ġtangled":13495,"Ġoverexposed":13496,"Ġsample":13497,"Ġbreeze":13498,"Ġbazaar":13499,"Ġwastebasket":13500,"hentic":13501,"Ġpamph":13502,"Ġpandas":13503,"Ġflesh":13504,"Ġfoothills":13505,"Ġmarmalade":13506,"Ġduster":13507,"Ġdedicated":13508,"Ġstrength":13509,"Ġnacho":13510,"Ġneglected":13511,"Ġreindeer":13512,"Ġkaraoke":13513,"Ġplastered":13514,"Ġfifties":13515,"Ġchariot":13516,"Ġravioli":13517,"Ġpharmacy":13518,"Ġphysical":13519,"Ġcongested":13520,"Ġdisrepair":13521,"Ġdisassembled":13522,"Ġslushy":13523,"Ġhandkerchief":13524,"Ġdecaying":13525,"ĠTREES":13526,"ĠSOCCER":13527,"Ġbizarre":13528,"Ġimplements":13529,"Ġrefreshments":13530,"ĠFAMILY":13531,"ĠBESIDES":13532,"ĠBaltimore":13533,"ĠCOFFEE":13534,"Ġbespectacled":13535,"Ġuntouched":13536,"Ġunidentifiable":13537,"Ġuniquely":13538,"Ġcampsite":13539,"Ġproximity":13540,"Ġcorridor":13541,"ĠPUTTING":13542,"ĠPennsylvania":13543,"Ġpermanently":13544,"Ġcanisters":13545,"ĠMIDDLE":13546,"ĠDOUGHN":13547,"ĠDRAWN":13548,"ĠDetroit":13549,"Ġmarathon":13550,"Ġquizzical":13551,"ĠUMPIRE":13552,"ĠUltimate":13553,"ĠVegas":13554,"ĠVietnamese":13555,"ĠVancouver":13556,"ĠKNIFE":13557,"ĠTHROUGH":13558,"ĠJackson":13559,"Ġanchovies":13560,"Ġgymnasium":13561,"ĠManhattan":13562,"Ġboutonniere":13563,"ĠCELEBRATING":13564,"ĠRESTAURANT":13565,"Ġhippopotamus":13566,"'.":13567,"'ll":13568,",.":13569,"08":13570,"12":13571,"14":13572,"18":13573,"25":13574,"29":13575,"35":13576,"55":13577,"60":13578,"??":13579,"AF":13580,"AK":13581,"Ab":13582,"Aler":13583,"ARE":13584,"Aman":13585,"Asp":13586,"Amer":13587,"AKING":13588,"Arial":13589,"Apple":13590,"ACKS":13591,"AKES":13592,"ACHER":13593,"BM":13594,"Bar":13595,"Ball":13596,"Bur":13597,"Base":13598,"Bull":13599,"Bey":13600,"BLE":13601,"Bins":13602,"Bears":13603,"Bike":13604,"Bacon":13605,"Baker":13606,"BAM":13607,"Burning":13608,"BASE":13609,"Bald":13610,"Butter":13611,"Bathtub":13612,"Beef":13613,"Billboard":13614,"BERRIES":13615,"Ce":13616,"Cit":13617,"Cur":13618,"Card":13619,"Cab":13620,"Cher":13621,"Cand":13622,"Cru":13623,"Cage":13624,"Care":13625,"CING":13626,"CAT":13627,"CAR":13628,"COM":13629,"CES":13630,"Colored":13631,"COL":13632,"CROSS":13633,"CADE":13634,"Curious":13635,"Cupcakes":13636,"DI":13637,"Dri":13638,"Dad":13639,"Dam":13640,"Dess":13641,"Dist":13642,"Dining":13643,"Dental":13644,"Disc":13645,"Dairy":13646,"DOG":13647,"Ext":13648,"Each":13649,"Emp":13650,"Emb":13651,"Elaborate":13652,"ERED":13653,"FL":13654,"FT":13655,"Fe":13656,"Fle":13657,"Fig":13658,"Free":13659,"Full":13660,"Frisbee":13661,"Fram":13662,"Faded":13663,"Fog":13664,"Fake":13665,"Fully":13666,"Flat":13667,"Fuzzy":13668,"First":13669,"FIVE":13670,"Furniture":13671,"Fashion":13672,"GI":13673,"GO":13674,"GY":13675,"Ge":13676,"Goo":13677,"Gri":13678,"Gated":13679,"German":13680,"Great":13681,"Hum":13682,"Hors":13683,"House":13684,"Hanging":13685,"Having":13686,"Hospital":13687,"Ing":13688,"IERS":13689,"ICKS":13690,"JO":13691,"Just":13692,"Japanese":13693,"Kn":13694,"King":13695,"Kitten":13696,"LI":13697,"LM":13698,"Let":13699,"Lab":13700,"Lad":13701,"Lime":13702,"LERS":13703,"London":13704,"LAND":13705,"Lamb":13706,"Lower":13707,"LARGE":13708,"LONG":13709,"Love":13710,"MA":13711,"ME":13712,"MI":13713,"MY":13714,"Mom":13715,"Mas":13716,"Mic":13717,"Mus":13718,"May":13719,"Mush":13720,"MING":13721,"MAT":13722,"Mature":13723,"Mexican":13724,"Mounted":13725,"Maj":13726,"Museum":13727,"NN":13728,"Non":13729,"Now":13730,"Nuts":13731,"Naked":13732,"Native":13733,"Narrow":13734,"NERS":13735,"Nicely":13736,"OD":13737,"Ob":13738,"Ocean":13739,"OOM":13740,"OFF":13741,"OVER":13742,"Oriental":13743,"OTHER":13744,"Ostrich":13745,"ORED":13746,"PP":13747,"PU":13748,"Per":13749,"Por":13750,"Pig":13751,"Pain":13752,"Pep":13753,"Pick":13754,"Pens":13755,"Palm":13756,"Paper":13757,"Pano":13758,"Pres":13759,"Papers":13760,"Polar":13761,"QU":13762,"Que":13763,"Re":13764,"Ret":13765,"Roll":13766,"RIC":13767,"Rusted":13768,"Rhin":13769,"River":13770,"Retro":13771,"Rundown":13772,"Restaurant":13773,"Sn":13774,"San":13775,"Sat":13776,"Stain":13777,"Somet":13778,"Slow":13779,"SED":13780,"Sushi":13781,"Since":13782,"SOME":13783,"SORS":13784,"TA":13785,"TV":13786,"Ty":13787,"Tort":13788,"Tag":13789,"Trol":13790,"TRO":13791,"TOM":13792,"Tram":13793,"TIS":13794,"Tiled":13795,"TURN":13796,"Tractor":13797,"UM":13798,"Und":13799,"VIS":13800,"Vandal":13801,"VIEW":13802,"Virgin":13803,"WA":13804,"WE":13805,"Whe":13806,"War":13807,"Wor":13808,"Wet":13809,"Wide":13810,"Wii":13811,"WTH":13812,"Worn":13813,"Wrought":13814,"Watch":13815,"WHERE":13816,"Winter":13817,"Wait":13818,"Wonder":13819,"Yes":13820,"Yach":13821,"apt":13822,"ault":13823,"aven":13824,"aiting":13825,"aist":13826,"awn":13827,"afe":13828,"aerial":13829,"aware":13830,"aughter":13831,"bar":13832,"bon":13833,"bet":13834,"bot":13835,"big":13836,"bard":13837,"bug":13838,"bie":13839,"bull":13840,"bare":13841,"bows":13842,"bish":13843,"bear":13844,"baked":13845,"block":13846,"bians":13847,"bathtub":13848,"cr":13849,"cre":13850,"cid":13851,"cil":13852,"crow":13853,"cass":13854,"cast":13855,"cooking":13856,"cart":13857,"cely":13858,"cular":13859,"cute":13860,"curity":13861,"cially":13862,"coph":13863,"cupcakes":13864,"dged":13865,"ean":13866,"eff":13867,"eks":13868,"ecor":13869,"fing":13870,"foo":13871,"free":13872,"fred":13873,"full":13874,"fort":13875,"fram":13876,"fired":13877,"flies":13878,"fried":13879,"finished":13880,"first":13881,"gi":13882,"gro":13883,"got":13884,"gus":13885,"gile":13886,"gue":13887,"gry":13888,"ggs":13889,"goon":13890,"gos":13891,"gons":13892,"giving":13893,"giant":13894,"gliding":13895,"how":13896,"hous":13897,"hire":13898,"half":13899,"hns":13900,"hake":13901,"hadow":13902,"habit":13903,"hode":13904,"haps":13905,"iy":13906,"iat":13907,"ila":13908,"iot":13909,"iate":13910,"iation":13911,"iors":13912,"ivered":13913,"ived":13914,"ieth":13915,"iker":13916,"ja":13917,"ju":13918,"jecting":13919,"kers":13920,"kay":13921,"kule":13922,"lu":13923,"lis":13924,"lot":13925,"lying":13926,"lated":13927,"llic":13928,"lized":13929,"lied":13930,"lier":13931,"langu":13932,"mm":13933,"mn":13934,"mal":13935,"mouse":13936,"mond":13937,"mary":13938,"mallow":13939,"mod":13940,"maker":13941,"mmed":13942,"melier":13943,"mote":13944,"minating":13945,"mith":13946,"military":13947,"nat":13948,"nor":13949,"net":13950,"nity":13951,"nine":13952,"nets":13953,"nies":13954,"ob":13955,"oor":13956,"oir":13957,"oks":13958,"oors":13959,"ocked":13960,"oids":13961,"ohem":13962,"pro":13963,"pic":13964,"pink":13965,"pair":13966,"pill":13967,"past":13968,"pip":13969,"pool":13970,"pond":13971,"puter":13972,"pots":13973,"picious":13974,"pod":13975,"pole":13976,"pose":13977,"posure":13978,"rug":13979,"rill":13980,"rint":13981,"rince":13982,"rints":13983,"sl":13984,"sq":13985,"sw":13986,"sy":13987,"site":13988,"spe":13989,"swing":13990,"sels":13991,"shel":13992,"sided":13993,"sbee":13994,"sunny":13995,"sliced":13996,"sbians":13997,"tit":13998,"tow":13999,"tting":14000,"tents":14001,"tray":14002,"thers":14003,"tichen":14004,"uet":14005,"uant":14006,"uree":14007,"uquet":14008,"uzer":14009,"uarant":14010,"vd":14011,"vag":14012,"vious":14013,"via":14014,"vaged":14015,"vival":14016,"vitating":14017,"wy":14018,"wan":14019,"wur":14020,"wild":14021,"wth":14022,"wars":14023,"wave":14024,"wny":14025,"writ":14026,"worth":14027,"xig":14028,"xagonal":14029,"yo":14030,"yst":14031,"ypt":14032,"yled":14033,"yummy":14034,"zip":14035,"zilla":14036,"zucchini":14037,"Ġ[":14038,"Ġig":14039,"Ġign":14040,"ĠThree":14041,"ĠSeveral":14042,"Ġud":14043,"Ġelf":14044,"ĠROUND":14045,"Ġidy":14046,"ĠROW":14047,"Ġay":14048,"Ġaz":14049,"Ġack":14050,"Ġalo":14051,"Ġaver":14052,"Ġacts":14053,"Ġaux":14054,"Ġarabic":14055,"inm":14056,"inine":14057,"inated":14058,"into":14059,"inness":14060,"inental":14061,"inisc":14062,"innes":14063,"Ġtp":14064,"Ġtink":14065,"Ġtumb":14066,"Ġtilled":14067,"Ġtest":14068,"Ġtiers":14069,"Ġtummy":14070,"Ġtask":14071,"Ġtiki":14072,"Ġoo":14073,"Ġop":14074,"Ġoy":14075,"Ġoher":14076,"Ġoils":14077,"Ġoption":14078,"Ġopa":14079,"Ġokay":14080,"Ġsow":14081,"Ġsot":14082,"Ġswo":14083,"Ġsking":14084,"Ġsown":14085,"Ġsul":14086,"Ġsage":14087,"Ġsent":14088,"Ġsif":14089,"Ġsched":14090,"Ġsust":14091,"Ġsens":14092,"Ġsizz":14093,"Ġsixt":14094,"Ġsending":14095,"Ġsister":14096,"Ġsomb":14097,"Ġsince":14098,"Ġssitting":14099,"Ġsippy":14100,"inging":14101,"ingling":14102,"Ġbol":14103,"Ġbigh":14104,"Ġbac":14105,"Ġbales":14106,"Ġbails":14107,"itage":14108,"itely":14109,
[...]
